#version: 0.2 - Trained by `huggingface/tokenizers`
▁ a
▁ t
▁ o
e r
i n
▁t h
o n
r e
i t
▁a n
a t
▁th e
e s
o u
e n
▁o r
▁ p
▁ c
▁ s
o r
i s
i on
▁ w
▁o f
e d
i c
▁t o
▁ in
▁an d
▁ b
a l
en t
▁ re
in g
▁an y
▁ f
▁ d
r o
▁ T
▁ m
u s
▁ y
▁ S
l e
▁y ou
a r
a n
▁ A
c t
▁ n
at ion
▁ l
i l
▁ O
o t
▁c on
r i
t h
▁ us
u r
s e
▁p ro
▁ C
o m
▁ W
it e
▁n ot
▁ e
s ,
er v
▁ I
▁b e
i m
a y
th er
it h
▁f or
▁ P
a b
erv ic
er m
▁th at
l y
g h
e b
▁w ith
i d
c e
▁ h
v e
▁s u
c h
▁o ther
e m
▁ (
▁ Y
▁you r
s t
▁b y
▁o n
l l
u n
E R
▁T H
▁a c
E S
▁us e
▁con t
gh t
u t
f or
er s
eb s
▁ is
▁ U
at e
ar t
ri ght
c l
I T
es s
ab le
o l
O N
p l
it y
e ct
a s
g re
es ,
▁re s
▁Y ou
▁m ay
i al
i r
▁O R
▁ac c
ebs ite
▁S ervic
▁A N
▁a re
for m
r a
▁e x
u d
i f
erm s
▁a s
il l
▁th is
N T
▁ B
▁ right
r an
▁TH E
▁ un
▁ D
▁d is
▁o ur
a in
▁pro v
▁p art
▁ F
▁ L
A T
u l
▁ v
▁c om
▁T h
ion s
▁w ill
▁s h
e t
▁w h
cl ud
form ation
re s
▁ M
R E
▁ g
n t
e ,
a m
▁O F
▁a ll
▁a gre
i ve
v er
a g
ro m
a il
▁in formation
▁a t
I N
o w
▁su ch
p t
▁f rom
▁ N
▁ E
d er
m ent
▁ it
O R
ou t
▁d e
E D
i es
▁c o
▁s ervic
al l
em ent
▁the se
i b
a c
t er
▁C on
a w
clud ing
at er
▁prov id
O U
i g
d u
I ON
t ent
ater ial
▁sh all
at ed
o s
▁T erms
d it
▁a p
p on
a d
il ity
▁I N
im it
q u
I C
▁S ite
▁d o
▁s o
▁m aterial
▁cont ent
▁AN Y
▁with out
A R
I S
▁a d
▁l imit
E NT
▁su b
▁w ebsite
▁l aw
p er
▁agre e
ir d
▁W ebsite
i re
ou nt
▁Th e
▁w e
o d
du ct
c om
▁Servic e
e c
u b
I L
▁ R
▁l i
en d
ation s
er e
le ct
▁it s
is e
ran t
i v
p res
▁th ird
A L
▁acc ess
▁c h
an ce
▁in cluding
▁W e
a re
▁AN D
▁com p
ers on
▁h a
us t
▁t im
▁s t
s ib
▁T O
e l
▁Con tent
es t
a k
▁s ite
o st
C T
y ,
▁ha ve
in k
f f
IN G
▁re l
▁co p
▁un der
▁p erson
▁v i
▁res pon
u re
ab ility
▁I n
▁ im
en s
R O
ran s
▁p ur
it t
▁right s
▁other w
ar d
u al
▁Y OU
▁respon sib
▁re g
ic e
▁t erm
r ou
▁Servic es
g e
pl ic
t w
S E
▁part y
▁U s
f er
▁a r
▁c l
▁tim e
ic h
a se
A B
o re
▁t rans
ar k
▁ H
▁o b
w n
▁otherw ise
▁wh ich
▁l ink
a im
t ion
▁t erms
▁a ct
o c
u m
L E
▁p ri
R A
is s
▁ u
▁o wn
o se
▁w ar
ol ic
▁I f
▁cop y
▁in d
o g
s .
▁C ON
it es
ou r
▁in t
t y
▁servic es
ra d
▁war rant
▁ G
▁n o
v ail
am ag
i z
▁d amag
▁L I
i p
▁pro duct
▁and /
AT ION
▁N O
▁p ost
▁and/ or
S ,
le g
u th
ed ,
dit ions
e w
▁Us er
is t
▁ “
gre ement
▁ap plic
▁term in
a ch
ac y
rou gh
▁a vail
▁C om
▁l ic
p or
ri b
’ s
an t
▁A greement
p ro
ER V
▁acc ount
t ain
▁so le
▁e m
. com
▁th rough
uth or
▁f e
ation ,
ub l
T H
▁S ERV
an d
ect ion
ce pt
or d
▁t rad
a ct
▁provid ed
IT E
at a
▁pro per
▁in ter
ire ct
▁servic e
ak e
▁a g
▁SERV IC
▁ if
ing ,
▁re m
▁ en
▁re qu
▁prov is
r u
▁cl aim
▁a b
▁vi ol
▁avail able
▁responsib le
IT Y
▁copy right
U R
en se
l d
as on
▁applic able
▁com m
pl o
▁p erm
▁P RO
▁a l
▁ RE
▁dis c
v acy
▁con s
P L
f tw
ftw are
▁re ason
▁l os
ic al
▁g o
id ent
ul t
p ect
▁F OR
▁ch an
▁P ro
or k
leg al
▁E X
ar y
pres ent
▁ ent
pres s
▁res erv
if y
pl i
an y
▁cont ain
ES S
▁li ability
▁material s
▁as s
▁pur p
r ing
▁p er
at es
C L
▁proper ty
ig n
TH ER
f ul
▁m e
▁us ing
m iss
▁w r
e x
j ect
▁ex press
▁p ubl
▁person al
le t
en ce
▁b ut
IL ITY
▁NO T
▁us er
is h
▁los s
l ig
▁B E
r ic
is ing
M IT
▁d ata
ra ct
p ri
▁do es
▁m ust
ES ,
rib ut
E N
dit ion
▁n on
▁not ice
▁c re
i )
▁re present
▁p ay
▁s p
▁Com p
or s
ed i
v ent
art y
▁con ditions
▁U se
▁limit ed
M A
u e
▁a ff
▁o ut
n ow
▁h ar
em ark
p h
l i
f ring
er s,
▁provid e
▁de f
k now
uthor iz
▁U SE
it ed
l ess
i es,
a us
ust om
▁agre ement
▁ r
IT H
el lect
ellect ual
as s
ou ld
▁ j
▁ "
) ,
s o
▁W AR
RA NT
▁CON T
▁WAR RANT
por t
l ed
in e
▁W E
I D
▁( in
▁trad emark
at ing
▁con n
▁s e
▁in c
O M
▁S t
c c
▁d irect
▁of f
▁m od
cl us
ag e
id e
▁S ITE
▁You r
▁the ir
if ic
▁res pect
s c
g es
▁non -
▁pri or
l o
c ial
ment s
O S
▁h as
▁int ellectual
AB LE
C H
▁su p
▁re v
A S
U L
▁sub ject
▁ap p
▁at t
n d
▁m ake
▁ V
I AL
▁con st
▁ legal
▁Comp any
▁th ere
A N
▁acc ur
▁provis ion
▁ar ising
m it
▁ 1
AB ILITY
CL U
itt ed
▁on ly
' s
▁li able
ad e
▁c an
o ve
il i
▁disc re
itt en
olic y
▁D A
▁O THER
▁b re
▁wr itten
▁(in cluding
MA G
r ation
▁law s
▁in fring
▁TH AT
▁res ult
le ase
▁DA MAG
ur re
▁bre ach
i le
▁discre tion
▁S ub
▁W ITH
▁LI MIT
- p
▁ob lig
or s,
▁m ade
ut e
▁u p
▁dis cl
▁YOU R
) .
in d
▁har m
uthoriz ed
▁S U
ra ph
▁ad d
ate ,
AR T
b it
▁or der
ol lect
▁product s
un ic
▁dis t
▁M A
e ther
▁so ftware
I ES
ac k
pt ion
▁g rant
▁w eb
▁lic ense
▁A n
V E
▁sp ec
▁re f
▁d es
ustom er
U T
▁cont ro
I M
▁w ay
▁U n
▁rel ated
▁Th is
▁s ec
▁con f
for ce
e ar
▁h ere
▁requ ire
▁dist ribut
P R
▁n am
ver n
it ies
▁A ll
▁conn ection
ebs ites
o p
▁me an
on e
▁third -p
es .
▁em ail
D ING
if i
L L
▁ac cept
▁in v
▁P ART
▁purp ose
▁R ES
▁B y
e en
▁aff ili
ot h
▁c aus
C C
▁add res
e ver
▁p re
▁in clud
▁part ies
know led
▁cons ent
em n
e g
▁O N
▁B Y
at or
o ll
▁lic ens
ow n
▁publ ic
I R
B S
▁An y
ly ,
plo y
▁go vern
ric t
▁termin ate
h ip
pl ay
▁SERVIC ES
▁wh ether
▁m an
d ic
▁t e
▁ k
▁I S
▁ac knowled
▁j ur
▁P ri
▁e vent
clus ive
▁ex p
E M
us in
er cial
▁reg ard
is dic
▁pur ch
▁em ploy
▁dis play
ou nd
▁l oc
F OR
▁c our
▁pro t
▁pro c
ff ect
IL L
▁jur isdic
▁s et
oll ow
L Y
▁s ites
▁p l
▁third-p arty
i i)
▁CONT ENT
▁be tw
▁betw een
ion ,
es e
o k
▁responsib ility
▁re ce
▁f ollow
T S
▁us ers
▁ind emn
ol d
ver t
▁ar bit
▁pay ment
▁a m
▁Pri vacy
▁information ,
▁A G
▁ K
▁for m
▁d et
▁express ly
▁e ffect
▁to ,
o f
▁al so
▁f ail
▁Th ese
▁A LL
at ive
G H
▁pri vacy
em b
er ,
▁chan ges
▁const it
▁reserv e
▁ch ar
h ib
▁ end
▁co st
▁A CC
▁ag ent
▁reg ul
e e
▁w ork
I RE
▁W H
▁contain ed
▁comm unic
miss ions
▁ag ain
▁cont ract
usin ess
er r
st and
▁w ebsites
▁p ass
ect ed
lo ad
▁W ILL
▁ap pro
▁ex tent
▁d own
▁contro l
▁us ed
▁comp let
C E
▁Site ,
CLU DING
OS S
▁acc ord
▁comp ut
RO M
▁requ est
ex t
un d
or n
ical ly
▁pro m
▁b as
▁o per
ER S
w w
▁again st
▁acknowled ge
om e
▁F ROM
er n
u res
▁wh o
▁ad v
▁C OM
▁dis p
I B
▁part ic
▁cour t
ion al
▁m ark
E CT
▁P olicy
▁be en
▁limit ation,
▁ J
▁viol ation
▁damag es
w ord
▁down load
M PL
▁A cc
is ter
▁mean s
P PL
ation al
▁per form
et ary
▁content ,
▁I nt
▁W eb
▁im m
▁with in
▁Pro duct
o b
▁go od
▁reason able
▁c ollect
▁re st
▁perm itted
▁Servic e,
▁WE BS
ou s
▁u pon
FOR M
▁TH IS
▁of fer
▁c ance
▁pro hib
f ter
▁link s
ed .
▁sh ould
ra m
▁cont act
▁im p
re e
pri etary
ith er
▁C ustomer
▁damag e
▁fe es
▁g u
▁l og
▁th ose
▁D O
▁re fer
i ew
▁use ,
▁SERVIC E
▁m is
▁follow ing
▁s us
ate ly
▁pass word
er tain
▁employ e
a p
c es
▁c urre
ifi ed
▁including ,
▁up d
▁imm edi
▁ad vert
▁jurisdic tion
▁p r
▁act iv
l ine
er al
ity ,
▁reserv es
▁un a
▁PRO V
▁addres s
a st
▁ err
▁act ion
▁th an
Q U
u ll
ic es
▁comput er
ag es
▁Con ditions
▁D IS
▁rel i
▁warrant ies
▁sole ly
miss ion
▁p h
r on
▁LIMIT ATION
▁b usiness
ch n
ay s
▁app ly
ident ial
▁re pro
▁perm iss
▁m on
▁U N
▁termin ation
▁U S
▁im pli
▁purp os
▁trans fer
able ,
▁limit ation
▁pro prietary
ur ther
▁rem ove
▁DAMAG ES
▁publ ish
▁rem ain
▁accord ance
▁( c
se qu
n er
ri ption
▁provis ions
o ftware
v en
▁IN FORM
w ork
▁WEBS ITE
▁ob tain
e f
ver y
ent ial
al id
▁rel ating
IRE CT
▁curre nt
▁website ,
ION S
▁h er
▁Servic es,
▁ad dition
▁ qu
ER R
ific ation
▁WARRANT IES
▁un l
E C
▁INFORM ATION
▁Website ,
A IL
▁S oftware
is k
et work
U CT
am e
▁chan ge
▁v is
▁COM P
I ED
▁LI ABILITY
A IM
raph ic
▁rev iew
▁de li
▁S H
▁f ull
aw ful
▁PROV ID
▁st at
eb y
▁vi a
▁trad e
p end
▁unl awful
or t
R OU
oc i
T ED
▁A p
▁en force
plo ad
RE E
▁r isk
s u
▁all ow
it or
▁O ur
▁reg ister
▁w a
i a
oth er
▁A S
ing s
▁trans mit
f ore
▁c or
U S
e y
▁proc ess
▁fe at
a ce
▁e lect
▁under stand
▁off ic
▁A PPL
in t
▁S O
com m
em pt
D UCT
▁repro du
at es,
▁permiss ion
▁de em
▁d ate
▁h old
▁ ident
on t
edi a
a id
▁ab out
A IN
ROU GH
▁fail ure
m in
I VE
▁te chn
▁cre dit
ation s,
ut es
r y
▁IN CLUDING
▁law ,
a x
▁pro f
▁post ed
▁s end
▁her eby
▁link ed
l ic
▁here in
▁O UR
is ed
if y,
id er
▁v ir
▁I MPL
▁L OSS
▁cont in
▁prohib ited
ers hip
un ct
▁ex clusive
▁immedi ately
▁TH ROUGH
▁right s,
▁con dition
▁SU CH
▁sub mit
ec ess
▁IMPL IED
▁A RE
y st
▁con sequ
▁wh en
▁an other
▁u pload
▁o ver
ul ar
▁sec ur
▁W h
▁c ertain
▁k ind
▁the m
▁comm ercial
AL L
▁regard ing
▁n ecess
▁EX PR
▁Acc ount
▁a uthorized
▁att empt
yst em
▁( b
▁T o
S .
OU T
pri ate
▁F or
▁p olic
▁p os
Y ,
▁website .
▁site .
▁c ard
s )
ive ,
▁rest rict
▁vir us
▁ind irect
▁Service .
i od
▁Un ited
▁f ore
▁sup pli
um b
es s,
▁m ak
▁A D
▁P lease
▁P l
▁of ,
▁S T
▁una uthorized
▁RE L
on g
▁( “
▁cre ate
▁there of
▁inter n
▁a fter
▁E x
▁a uthor
▁d ue
▁Site .
t t
▁( i)
▁ 2
n ot
▁partic ular
▁T erm
▁elect ron
▁prom ot
▁right ,
us e
▁st ore
▁man ner
▁des ign
▁SH ALL
▁damag es,
▁post ing
▁require d
it ing
▁re c
▁t ake
▁on e
▁viol ate
▁purch ase
▁comp ly
▁ref und
▁ass oci
g an
▁e ach
▁EXPR ESS
▁Int ern
▁discl aim
A W
▁IN C
▁ex cept
▁MA Y
▁un less
▁t ext
ce ,
▁oblig ation
▁int o
▁m ain
EM ENT
▁per iod
or se
▁n or
▁des c
▁L AW
▁e ither
▁discretion ,
re at
▁n etwork
ob ile
▁g en
▁( ii)
le ,
ever ,
▁( a
▁prot ected
▁en g
▁WITH OUT
sc ription
ar ant
i ous
▁claim s
▁Website .
E ,
p s
▁co d
▁m at
▁secur ity
▁o p
M S
0 0
id ual
▁offic ers,
▁in st
▁includ e
m ail
▁vi ew
▁M AT
▁con duct
▁A R
▁PRO DUCT
V AIL
▁In formation
▁ il
▁exp ens
▁harm less
iv idual
U N
▁E V
ru pt
▁f urther
” )
ut om
▁P ER
▁employe es,
▁govern ed
▁D E
orn ey
▁deem ed
i ght
▁Content ,
▁P UR
c .
▁il legal
▁gu arant
▁consequ ential
▁purpos es
w are
▁n eg
▁ ed
▁P arty
▁cance l
▁I TS
▁site ,
▁att orney
▁A VAIL
g o
▁A d
▁(a )
ir c
at form
in ed
ce ed
▁end orse
it es,
▁you ,
▁(b )
▁S ites
▁wh ere
▁c ase
▁mod ify
▁ le
▁the y
▁ass ign
O W
▁det erm
▁Services .
▁arbit ration
ist ration
a v
re ct
A NT
▁servic es,
▁constit ute
▁conf idential
▁n umb
▁am ount
▁wh at
▁you .
▁ind ividual
ER E
▁or gan
▁ab ove
▁direct ors,
▁advert is
▁s erv
i ver
e ed
ur n
▁necess ary
▁s ystem
▁m emb
▁not ify
▁b ound
IR D
e .
▁w or
▁RES P
al ,
▁can not
re t
c ed
▁TH IRD
▁c ount
▁access ing
/ /
▁oblig ations
▁d ays
: //
▁ent ire
▁a utom
▁c irc
▁the n
ENT IAL
▁RES UL
▁S P
▁un en
▁limit ations
▁s ome
▁A s
▁p lease
ER IAL
er ch
▁s im
▁I F
▁MAT ERIAL
▁feat ures
▁e -
m itted
▁re t
▁l ist
▁tim e,
▁g iv
▁S u
▁time .
it al
o ok
▁trademark s
▁circ um
▁AD V
▁r ul
▁( or
▁f ree
▁warrant y
i o
E T
i ent
▁bas is
g ram
▁sus pend
▁AVAIL ABLE
▁own er
▁Intern et
re d
▁f il
▁Sub missions
▁main tain
▁re ad
ac y,
▁agent s,
▁R e
▁inc or
▁indemn ify
at ure
▁communic ations
ru ct
▁app ear
▁ass um
▁h tt
▁f unct
▁d er
▁arbit r
▁caus ed
▁appro priate
▁impli ed
▁p age
▁be l
▁ACC ESS
▁on line
▁pos sib
▁IN D
▁G o
▁A T
▁n ew
▁purch as
▁be li
▁discl os
I V
▁re p
U RE
E THER
▁unen force
▁PROVID ED
▁p aid
▁LIMIT ED
AT E
y p
▁e qu
▁own ed
▁I NT
▁e- mail
IRECT ,
▁ ens
▁affili ates,
▁se ll
▁LI ABLE
▁DIS CL
▁ know
▁N o
▁rece iv
▁g raphic
▁ent ity
▁p olicy
▁organ iz
▁other s
▁ob sc
▁grant ed
▁copyright ,
▁be fore
▁polic ies
▁m ore
end ed
M ENT
T ION
▁DISCL AIM
▁h el
ig in
▁or igin
▁s ur
or tion
▁trans act
ow ever,
e ll
▁de let
▁electron ic
▁res our
▁cons ider
▁AR IS
t s
ig ital
▁p ortion
▁s c
SE QU
IN D
c u
▁cost s
▁m ess
▁respect ive
▁St ates
erch ant
▁CON SEQU
ion s,
▁def end
O SE
▁s ame
aus e
▁good s
▁w ww
▁D ata
▁infring ement
▁N ot
▁ ro
▁www .
▁Term s,
il ar
▁WH ETHER
▁ 3
▁reprodu ce,
▁be h
ES ENT
▁do cu
A RE
ERR OR
▁obsc en
▁( i
▁err or
▁nam e
▁complet e
▁work s
▁ ERROR
ab il
al f
▁A r
▁det ail
ag es,
ic e,
▁SP EC
n ess
▁CONSEQU ENTIAL
it ies,
▁sim ilar
▁w ould
▁T RA
▁mod ify,
( s)
▁result ing
▁In c.
PR ESENT
▁def am
▁us .
▁M aterial
ac c
ru ed
ID ENT
e ve
▁inter est
▁deli very
v al
▁cor rect
▁bas ed
▁A ct
▁EX T
▁register ed
▁wa iver
I G
▁disp ute
▁not ices
▁der iv
W IS
▁PART Y
v ed
AT ED
▁RE PRESENT
L C
ra ud
▁represent ations
▁EX CLU
N S
▁pro ceed
▁for th
ide o
AIN ED
▁what so
▁D AT
▁li abil
S ION
▁t yp
▁K IND
ability ,
▁OTHER WIS
MIT TED
▁inc ident
▁direct ly
or y
▁T ER
▁de v
ers .
ol og
▁caus e
▁fore go
▁INC IDENT
F F
IB ILITY
og raph
▁aff ect
▁v alid
ab ly
▁harm ful
l og
ib le
▁ent er
ollect ive
ur ing
▁M emb
▁INCIDENT AL
▁associ ated
▁PUR P
▁ARIS ING
▁obtain ed
▁a ge
ER S,
▁th reat
m itt
▁Agreement ,
- f
▁C L
▁mon itor
▁I t
▁DAT A
▁vis it
▁L LC
▁b ro
ir m
▁claim s,
▁in j
▁trademark s,
▁C h
▁Th ird
▁const rued
oc k
ont in
▁t it
▁mat ter
▁EXT ENT
▁notice .
▁Ap p
▁addition al
▁regul ations
▁text ,
▁y ear
M IS
▁AND /
▁ens ure
▁software ,
▁disc ontin
▁constit utes
urre d
▁f it
▁in acc
se l
U P
▁Product s
▁neg lig
▁mak es
▁stat ement
▁AND/ OR
▁ex clud
▁Com m
i ence
▁st ated
▁f al
▁accur ate
comm ercial
▁activ ities
O D
▁f raud
ec k
ex clusive
▁contin u
▁beh alf
▁us ,
▁(c ollective
▁UN D
ER T
CT ION
▁sup port
▁PART IC
▁inter f
▁wr iting
▁MA K
▁v ers
▁or d
▁log o
E G
▁(c )
▁sh are
▁de l
▁inacc ur
▁gen eral
▁guarant ee
▁incor por
▁( "
▁off ens
k e
▁bel ow
▁AG REE
▁p at
▁rece ive
▁accur acy
▁p ric
▁(i ii)
th e
▁s ign
▁sur v
▁( 1
▁deriv ative
▁fal se
▁OF F
▁Con t
▁reg istration
ite m
▁part n
▁upd ate
clus ion
▁ph ot
▁PURP OSE
▁distribut e,
ent ,
▁ item
▁Pl atform
▁O n
▁Content .
▁content s
▁condition s,
▁al ter
▁O r
▁cop y,
o ard
▁m erchant
▁inc urred
ON S
▁p res
▁link ing
▁sub scription
▁c ustomer
▁d em
▁d est
U M
I ES,
w h
▁be com
▁services .
▁inv alid
▁f ul
at h
▁surv ive
▁expens es
▁RESUL T
▁t ak
▁perform ance
" )
▁spec ial
▁pro gram
▁information .
▁ed it
UL AR
▁v ideo
S T
▁loss es,
▁P art
▁threat en
▁B l
▁PARTIC ULAR
▁de c
▁data ,
p ing
▁re le
O RE
▁In d
▁h e
ic k
▁SITE ,
w ard
▁attorney s
ation .
▁pr int
▁autom at
▁TRA NS
▁co ok
▁R IS
▁n ature
. S.
ES T
▁al leg
▁pri v
O L
▁M ER
▁C l
▁S ection
▁accur ate,
F T
▁o cc
▁s al
▁any one
▁warrant ies,
▁sub s
i an
▁intern ational
▁Agreement .
▁neglig ence
▁S h
▁APPL IC
▁ret urn
▁O B
i ar
▁comp any
▁licens ors
▁hel d
er .
▁Us ers
▁MER CH
ment ,
▁b ind
w ith
▁accept ance
▁B UT
▁techn ical
▁circum st
▁affili ates
▁Terms .
en c
” ).
▁product s,
▁defam ator
▁rul es
▁prof it
▁non- exclusive
▁fe es,
A Y
is e,
▁f in
ES E
▁refer ence
N ESS
▁com pli
▁spec ific
▁st ate
ABILITY ,
ment s,
▁Pro v
W N
▁f ound
▁subs id
ed eral
▁m ail
▁be ing
rou p
▁offer ed
▁U .S.
an ces
on d
▁activ ity
▁ch eck
u y
▁RESP ONS
▁provid ing
IB LE
▁en c
▁funct ional
▁mon th
▁(including ,
▁op in
▁loc al
R ING
▁st rict
▁C A
▁APPL Y
▁post ,
▁distribut e
ver ed
▁m in
▁sh ip
▁we ll
▁law .
▁rel ation
▁MERCH ANT
▁F IT
am p
▁pr ice
▁a uthoriz
▁P ay
▁wor ld
▁B AS
▁C li
▁rem ed
▁D is
ERR UP
th od
▁trademark ,
▁dem and
c o
▁se e
▁e ven
al ty
ps ://
sc rib
op y
▁ref use
U RA
▁A B
▁prot ect
▁nam e,
▁H A
▁effect ive
▁RIS K
▁desc rib
▁c ustom
pl ain
▁loc ated
IT ES
V ER
ou s,
▁comp et
ECT ION
ru ption
▁FIT NESS
▁ab us
▁te le
s p
v ant
▁p ract
▁purpose ,
▁SERVIC ES,
▁EV ENT
▁interf ere
▁c are
▁b ill
▁g ive
▁WARRANT Y
▁imp ly
▁graphic s,
j ection
n g
▁cod e
▁viol ates
▁m edia
er t
le ad
▁res ol
▁SPEC IAL
▁A FF
il y
▁COMP AN
▁ch o
ri min
▁arbitr ator
▁law s,
W ARE
▁conf lic
▁s olic
▁Cli ent
ATION S
S O
▁s our
URA C
s ;
▁assum e
▁set t
o id
▁unlawful ,
▁htt ps://
F RING
▁O UT
▁con c
ch an
▁D igital
▁N ON
▁Wh en
▁subsid iar
▁partic ip
▁APPLIC ABLE
▁accur acy,
er c
▁W ith
▁t ort
▁DAMAG ES,
▁rele vant
▁ob jection
▁l ib
ubl ish
▁compli ance
▁int ended
▁TH ESE
▁ ir
▁Sub mission
▁del ay
▁re pl
im um
ee p
are nt
▁non- commercial
▁PER MITTED
▁HA VE
▁ful ly
▁cance ll
I P
▁TER MS
▁numb er
a ir
▁( the
g ed
▁OB T
▁bind ing
▁qu al
▁su ff
▁contain s
▁( v
b ack
▁com ments
▁Ex cept
▁alleg ed
▁risk .
▁(collective ly,
) ;
▁M edia
▁IND IRECT,
v ing
▁term s,
D IT
ebs ites,
RA CT
▁“ AS
▁char ges
▁law s.
▁ent it
▁conc ern
s. com
ud io
▁ord ers
▁endorse ment
▁material s,
▁whatso ever
IS ED
sel f
▁ &
▁sub mitted
▁OTHERWIS E
ut ion
▁display ,
▁CL AIM
▁1 8
▁vers ion
▁ex plo
I GH
▁fit ness
▁includ es
a pt
om ain
▁court s
com p
OR S,
▁N ew
▁who le
▁h ow
▁un s
t d
opy right
▁( d
▁SO LE
▁j ud
▁discl ose
▁giv en
▁suppli ers
▁H owever,
▁t ax
OS T
▁publish ,
▁T e
▁functional ity
▁n eed
▁Ar bit
▁li ke
▁sec ure
▁transmit ,
FRING EMENT
▁agre es
▁t ra
▁ir re
▁otherw ise,
▁account ,
▁act ions
▁contin ue
I F
▁rights .
le ment
a f
y s
ut ure
▁defamator y,
s er
▁beli eve
▁INCLUDING ,
▁INCIDENTAL ,
OR T
▁own ership
▁sec ret
▁c ould
▁L td
IL I
▁indirect ,
▁M obile
og raphic
ful ly
▁public ly
▁cook ies
▁mark s
▁l ong
▁mis lead
▁CON N
▁agent s
▁servic e,
▁oper ation
▁Com ments
l ink
l ish
▁d uring
▁INFORMATION ,
▁detail s
b oard
▁solic it
▁conn ected
C K
▁p arent
▁Use ,
▁re tain
▁me thod
▁char ge
▁reason ,
▁in s
▁OBT AINED
ver se
▁in ability
▁ex erc
▁Un less
▁reason ably
▁cost s,
▁un t
▁P OSS
▁may ,
▁EXPRESS LY
▁UND ER
▁pl ace
▁IMPLIED ,
▁CONT RACT
fring ement
▁impli ed,
▁reli ance
▁AFF ILI
▁receiv ed
▁bro w
▁( IN
an k
▁TO ,
y per
ap pro
ers ed
▁restrict ions
▁termin ated
f idential
as h
▁liability ,
EN S
▁year s
▁LAW ,
▁lib el
em por
D E
▁unenforce able
▁inj ur
▁automat ically
▁A m
un der
▁pl ac
▁h ost
▁comp an
▁infring e
G E
▁m obile
▁PRO F
ven ience
▁REL I
▁w ish
ag e,
▁display ed
iv )
▁sup ersed
O Y
▁rec ord
▁(IN CLUDING
▁s ection
c on
ES S,
▁fraud ul
▁are as
f t
▁employe es
▁determ ined
▁f ederal
IN FRINGEMENT
▁techn olog
▁Bl ack
▁entit led
▁ind ic
▁ex t
▁A l
EN CE
u p
▁remain ing
▁provid es
▁V IR
▁SPECIAL ,
▁repl ace
.com .
▁s ent
▁POSS IBILITY
▁DO ES
OM E
▁kind ,
” ),
▁account .
▁err ors
▁a udio
▁d ay
▁spec if
e ither
ing s,
▁discontin ue
▁adv ice
▁ST AT
an g
c k
▁delet e
e al
▁e l
▁addres s,
▁is su
IC T
▁C opyright
▁J UR
▁SO FT
v oc
▁rem o
▁( iv)
mitt ing
▁explo it
▁im ages,
▁for ce
a ,
▁Pro per
A D
▁only .
▁COMPAN Y
▁P olic
▁that :
▁SOFT WARE
▁T IM
▁se lect
▁consider ed
▁Arbit ration
▁discretion .
▁" AS
▁licens ors,
▁party ’s
ri pt
o int
▁virus es
▁describ ed
ir st
▁ad apt
▁W ebsites
▁H ERE
▁h yper
w .
▁to :
▁NON -
▁f uture
▁perm it
▁irre voc
▁L ink
▁liabil ities,
at is
▁specif ically
re present
▁PRODUCT S
▁origin al
c es,
▁D IRECT
▁L imit
g e,
▁material ,
▁rel ations
▁( wh
▁becom e
L IG
▁party .
ww w.
ar ily
” ,
g g
▁re n
▁oper ated
▁incorpor ated
▁mark et
▁conf irm
▁S ITES
▁avail ability
▁disclos ure
en ef
▁Su p
▁Policy .
atis f
t ic
▁With out
E VER
ense ,
p ly
in ter
▁AG RE
▁fil es
▁Black board
▁CONTENT ,
▁F urther
C OM
▁in form
▁P ERS
▁v ar
pon s
▁organiz ations
▁ est
▁w ebsites,
▁AFFILI AT
▁mis represent
AR D
▁inv ol
I NT
▁E NT
▁ADV ISED
▁personal ,
S IONS
▁am end
▁log os
e es
stand ing
▁ex port
▁VIR US
is ion
IS D
▁require ments
▁Ap plic
▁pres ent
▁equ ip
▁occ ur
▁L ic
▁DAMAG E
▁complet en
▁there in
▁de al
▁inv est
▁EXCLU SION
▁count ry
▁possib ility
.com ,
en ces
t ions
il d
IN K
▁govern ment
▁con venience
▁ 5
▁a ware
▁R eg
el in
▁( 3
▁exerc ise
▁b enef
▁relations hip
s ide
▁upload ,
i x
olic ited
▁MATERIAL S
▁S OME
▁part y,
cc ess
f for
▁spec ified
▁eng ine
▁R IGH
lo p
▁conflic t
UN IT
▁content .
▁LIMITATION ,
▁contract ,
▁advert ising
▁agreement s
▁St ate
ou ra
▁le ast
▁ro y
▁k eep
▁f a
▁subsidiar ies,
▁PERS ON
▁non- in
▁AGRE EMENT
ing .
A M
▁re verse
OR S
▁prom pt
▁w as
▁p ages
▁obscen e,
▁pre vent
▁RE G
▁qu est
▁parties .
▁circumst ances
IC H
▁PROF IT
t o
▁E MPL
▁AG ENT
▁ident ifi
▁EMPL OY
▁(1 )
m b
▁M ark
▁c rimin
▁ let
▁indemn ify,
th ing
▁USE ,
ra w
▁G O
▁(d )
re e,
▁com plain
C A
▁trans l
▁m al
▁E ng
I Z
▁WH ICH
▁exclud e
▁mak ing
C on
▁ex ist
▁contro ll
▁advertis ement
▁not ice,
▁JUR ISD
▁c e
- P
▁compet ent
- S
▁p orn
▁BE EN
▁P UNIT
▁infring ing
▁enc oura
▁PUNIT IVE
▁mod ific
▁NON- INFRINGEMENT
▁with ,
▁purchas ed
▁result s
▁A CTION
su ant
oth ing
▁non-in fringement
▁jurisdic tions
▁U pon
▁us es
▁MERCHANT ABILITY,
ING ,
▁Material s
▁el se
▁F UL
▁EMPLOY E
▁defend ,
▁sell ,
▁( and
▁bill ing
▁copyright ed
ph one
▁here under
▁I T
▁CONN ECTION
▁hyper link
▁de ve
o y
▁to ol
▁disp utes
▁Or der
▁ex amp
IC E
▁e ffor
▁nam es,
▁o missions
L O
▁ ra
▁S EC
▁in f
ies .
▁adv ised
▁Comm unic
OU NT
▁har ass
iv il
I A
e v
▁confidential ity
▁f ac
▁TIM E
▁full est
▁use .
ist r
▁roy alty
▁l ost
▁world w
▁disclaim s
▁offens ive,
ax imum
▁ad min
▁N othing
▁mark s,
▁DE F
▁uns olicited
▁inter act
▁communic ation
▁def ense
F UL
▁ACC URAC
▁eng age
▁CON DIT
▁author ity
▁out side
▁appro val
▁forego ing
▁inter ruption
▁your self
▁FUL L
▁ Z
▁virus es,
gg est
▁m aximum
▁US ER
▁RESULT ING
▁LIMITATION S
▁TH ERE
▁EV EN
at iv
▁provid ers
▁REL ATED
▁T ORT
▁MAK E
T AN
▁WARRANT IES,
▁su ccess
▁agre ed
▁N EG
ist ribut
▁S p
▁fraudul ent
.com /
▁BAS IS
▁jud g
▁see k
▁incident al
▁feat ure
▁KIND ,
▁I D
▁provid er
▁non-exclusive ,
dition al
▁threaten ing,
▁nam es
▁unt il
▁infring es
p ret
▁e very
▁me et
▁d omain
▁logo s,
▁includ ed
in ation
i k
▁su ggest
▁C OR
▁s pons
▁n ational
2 )
p ar
▁f irst
▁v er
▁comp ens
un ity
p os
▁def ect
▁objection able
▁desc ription
▁cho ose
▁f ram
▁know n
▁ /
▁strict ly
▁public ity
▁special ,
▁attorneys ’
ar ch
▁pur suant
inter rupt
▁Polic y,
▁deve lop
▁“ S
▁that ,
▁sub -
▁injur y
" ).
▁inter pret
▁continu ed
▁un interrupt
▁los s,
▁ 4
ubl ic
▁IN ABILITY
▁( e
▁St ore
▁H AR
c ont
▁d if
▁request s
l and
um er
O VE
▁d u
▁not :
P ER
▁v oid
▁amount s
N OW
o per
▁NEG LIG
▁merchant ability,
y ond
▁libel ous,
▁act s
▁addition ,
▁stat ut
▁ALL OW
A A
a fter
▁represent ative
▁su it
▁S ell
▁transact ion
▁( as
▁re d
▁be yond
▁WEBSITE ,
▁PART IES
▁tit le
▁HAR M
▁in tent
▁ex clusion
▁a ward
▁under t
a j
▁termin ation,
▁pract ices
▁effect .
with standing
j an
▁A M
▁NEGLIG ENCE
▁act ual
▁possib le
ran d
AR Y
▁memb ership
ITH ER
▁b l
▁CONTRACT ,
▁and ,
ter n
▁store d
G O
▁item s
▁mess ages
▁sub mitting
▁crimin al
▁royalty -f
▁Go od
▁docu ments
o x
▁refer red
SO EVER
▁claim ,
▁network s
r al
p ens
and ard
u c
▁list ed
an cial
▁ab s
▁websites .
p ://
▁Comp an
▁c ivil
ff ili
▁pat ent
▁send ing
▁sour ce
▁expens es,
▁consent .
▁( I
▁re se
▁A P
▁transact ions
▁WH AT
U TH
▁wor m
▁ce ase
ro jan
▁damag e,
▁obscen e
▁fe e
▁unenforce able,
▁as k
▁Sub scription
pl ies
▁AB OVE
▁license ,
em pl
▁C al
▁L INK
▁ph ys
▁docu ment
▁RESPONS IBLE
▁care fully
▁L IC
▁incident al,
▁controll ed
▁WE B
▁perform ,
ve l
▁S ome
▁WHAT SOEVER
▁sus pect
er ic
▁proc ed
▁F ORE
▁AS S
▁GO OD
▁wa ive
er ated
▁s atisf
▁FULL EST
▁RESP ECT
o od
▁P erson
▁trans mitted
▁cop ies
▁3 0
▁A L
▁O WN
▁forego ing,
T h
▁Part ies
▁phot ograph
▁ Q
▁personal ly
▁re port
▁SU PPL
▁not ification
i e
▁ship ping
it ive
▁s af
at ab
▁ ide
▁promot ional
▁d en
▁or al
cont ract
▁ ‘
▁b ack
▁form at
▁benef it
▁Proper ty
U SE
▁OFF IC
et o
▁prohib it
▁h ard
▁t empor
a ve
▁p ar
IC AL
▁F REE
▁(wh ether
▁ 9
▁trans mission
▁Service ;
▁R ight
▁concern ing
▁publish ed
▁EMPLOYE ES,
▁ab le
▁agree ing
▁PURPOSE ,
▁dev ice
ri es
▁Cont ract
▁htt p://
▁s ex
▁m ost
▁Con fidential
▁remed y
UTH OR
▁FORE GO
i pt
▁ '
▁loss es
▁G roup
▁represent ativ
a s,
▁part ies,
▁in appro
▁th er
LE T
or g
▁F AIL
▁dif fer
▁Prov ider
▁“ as
▁un re
▁sub lic
▁changes .
plic it
▁licens ed
er ed
▁respon d
▁prompt ly
i ed
ERRUP TED
N D
▁SU BS
▁dis rupt
▁Am eric
. COM
b ot
0 1
▁Use .
or s.
▁cons ult
▁EX CE
▁p ort
▁from ,
▁D IRECT,
i um
▁UN INT
n et
ic es,
▁inaccur ac
▁equip ment
▁G en
▁b oth
▁suppli ers,
en ue
▁identifi able
▁deli ver
v ious
▁allow ed
▁UNINT ERRUPTED
▁m ight
▁affili ated
▁email ,
▁upd ated
u g
t ers
▁plac ed
▁appear ing
▁ren ew
▁COR RE
▁applic ation
▁cod e,
▁SUPPL I
n ia
▁cont ribut
our ced
▁user n
▁proper t
▁rece ipt
▁ 6
▁access ible
▁liabil ities
ru e,
▁contract ors,
ou gh
▁direct ,
▁Su ch
▁On line
▁p un
▁pl an
re en
▁tele phone
- F
▁ 7
IZ ED
R L
T ER
▁A g
▁phys ical
i for
ifor nia
▁dest ro
▁B uy
▁REPRESENT ATIONS
▁herein ,
▁co oper
▁regul ations,
▁sus pens
▁fac il
▁collect ion
-S ourced
t on
▁Cal ifornia
▁offens ive
▁invest ig
su ch
▁bl ock
▁A ffili
▁purpos es.
▁porn ographic
▁DAMAGES .
▁d eb
▁en able
▁N E
▁re lease
▁ar ran
▁sub mission
ervic e
▁cl ass
▁def ined
▁MAK ES
▁f ind
▁pl atform
in c
▁OFFIC ERS,
▁( such
▁for um
w ill
▁fin ancial
ag raph
g ement
▁inst ruct
A CH
p et
▁in it
▁giv ing
▁R es
" ),
▁re comm
▁d atab
OU R
M ED
▁prohibited .
▁DISCLAIM S
L D
▁cl ause
▁ex plicit
▁profit s,
▁Pay ment
u e,
▁gu id
▁im pro
▁h owever,
ED ,
▁immedi ate
ar n
▁H AS
a .
▁tit le,
id e,
▁pre vious
Con tent
▁tim es
▁LIC ENS
▁account s
ograph ical
▁PERSON AL
▁abus ive,
ations .
MIS SION
T erms
▁( h
res s
▁enforce ment
i qu
▁ref lect
▁party ;
▁enter ed
▁DIRECT ORS,
MIS SIONS
w ays
▁se par
▁inv o
P T
e p
is ions
▁dest ruct
re dit
0 )
▁view ing
ess ional
▁s ch
▁legal ly
▁ [
▁acc ess,
▁express ed
▁represent ation
▁in clusion
UTHOR IZED
▁A CT
▁Communic ation
▁P R
og le
▁copyright s,
▁priv acy,
▁Ad ditional
▁sub st
▁prot ection
▁serv ers
ol der
▁assum es
A SE
rou nd
▁pay ments
▁N etwork
▁P A
et y
▁person ,
▁pat ent,
chan ge
p e
▁Sub ject
▁circum vent
n c
▁RISK .
▁PROFIT S,
▁COMP LET
OR Y
▁proceed ing
▁partn ers,
▁completen ess
▁intern et
▁opin ions
▁( 2)
▁service .
▁basis .
▁complet e,
▁me as
▁download ed
▁Limit ed
▁electron ically
▁deli vered
▁cont ext
▁rev ised
▁O ther
▁im ages
ic ient
▁good will
▁sal e
▁de comp
pend ent
▁c ar
US T
▁d ut
▁cancell ation
iz e
▁Memb er
▁tak en
▁PRODUCT S,
▁reli ef
▁sex ual
or al
▁part ,
tern al
▁Compan y,
▁U RL
▁P ublish
▁re nt
▁proceed ings
▁autom ated
▁b log
▁ar ise
▁DATA ,
▁design ed
▁CORRE CT
▁any thing
▁c ap
scrib er
▁ag enc
L ED
▁par agraph
▁not e
’ S
▁mod ified
▁sp am
▁ ut
▁person s
▁system s
▁third-p art
▁examp le,
▁E nt
▁accord ing
▁fa ith
▁partn ers
▁imp erson
▁THE IR
▁M E
s ue
▁f ile
v ers
▁red istribut
d en
▁ $
im e
-F REE
▁access ed
▁1 3
▁exp ir
▁ -
ab lish
us ic
▁ –
▁C H
eed back
▁per pet
▁market ing
re n
id ence
LY ,
▁char ged
▁recomm end
▁st ate,
▁SERVICE ,
▁op port
▁var ious
ation ;
▁Dis p
▁RESUL TS
▁INT ERRUP
▁Lic ense
se mb
▁memb er
▁du plic
ICT IONS
eal th
miss ion,
▁there fore
▁regul ar
▁T rad
O T
▁DO WN
A CT
▁ha ving
▁particip ate
▁adapt ,
▁s ing
▁SITE .
▁C an
w e
▁st or
▁Not withstanding
▁destro y
▁cooper ate
▁thereof ,
▁inst it
▁E ach
▁limit ing
U ser
▁illegal ,
▁Person al
P ERT
▁decomp ile
A K
▁o pt
▁DOWN LO
▁Services ;
▁T ra
g rad
▁indirect ly,
ut ions
. ,
MA N
EM PL
▁resour ces
▁MA DE
AN CE
▁COMP UT
ic ious
▁im port
▁Website ;
ar m
▁fe ed
▁serv er
▁an n
our s
▁grant s
rou ght
▁As s
▁t reat
▁(v )
▁h ome
- d
RE D
able .
▁determ ine
it ion
▁IS ”
AT ING
▁Further ,
▁Con s
▁upd ates
▁R ul
▁s ites,
e pendent
b ur
▁L OST
s h
▁SEC URE
▁COMPUT ER
▁L EG
▁conditions .
▁h is
J UR
▁ QU
is m
▁typ ographical
▁authoriz e
▁ass ist
▁maintain ing
▁b rought
▁program s
b le
NOW LED
▁RESPONS IBILITY
▁est ablish
▁EX EMPL
▁rese ll
▁sites .
" ,
▁period ically
▁cour se
▁cre ated
▁not ,
▁D es
▁Con dition
o ol
▁CONDIT IONS
▁sub missions
▁p en
▁ab ide
▁UN A
▁T rojan
▁pric es
s ess
g es,
▁st op
▁brow s
a z
▁rev ise
▁ac qu
▁p ack
▁1 9
▁transfer ,
▁error -f
▁purpose .
▁indemn ification
▁Ind ia
ge ther
c ast
le tion
▁like ly
▁Site ;
▁ERROR -FREE
▁Good s
▁INTERRUP TION
▁download ing
▁LEG AL
▁us age
▁reli ability
al e
▁provid ers,
▁Link ed
▁worm s,
▁caus es
▁A CK
L ESS
▁T rans
OR Y,
▁ther eto
▁ACK NOWLED
▁CONT AINED
ional ly
os ed
▁mis use
▁Go ogle
l es
der ,
▁resol ve
as s,
▁distribut ion
▁them .
▁s old
▁receiv ing
▁C ertain
ER ED
▁arran gement
▁photograph s,
C U
M CA
at ch
▁valid ity
▁m edi
▁al ways
ar y,
▁PRO PERT
▁suspens ion
▁ind ec
▁1 0
▁pos sess
e op
▁Acc ess
▁reprodu ce
▁let ter
▁SU B
t ,
▁irrevoc able,
▁e t
▁disp ut
▁licens es
▁transfer red
▁se arch
▁O ff
▁man ag
▁P ost
▁err ors,
▁advertis ing,
. co
▁ X
on s
▁not ified
▁ 8
▁re -
▁comm it
▁compens ation
▁fees )
an ent
ic t
▁FAIL URE
▁cl ient
▁AM OUNT
ow er
pon ent
▁cl ick
▁qual ity
▁AFFILIAT ES,
▁sup ply
W E
▁perpet ual
o ver
ance ,
IM UM
ur ch
▁n ow
U AL
▁ i
▁INT ER
ri al
▁ASS UM
▁JURISD ICTIONS
IT LE
▁ch ild
▁mal icious
▁PA ID
▁it .
▁ind ependent
▁typ e
▁F E
▁em b
▁regard less
P H
▁pric ing
▁sing le
A C
▁royalty-f ree,
▁trans mitt
▁admin istr
▁inaccurac ies
▁other s.
ry pt
▁edit ,
▁it ,
▁VIRUS ES
▁D el
▁long er
▁s ound
▁mislead ing
▁d igital
▁ex per
▁MA X
▁g ain
ment s.
▁supersed e
▁r ise
▁st andard
▁polic ies,
▁b ank
▁(3 )
IS T
▁" as
ec ause
▁UNA UTHORIZED
AN G
▁priv ate
▁DEF ECT
as es
▁guid elin
▁harass ing,
▁Company ’s
ister ed
an e
in es
▁advertisement s
b log
▁perm anent
▁technolog y
▁I m
▁AGENT S,
▁T ITLE
l ing
▁US ING
▁Right s
is tent
▁IN JUR
▁ut il
▁ex ternal
▁B ecause
▁B usiness
▁enforce able
▁exclusive ly
ric tion
▁prof essional
▁Condition s,
▁ex pect
▁L aw
one y
▁MAX IMUM
▁act ion,
▁(e )
▁R et
▁process ing
▁Int ellectual
I )
▁pr inc
▁attorneys '
i gh
▁rest riction
e at
▁hard ware
▁en j
▁ERROR S
▁v al
▁YOU .
UT E
▁IS "
▁Not ice
▁com ponent
▁worldw ide,
▁remed ies
▁h ors
c es.
v est
▁vis iting
▁suff icient
▁C ount
▁CON DUCT
▁t rue,
▁remo ved
▁mod ification
sequ ent
▁w ere
▁whatso ever,
▁ab ility
▁f und
▁G U
▁att ribut
▁OTHERWIS E,
▁HARM FUL
▁off ers
▁Software ,
▁ACKNOWLED GE
▁b ring
▁o mission
▁RIGH TS
▁author ities
▁Buy er
▁spons ors
▁pornographic ,
▁chan ge,
▁Sell er
▁custom ers
▁usern ame
▁ass ert
- b
eop le
▁SUPPLI ERS
t rans
▁1 2
▁tool s
▁m ult
▁adv ance
▁b ook
▁inv as
AL ITY
▁thereof )
o v
in ing
▁de ath
▁RE MED
▁P L
▁engine er
▁SERVICES .
▁order .
L IN
C om
▁N OR
▁c all
▁https:// www.
▁differ ent
▁feed back
▁b uy
▁distribut ed
▁Th ere
m s
▁Pro gram
E E
▁quest ions
▁law ;
▁law ful
▁n either
▁SPEC IF
▁ide as,
▁fin al
▁v enue
▁T OU
▁REL ATING
▁is sue
▁Memb ership
▁sub- lic
▁undert ake
ol ute
▁h ate
▁ed uc
▁I P
▁M ON
▁post ed,
▁inst all
▁PUNITIVE ,
▁for ,
▁v ul
▁Conditions .
▁Can ad
▁N either
▁TO S
▁prof ile
th ough
▁meas ures
G RA
▁th ir
▁datab ase
▁effor ts
▁ME ET
▁ex ceed
▁( ex
am es
g ing
▁ident ity
ib ility
▁comp il
usin ess,
u f
▁W AY
ator y
▁pro pos
▁OF ,
▁entire ly
▁enj oy
▁US A
ated ,
▁o ption
▁public ation
▁tempor arily
▁compan ies
▁DE L
B Y
▁ leg
▁dis able
▁ph one
▁ro bot
▁website ;
▁rul es,
U E
▁PUR CH
▁tax es
EN D
se e
▁CONSEQUENTIAL ,
▁COM M
▁Y ork
▁ext ract
▁wh ile
▁M y
▁ap plies
ur ance
▁sal es
▁F eedback
▁E ITHER
iv ers
▁mat ters
ath er
▁f act
is es
▁above ,
▁tak ing
▁agreement s,
▁abs olute
ion ed
▁m usic
ect ions
▁b usiness,
▁Eng lish
c ess
▁demand ,
▁inappro priate
j ud
▁O PER
▁rep ublish
e. g
▁DIS C
▁print ed
. org
▁separ ate
▁s av
▁CA US
AN N
▁SOFTWARE ,
▁att ack
▁copy ing
▁obtain ing
▁B US
▁Te chn
ire d
▁control ,
▁graphic s
▁T E
▁conduct ed
▁here of
i ed,
ip le
▁FOREGO ING
▁ident ify
▁Sub scriber
▁provid ed,
▁BUS IN
▁user ’s
▁" S
▁TER M
FOR MAN
▁( e.g
▁services ;
▁RE QU
▁expir ation
▁port ions
FORMAN CE
n el
▁LINK ED
▁as pect
▁perpetual ,
▁F ees
▁ACCURAC Y,
▁inter rupt
▁accept ed
▁request ed
V EN
▁g roup
▁statut ory
▁encoura ge
uf act
▁part s
▁ent ity,
▁fore ign
▁b est
▁exp ense,
▁Mark et
▁end ors
▁BAS ED
▁is ”
▁imperson ate
sp ot
▁purpose ;
▁( C
ript ions
▁design ated
▁numb er,
le ar
OU LD
▁init i
s s
▁some one
h old
▁cont r
▁communic ate
▁m aj
. 1
▁ent ities
h er
ly .
▁st ates
▁so cial
▁collect ed
▁ex change
▁organiz ation
▁maintain ed
or ,
▁C o
ud ent
▁e th
▁brow ser
trans fer
▁contact ing
AR ANT
▁government al
▁GU ARANT
en n
▁ADV ICE
MENT S
as semb
▁cont est
▁sub sequent
e av
ur al
A P
▁Ad vert
▁harmful ,
▁applic ations
▁bro ad
i ary
t al
▁instruct ions
▁page .
▁pro ble
▁resour ces,
▁DOWNLO AD
T R
▁discontin u
ion .
p p
▁O wn
un k
an ces,
▁propert y,
▁mail ,
▁V is
▁et c.
▁S ystem
comm unic
▁sett lement
▁a v
▁ag gre
i pl
▁UND ERS
ed ;
▁contract ual
ERT AIN
ou se
as ed
ic ro
▁cop ied,
▁herein .
▁EXCE ED
▁destruct ive
▁Int er
▁dis assemb
LE CT
▁suff ered
▁agreement ,
▁rev en
▁Wh ere
▁loc ation
▁collect ive
▁transl ate,
▁incor rect
▁transmitt ed,
▁COMPLET EN
ar ge
▁otherwise .
▁jurisdiction .
ard ian
▁int eg
▁licens ors.
▁ADV ERT
▁pre p
blog spot
▁regulations .
▁ident ification
▁S ites,
du c
▁Company .
O P
▁man ufact
▁sp id
▁not ices,
▁PER FORMANCE
or ld
▁mess age
▁U P
▁Dis cl
▁qual ity,
( s
t en
▁continu ing
▁video ,
▁t err
▁sc ra
▁de p
▁RIGH T
▁with d
in e,
▁Cl aim
ful ,
▁available ,
▁provisions .
▁eth n
▁password ,
▁promot e
▁m ent
▁CLAIM S
▁UNDERS TAN
▁repro duct
▁C RE
▁C OUR
ure ,
lo b
▁indirect ly
▁individual s
▁oper ating
▁order ,
▁satisf y
▁IN A
▁REG ARD
S t
▁HERE BY
▁S Y
▁own ers
▁Intern ational
▁Ass oci
▁ ic
ON E
uthor ised
▁AP P
iz ed
▁interruption ,
▁sponsors hip
ON ENT
▁fil es,
▁dec ide
▁COMP ONENT
▁am ended
▁t w
▁tele communic
▁Des ign
▁enforce ability
IT IES
AT URE
▁download ,
val u
al s,
▁sc ript
▁defect s
▁h and
▁inj unct
▁modific ations
▁REMED Y
▁uninterrupt ed,
en ced
▁resour ce
▁P urch
- of
▁educ ational
▁oper ate
▁invol ve
▁AFFILIAT ES
▁( A
▁purchas es
▁TRANS MITTED
▁p eople
al th
▁C ERTAIN
re ad
▁thir ty
▁TORT ,
▁m oral
om b
▁User ’s
▁UNDERSTAN D
e k
- c
UN D
▁to gether
▁end eav
▁incorpor ate
▁password .
▁judg ment
▁proced ures
ic es.
▁demand s,
▁memb ers
▁mult iple
▁Sup pli
▁reserv ed.
▁( f
▁pre jud
▁disclos ed
o ad
▁to tal
▁HERE IN
▁inc ur
ff ic
▁provision s,
▁cons umer
▁A t
▁PROPERT Y
ATION ,
▁he ad
ed ical
com e
ence ,
▁con form
▁modific ation,
g ar
▁medi um
▁suppli ed
pri ate,
▁on ,
▁materials ;
▁complain t
▁Wh ile
▁month ly
▁dis ab
▁allow s
▁S c
▁G u
- to
▁new s
▁invo ice
▁INA CC
at ors
▁C or
▁way ,
▁Applic ation
▁ACCURAC Y
ot ential
▁bel ong
▁product ,
▁STAT UT
▁Rul es
▁work ing
▁C od
re am
▁Prov id
. 2
▁E N
▁gu ardian
▁current .
g in
▁restrict ed
▁beli ef
▁Americ an
▁party 's
▁e valu
AN D
▁reprodu c
▁web p
m art
▁( if
▁(3 0)
▁Customer ’s
▁trans missions
▁cor por
▁damag es.
en g
a ult
▁l ab
▁refund s
se min
u ro
▁LIABILITY ,
▁error-f ree
▁C ook
▁false ly
▁loc al,
▁on ce
▁terms .
ure s,
▁affili ation
▁aggre g
▁( for
▁ACC UR
▁av oid
▁A ust
▁Trad emark
▁princ ipl
Y ou
▁H ealth
▁M ED
▁inaccur ate
▁C ard
▁Q u
▁M icro
▁“ A
st ruct
▁v end
▁warrant y,
port s
▁hel p
▁b ar
▁vis itor
▁ex ec
▁withd raw
▁H ub
▁qu ant
- s
so ft
▁REQU IRE
▁O per
▁MATERIAL S,
▁representativ es
iss ion
▁p otential
ing ly
▁viol ations
▁store ,
n ing
▁phot o
▁negligence ,
i res
▁broad cast
▁ST R
▁Ltd .
IC TION
▁liable ,
▁REPRESENT AT
▁QU ALITY
▁lic ence
▁use ful
▁federal ,
▁error s.
c a
▁INC UR
it s
-P arty
▁w ant
al t
▁non- transfer
▁statement s
▁written ,
▁effor t
▁Ag ent
-P ART
▁user ,
▁“ P
▁Pro t
▁B e
▁sub contract
▁(collective ly
ane ous
▁INACC URAC
▁Pl ay
▁tra ck
▁I d
▁CA USE
▁EX P
▁indic ated
al k
sib le
▁St ates,
▁register ing
▁contain ing
C I
x x
▁I M
▁SOLE LY
▁others ;
▁AVAILABLE ”
' S
▁thereof .
w ay
▁car ri
▁Disp ute
it able
▁IN CLU
▁sign ature
us s
▁F l
▁una vail
ron g
al s
ate ver
▁user s,
▁Techn olog
res pon
LE ASE
▁information ;
▁upd ate,
▁indemn ity
▁suggest ions,
▁he alth
▁interpret ed
▁A c
▁c ou
▁dis semin
▁val ue
ial ly
▁wh atever
▁In c
C ES
▁permission .
▁sc reen
T M
▁provision .
ST EM
▁dec ision
▁other s,
▁control .
▁de letion
▁process ed
▁ob ject
▁visit ors
▁integ r
B IT
▁S ec
▁WARRANT Y,
▁una uthorised
▁inaccur ate,
▁prejud ice
C IAL
▁purchas ing
▁possess ion
▁Un der
▁interact ive
ICAL LY
▁impro ve
▁com ments,
▁exist ing
▁view s
▁goodwill ,
▁l ast
▁l it
▁count ries
▁liability .
▁NON-INFRINGEMENT .
▁B RE
▁2 01
▁conn ect
▁appro ve
e pt
h ing
. in
s :
▁c al
ore ,
▁rev oc
▁1 1
a .com
▁S ET
▁AGENT S
▁vul gar
▁INJUR Y
▁SY STEM
▁THIRD -PART
▁BE T
▁reven ue,
e ad
▁comm on
▁music ,
▁design ,
v es
▁rep ut
an s
▁( B
▁only ,
▁mess ages,
wh ere
enc y
▁not hing
▁resour ces.
m e
RE G
▁ap pli
. blogspot
R IT
▁RE AS
▁JURISD ICTION
▁facil it
▁C our
ore d
du ce
▁respect s
ro w
▁in comp
ar s
▁l ater
os ing
▁UNINTERRUPTED ,
ast er
▁REAS ON
r it
▁C redit
▁P OS
ions .
▁ASSUM E
a u
▁S ol
▁action s,
▁issu es
▁cre ating
A G
▁Submissions .
▁worldw ide
▁claim ed
▁sub scrib
▁den y
▁Ret urn
▁acc om
▁ret ri
O C
▁inter fer
op e
▁notify ing
a i
▁st ri
▁Reg istration
v is
▁TRANS MISSION
i very
▁alleged ly
▁secret ,
ag ing
rom ot
▁dev ice,
BIT R
▁BRE ACH
▁users .
▁purpos es,
▁hors es,
ang u
▁administr ative
▁Aust ral
A CTION
a h
▁current ,
ick et
sp am
▁un able
it ive,
▁data .
▁software .
▁proc ure
ervic es
▁disclaim ers,
an c
▁MERCHANT ABILITY
▁1 5
▁LICENS ORS
. net
1 2
▁M an
▁guarant e
▁guidelin es
▁C ent
▁BUSIN ESS
▁reproduc ed,
N ET
▁b rand
▁DEFECT S
▁THIRD-PART Y
▁1 4
▁previous ly
lob al
AS S
▁opport unity
WE EN
▁AR BITR
respon d
r or
▁beli ev
▁BET WEEN
E AR
▁ch at
▁c ol
▁oblig ations,
▁typ es
▁OFF ERED
▁D MCA
▁US ERS
▁LOSS ES
▁automat ic
▁W A
▁Store -Sourced
▁NEGLIGENCE ,
▁In st
▁resol ved
ware ,
▁Gen eral
▁non-infringement .
▁P ort
▁H ost
AR DING
e qu
▁Product s,
▁exper ience
▁M EM
E L
▁sh op
clus ions
▁disclaim er
▁REG ARDING
D ED
▁be c
▁C IR
C l
▁ERROR S,
▁sett le
a der
art ment
▁INCUR RED
▁c lear
▁sch em
ual ly
act ion
▁child ren
▁e lig
▁exclud ed
p erson
▁cor respond
▁STR ICT
ed u
▁pun itive,
▁Memb ers
▁ENT IRE
▁C ol
▁t r
T AL
▁ ,
▁S ECTION
▁address es
▁imp air
is l
▁C OST
▁co ver
▁(f )
▁request ,
▁present ed
▁Publish er
▁D ep
▁remove ,
O F
▁VIRUS ES,
▁pay able
▁upload ed
▁spam ,
▁P orn
▁Ind emn
ic s
▁ex empl
p any
▁For m
I n
▁O MISSIONS
▁Content ;
it ute
▁TITLE ,
▁ ill
▁POS TED
▁k ept
▁Micro soft
▁CIR CU
▁video s,
▁but ton
▁CIRCU MS
t e
▁business es
▁http:// www.
▁record s
▁CIRCUMS TAN
▁su re
▁ord in
▁M e
pri vacy
▁P ric
▁t ry
▁E uro
▁ident ified
▁abus e,
▁en h
▁equ itable
▁PURPOSE .
▁d ur
▁contr ary
act iv
▁pre vail
▁publish ing
▁MEM B
▁propos als,
▁m oney
▁termin ating
▁Sh op
LE G
at ural
▁$ 1
▁c ert
▁viol ating
▁review ed
▁Account ,
▁material .
▁disp ar
ol id
▁har ass,
▁following :
00 0
▁Sup port
▁by ,
▁affili ate
▁understand ing
▁res ident
▁d one
iv ing
▁ref ers
▁represent ations,
▁REPRESENT ATION
▁particip ation
in ce
▁rev isions
▁gen erated
ip ient
▁irrevoc ably
▁incomp let
▁authoriz ation
4 )
▁require ment
m al
▁reason .
▁E vent
▁A tt
▁good s,
▁EXEMPL ARY
▁cont empor
▁is "
▁g et
▁acknowled ges
▁“ us
▁log in
▁hate ful,
▁A AA
▁know ingly
▁pun itive
▁M ill
▁up grad
▁M od
▁regul ation
▁R ec
▁(INCLUDING ,
rypt ed
▁wh om
▁TO TAL
▁copyright s
▁duplic ate,
▁appli ed
▁(v i)
A CK
ord ing
▁any ,
▁general ly
▁Sh ould
▁regular ly
▁contempor aneous
y ou
▁op en
▁Further m
U D
W ILL
▁card ,
▁conflic ts
▁l ess
▁SUBS ID
er ce
▁telecommunic ations
▁(ex cept
▁Suppli er
if t
am b
▁invas ive
ub e
▁maj or
▁own er,
▁Third -Party
▁WHATSOEVER ,
▁SUBSID I
▁PROVID ERS
▁st rong
▁ic on
▁m edical
▁pen alty
.co .
▁bec ause
▁limit ed,
▁person .
▁P h
▁C ustom
▁INACCURAC IES
▁p ower
▁d ress
▁entity ;
▁completen ess,
▁invalid ,
▁W RIT
▁h ours
▁ag e,
▁Pl an
▁explicit ly
▁(A )
▁(B )
is sible
▁host ed
▁contro vers
▁BASIS .
▁deb it
od ,
▁rel ig
ip ated
▁sour ces
as es,
▁THERE IN
▁RE CE
ia ,
UN IC
▁injunct ive
▁indic ate
▁Account .
▁S E
▁E QU
▁v ol
▁believ es
▁applicable ,
▁me chan
ou d
▁direct ory
- re
▁B U
ir ror
▁pre t
▁consequ ences
▁patent s,
▁W al
▁sign ed
▁P re
▁Furtherm ore,
h older
▁T w
▁direct ed
▁P er
C R
U B
▁b omb
▁def ault
▁jurisdiction ,
▁F ree
▁techn iqu
▁necess arily
▁l angu
▁form ,
. 00
▁addres s.
▁de cl
- h
em ail
ar ing
oc ial
▁AG G
▁entity .
▁Mark s
▁AGG REG
▁imp lement
▁ON E
▁PROV IS
▁spid er,
C .
▁transl ate
▁DEL AY
▁disc rimin
▁P romot
▁accept able
▁remain s
▁commercial ly
▁Cons umer
▁St at
▁alter ation
▁feature s,
bur se
▁tort ,
▁ lease
▁consequential ,
e ps
▁lit ig
y our
▁adv ise
▁fe el
▁Re v
▁Al though
▁PL AT
▁own ers.
▁w ord
act ive
- t
ip ul
▁Sites .
▁funct ion
▁aff ected
▁n ever
▁time ly,
▁SERVICE .
▁WEBSITE .
▁Prot ection
▁Acc ording
▁App le
▁NE ITHER
▁AVAILABLE "
▁Sp ec
n ess,
▁li k
▁vers ions
iv al
▁how ever
▁over ,
▁compan ies,
ist or
PR I
▁for ward
uth ent
▁sav ings,
▁Oper ator
▁c ach
y .
▁quant ities
uthent ic
▁har vest
▁undert ak
▁SERV ERS
y ram
▁ver ify
▁s aid
▁F IN
W ITH
o ,
▁CON S
▁WEBS ITES
▁min imum
▁develop ed
▁strong ly
▁PLAT FORM
▁GOOD S
▁an tic
▁accept s
▁appear ance
▁import ant
▁SH OULD
O n
AT E,
▁success ors
▁ment ioned
▁User 's
▁mean s,
▁case ,
▁indec ent,
▁objection able,
▁P RE
▁non e
▁res ide
▁immediately .
▁SUBSIDI AR
yram id
▁delet ed
▁Affili ate
▁tim elin
▁main ten
▁issu ed
l an
▁prep are
▁court ,
▁V i
▁Advert is
▁YOU ,
▁uninterrupt ed
▁sub-lic ense
▁(h ere
▁ACCESS ED
ECT ED
▁proc ess,
g et
ra ft
▁Go vern
▁emb ar
▁R ef
▁int end
▁icon s,
▁S ch
IT UTE
▁ch ain
▁audio ,
▁Count y,
▁curre nc
▁user 's
▁According ly,
▁letter s,
on ,
raw l
▁below .
en ess
▁otherwise )
AS ED
p ublic
▁ra cial
▁ar tic
▁U p
▁EXCLU SIONS
▁STAT ES
▁photo s,
, ”
▁st eps
▁disc uss
▁agreement .
W ebsite
▁you ;
l ated
▁p oint
▁P erm
▁return ed
read y
y c
▁F ederal
▁assign ed
▁commit ment
▁de pend
▁subst ant
▁us ed,
▁ gre
j ur
▁tak es
▁Cook ies
▁re al
Y our
▁numb ers
▁stated ,
▁interpret ation
▁a uthentic
▁( with
▁V IA
▁ex clusions
▁m ist
▁CONDIT ION
re et
▁al ready
▁cap ac
▁L eg
▁exp ense
▁AGGREG ATE
▁monitor ,
▁var i
ru e
▁REGARD LESS
▁M erchant
▁public ity,
▁representativ es,
▁consent ,
u k
▁p age,
UST OM
▁V ir
▁mis appro
’ t
▁inc ons
▁cor ruption
▁reserv ed
▁ST ORE
▁renew al
▁immediate ly,
P ro
▁den ial
▁b oard
▁h igh
▁require ments,
▁logo ,
▁agent ,
▁se ver
e ure
▁com b
▁(b ut
▁deem s
▁MON TH
▁COMM UNIC
m ing
▁virus ,
ve y
▁assign ,
p r
▁( E
▁de cept
▁C USTOM
▁assign s
▁C M
m all
Th e
▁requ ires
IT ES,
▁GOOD WILL
▁inform ed
▁Euro pe
▁author ised
▁manufact ur
f und
it ch
▁profit ,
▁h ack
▁reli ability,
A ,
▁b ul
▁false ,
▁RELI ABLE
▁engine er,
p ut
▁W ik
▁instit ution
us ed
▁nor mal
▁LAW .
▁RELI ANCE
▁st art
EN ER
ic ial
▁W orld
OR K
▁Act ,
▁misrepresent ation
ON T
▁un f
▁DAMAG E,
▁o ld
▁ren der
▁OPER ATION
▁sh ow
▁wh ose
ITY ,
▁count ri
▁leg isl
▁an al
▁B ank
▁vulgar ,
le ments
▁advertis ers
▁circumst ances,
▁LI K
▁ .
▁share d
▁disclaim ers
▁int im
▁decompile ,
▁suspect ed
▁se vered
▁SEC UR
▁1 7
O G
▁in ,
▁damage .
▁limit s
▁ins urance
▁rent ,
▁W ar
▁are a
▁profit s
▁antic ipated
▁t rial
▁F UN
▁N ATURE
▁RE VEN
▁refer ences
▁DIS P
▁E ND
▁cl ar
▁add ed
▁acqu ire
ION AL
▁(e.g .,
▁man ual
▁2 4
▁nature ,
▁ ess
▁or ,
▁g ather
AR Y,
▁PRO C
▁qu ot
▁design s,
▁sponsorship ,
▁ ru
▁T ax
▁THE ORY
▁Submission s,
▁replace ment
▁Cont ribut
un t
▁per jur
▁form s
RE AT
▁principl es
▁dis able,
▁Dep artment
G S,
▁Proper t
ate g
▁B ook
▁R ed
▁r ate
▁Cor por
▁opin ion,
▁infringement ,
▁email s
▁CAUS ED
IL E
▁j oint
▁examp le
ly ing
▁time ly
▁char ges,
▁cont empl
▁I s
▁link s,
og n
▁we ek
▁fe es.
▁comput er,
▁arbitr ation,
▁ill ust
▁S ports
▁U K
▁attempt ing
▁Mill enn
ifi ed,
▁Terms ;
o ot
▁char ity
▁refer enced
▁attorney ’s
er g
▁permiss ion,
▁enh ance
S IVE
▁Millenn ium
▁Pro f
▁consider ation
▁Eng land
▁to p
▁f ire
MENT ,
▁conf idence
▁govern ing
ri d
▁be gin
MA IL
▁Additional ly,
▁discontinu ance
W e
▁Pric es
ap p
▁subsidiar ies
▁COMPLETEN ESS
C h
m ark
▁L ist
▁E nd
▁event s
▁re ject
▁[ email
▁omission s,
▁D o
▁comm unity
▁breach es
/ s
rou ps
▁provid e,
▁adv ice,
▁( g
ide os
▁ra ce,
▁le arn
▁AL TER
▁re im
ear ch
▁P r
▁oblig ated
▁here .
▁offer s,
holder s,
▁N or
▁Platform ,
▁Lic ens
er ’s
▁investig ate
▁custom ers,
▁third-part ies.
▁t est
▁negligence ),
▁caus e,
▁ens uring
▁sublic ense
▁system ,
▁19 9
▁B it
▁off ice
▁G ENER
▁or ient
ED .
▁SPECIF ICALLY
. 3
▁cl ip
▁D oc
▁regul ation,
▁disassemb le,
▁RECE IV
▁EXCLU SIVE
V I
u ard
▁right .
el s
▁ful f
istor ical
▁shop ping
an ,
▁ex am
▁F ail
OU ND
▁pl ay
th el
▁so .
▁(here in
▁manag ement
al ance
ant s
ra struct
▁L i
am e,
AT IS
▁viol ated
▁TIME LY,
▁E m
▁chan ges,
F or
▁Hub P
▁Vi ol
re fund
▁H ear
▁distribut ors
▁adv oc
▁saf ety
v ir
▁harm ,
▁disclos ing
Th ird
▁PURCH ASED
▁o l
▁PROVID E
▁Sec ur
n er,
▁n atural
▁constit ut
▁Cod e
▁account s,
▁count er
▁injur y,
ang ible
▁therein .
▁enjoy ment
▁DISC RE
▁contempl ated
▁writing .
▁confirm ation
/ d
▁FOREGO ING,
▁fail s
▁mislead ing,
itor y
▁PRO GRA
▁consent s
▁them ,
▁Link s
▁reason s
▁FOR TH
▁made .
ro ss
ATIS F
▁DIS TR
▁S A
▁act ing
▁" A
▁BU GS,
▁T R
ens able
▁inf rastruct
▁DISCRE TION
tw ork
▁wa iv
▁else where
▁e ar
if e
▁D irect
IB UT
▁RELI ABILITY,
ro l
▁material s.
ak es,
S P
▁upload ing
▁policy .
▁New s
▁fa ult
▁d on
▁remain der
▁submit ,
▁FIN AN
▁wr it
▁collect ,
▁defamator y
▁resol ution
▁exec ut
ut o
▁respon se
▁below )
▁O p
▁M IST
▁cho ice
▁Fail ure
▁c rawl
▁AG AIN
▁RESPECT IVE
▁MIST AK
8 )
▁W ork
▁F A
▁opport un
▁not ific
▁share holders,
▁tra ffic
l ine,
▁ERROR-FREE ,
▁copy ing,
▁select ed
▁therein ,
▁G lobal
▁Software .
▁U pload
▁am ong
▁exp osed
▁person ;
▁vis ual
▁l arge
iz ing
▁tra vel
▁Affili ates
a per
▁le ave
▁us ;
▁LIMIT ING
▁FINAN CIAL
5 )
▁oblig ation,
▁intern al
▁S ocial
▁equip ment,
▁CIRCUMSTAN CES
▁so on
▁request .
or y,
ill ing
m irror
▁l ook
▁del ays
▁intent ionally
▁ex pl
▁en for
▁pre ced
▁min ors
▁ON LY
▁promot ions
▁indec ent
g u
▁IN V
▁“ Terms
OL D
▁royalty-f ree
ug in
▁com ments.
▁r out
▁basis ,
▁On ce
▁for :
▁event ,
- up
▁abus ive
▁( 4)
▁Agreement ;
▁aggreg ate
eg uard
▁AB OUT
▁“ we
▁limit ,
▁site ;
o o
▁m et
▁lease ,
m ium
▁cl ose
▁collect ion,
▁facil ities
▁relig ion,
▁appro ved
▁TE CH
▁(herein after
OR SE
▁post al
▁month s
▁a round
▁co vered
▁pri m
▁the ft
▁“ C
▁saf eguard
▁SUBS T
▁EXEMPL ARY,
▁(g )
▁funct ions
on y
▁S mart
▁person ’s
▁ar twork
▁CL ASS
▁LICENS ORS,
urre nt
▁ess ential
▁represent ation,
▁GOODWILL ,
ED ING
▁PART N
▁Inc. ,
▁hereunder ,
▁ knowled
ity .
ION ,
ACT IONS
▁EXCE PT
t s,
▁supersed es
▁sub- contract
▁COUR SE
▁Media ,
▁reim burse
▁contract s
▁h older
▁“ Content
▁RE F
▁IND IRECT
▁rel ate
▁dec isions
▁n ext
▁Ch an
A MS
se c
▁f am
▁( 6
▁( D
▁imp osed
▁performance ,
▁subst itute
▁Europe an
▁“ our
▁protected ]
S h
▁f lo
▁Purch ase
▁associ ation
▁C re
▁offic ial
▁LAW S
▁becom es
▁P ublic
▁reli ed
▁desc riptions
▁encoura ges
▁AGAIN ST
▁fore see
▁v ary
▁St andard
▁program s,
▁Ref und
vent ion
▁stor age
N E
▁techniqu es
▁Information ,
▁intim id
res h
B O
▁ADVERT IS
▁aff irm
▁RECEIV ED
J AN
▁own ers,
▁SECURE ,
▁dut y
▁p ict
▁solicit ation
al ly
▁END ORSE
▁In s
▁(I )
▁inappro priate,
▁Stat ement
act ory
▁pre fer
▁promot ions,
▁T RO
as y
▁sh aring
od y
▁R el
▁technical ,
▁Pay P
▁perjur y,
unct ion
▁rec ipient
▁NON-INFRINGEMENT ,
▁reput ation
▁g round
▁g roups
▁here after
▁man ner,
▁adv is
▁GUARANT EE
T EN
con fidential
el d
▁rep air
▁terr or
▁ind ust
▁s mall
▁cop ied
▁plac ing
as k
▁IT EM
▁THERE OF
v ate
▁guarant ees
▁mainten ance
▁F UR
▁perform ed
▁Internet .
▁broadcast ,
▁HubP ages
▁Hear st
▁St udent
▁K ing
IVE ,
▁Perm ission
▁Th at
g istered
im ate
▁“ D
▁J ob
▁be ar
▁order ed
▁k ey
(s ),
l es,
▁ex cess
▁imp ose
▁WRIT TEN
▁S ou
ri ve
▁If ,
▁result s,
▁tw o
▁Id ent
id den
▁oper ator
p lement
▁H ORS
▁war ,
▁gen der,
▁invol ved
im in
▁perm issible
▁MISTAK ES,
▁unre ason
▁activity .
▁SUBST ITUTE
▁I L
▁below ,
▁REVEN U
▁TRO JAN
▁organ is
▁e ight
▁retri eve
ot t
▁int ro
▁cons istent
▁work s,
▁Term ination
▁AT T
▁denial -of
gre e
d om
it u
▁D ist
▁cre ative
▁ACC OUNT
▁ENT ITIES
▁f re
▁rep eat
▁Reg ul
ol ution
▁serv er.
▁proper ly
▁rec ogn
o @
Y P
▁comp at
▁error-free .
know n
▁phot ographic
▁tempor ary
▁exempl ary
▁CUSTOM ER
▁(I I)
▁consult ing
/ her
▁re ach
▁review ,
▁S ections
▁l ay
▁impli ed.
▁correct ,
▁ask ed
▁ARBITR ATION
L ink
▁CRE ATE
an n
▁follow s:
▁identify ing
▁major ity
P A
▁the ory
▁c ases
ed d
▁V AT
▁s y
l ow
▁M on
ant ly
▁ann ual
▁incons istent
▁F ac
▁govern s
▁password s
▁States .
▁from :
▁pre -
▁threaten ed
▁pen alt
▁determ ination
▁above .
▁in hib
▁S w
▁D e
AR S
▁network s;
▁COMPONENT S.
▁present ation
.com ’s
▁content ;
▁ad equ
▁product s.
▁pay ing
▁accept ing
▁te am
▁breach ,
▁non- pro
▁same .
▁e lements
▁im plic
av i
. e.
M O
▁O P
▁success ors,
iqu e
▁dev ices
▁host ,
▁A nd
▁E ACH
▁TIME LIN
▁corpor ate
▁G REAT
▁Te ch
▁dut ies
amp a
▁REPRESENTAT IV
▁termin ates
▁display ed,
E x
▁it self
▁pre ca
▁risk s
▁support @
▁click ing
▁rel ates
▁includ e,
▁Not ices
▁integr ity
ot i
▁proble m
▁t re
▁s itu
▁suspend ed
▁back up
▁establish ed
on e,
▁P LEASE
▁O MISSION
▁giv es
▁prom ise
5 0
▁prof an
av or
▁ar ises
▁imp os
ism ,
LIN E
▁enter ing
▁fram e
▁INTER NET
ou n
▁SUBSIDIAR IES,
ampa ign
▁M IS
ical ly,
▁ph ish
▁sim ply
▁seek ing
▁ACCUR ATE,
▁do ing
▁becom ing
-to -d
▁( x
▁E duc
▁complet e.
ER ,
▁loc ations
▁date .
redit ed
▁trans mission,
ator y,
▁langu age
▁agenc ies
▁There fore
▁own s
cept able
▁he ader
▁TECH N
▁form .
ef in
▁kind .
▁s lan
ment .
▁software )
▁connect ing
▁proble ms
end ar
erch and
▁OFF ENS
▁N ational
AS T
▁offic ers
▁book ing
▁elig ible
▁Th ose
▁TH OSE
▁parent ,
▁promot es
▁script s,
▁W ebsites,
▁st ill
▁delet ed,
u ild
▁jurisdiction s,
▁occ as
▁Canad a
▁ ri
r y,
▁secret s,
▁L os
▁remo val
▁post ing,
▁user .
▁fund s
▁ol der
▁suff er
▁TRANS ACTION
▁description s,
e ch
▁“S ervice
M S,
▁impro per
▁infrastruct ure
▁material ;
AT ORY,
▁non- confidential
▁Doc u
▁O ut
ew s
▁secur ity,
▁Or gan
▁guarante e,
im es
▁H E
-s ervice
▁HORS ES,
▁sh ort
▁M UST
▁Ind ian
▁link :
▁through out
▁comm itted
▁employ er
en erated
▁o w
▁( th
▁G RA
▁neg oti
iz ation
▁oral ly
A .
▁illust ration
l come
▁trans mitting
▁sp y
▁ship p
LEG AL
SO CI
▁app oint
▁ethn ic
▁clip s,
ex port
▁ALTER ATION
▁THE ORY,
▁Own er
▁ :
▁prov in
▁suspend ,
H IB
▁deal ings
▁sound s,
HIB IT
▁G ame
▁up -to-d
▁period s
▁ed itor
▁sc ope
▁York ,
▁Govern ment
▁trans port
▁“ User
▁document ation
▁Custom ers
▁AS SOCI
▁cookies .
▁typographical ,
f o
▁download ing,
▁store .
▁Del ivery
IS E
▁non- refund
MIS S
▁You ,
▁M in
▁Pro ject
▁accuracy .
▁IL LEGAL
▁A re
▁whatsoever .
▁A fter
▁wr ong
▁fraudul ent,
▁sexual ly
▁E MAIL
▁address es,
▁stri k
-re lated
▁compan y,
▁v ent
▁disc ount
▁fit s
▁Dist rict
are d
ant s,
▁PER MISS
▁countri es.
▁mean ing
▁protect ing
▁cal endar
▁b ug
▁fram ing
▁California ,
▁f irm
▁M aj
▁reference .
▁DEF AM
▁transaction .
▁STATUT ORY
▁indemn ified
▁J AMS
▁F in
▁parent s,
▁Provid ers
▁PERMISS IBLE
u x
▁rev ok
▁interest s
▁CH ANG
▁man ipul
- in
▁DISCLAIM ER
t .
▁S erv
▁“ M
▁1 6
▁export ed
▁st ock
▁attorney 's
PH IC
ANG IBLE
▁facilit ate
▁knowled ge
▁en ab
t ual
ra in
▁electronically .
▁(C )
▁preca utions
▁PRO HIBIT
▁decept ive
▁p yramid
▁S im
▁P ass
▁L ab
▁tr uth
▁so ,
▁merchant ability
om ic
▁F ee
▁EXPR ESS,
▁comm ence
▁partn ership
o pt
▁ad ult
▁FUR THER
▁ ESS
▁l oad
▁FOR M
▁illustration s,
eb ook
▁method s
id ed
▁OR AL
▁min ing,
▁secure ,
▁Inter active
thel ess
us h
▁( W
UL T
▁endors ed
▁accur ately
▁opin ion
▁reproduct ion,
▁Or d
▁controvers y
▁STORE D
▁Pri vate
▁action .
▁conf us
▁non-transfer able,
ra ck
▁ex cluding
▁information al
▁do ll
▁view ,
OU S
▁ANY ,
▁ESS ENTIAL
E P
▁de activ
▁DO LL
a ff
▁incomplet e,
▁S al
▁cons um
▁(h )
▁Associ ation
1 0
▁e-mail ,
G C
▁distribut ed,
s es
.com 's
▁( other
▁represent s
▁TRANS ACTIONS
▁agenc y
▁head ings
▁S ale
▁CONTENT .
▁Wh at
▁businesses ;
UR ING
▁alter ,
▁ITEM S
t ime
▁disput e,
▁post ings
▁pack age
▁E lect
▁AP I
i -
i er
▁confidential .
▁robot ,
▁rights ;
▁avail ability,
▁PROVID ERS,
▁equ ival
▁Tra vel
▁comp rom
▁re- export
▁pur port
▁affiliates .
▁endors es
ag es.
▁breach ed
▁PART Y,
▁LLC ,
▁F ran
ro ll
▁reg istr
▁chan ged
ID E
▁judg ment,
▁Pro ced
▁e v
▁orient ation,
▁ground s
▁provin cial
▁d ou
▁R est
▁bill ed
▁to ward
st ood
▁res idence
▁neg ates
▁STAT EMENT
um an
▁Software ;
▁INTERRUPTION ,
A d
p ass
▁le vel
IV ER
▁QUALITY ,
▁con cept
sc riptions
▁neg ative
IV )
▁advert ised
▁to )
▁warrant s
▁dev ices.
▁cancell ed
▁Therefore ,
▁URL s
▁prevail ing
▁PROFIT S
, 000
▁ §
▁( IV)
▁ide as
f it
▁defam e,
▁alter n
▁Leg al
J ECT
▁P AY
▁period .
▁sublic ense,
▁upload ed,
▁U.S. C.
▁third-part ies
▁N ations
AR K
▁AL SO
▁equival ent
▁transfer able
▁It em
▁Per iod
▁f air
▁E UL
end ing
ST AN
I I)
▁( V
▁( 5)
▁term ,
▁Ch ar
▁includ es,
▁m erchand
▁C ANN
▁PR IV
▁LIK E
▁T r
▁con fer
RO PRI
S S
▁accom pany
▁DEFAM ATORY,
▁( commercial
▁his /her
▁eight een
op p
▁lay out
▁Th rough
▁another 's
▁polic y,
av ig
▁V I
▁consent ;
▁MAT TER
▁rev ision
▁public ations
▁origin ,
▁contribut ors
(s ).
▁t icket
▁B L
▁util ize
▁S an
▁is ,
▁r un
▁j o
▁FE ES
▁l ine
▁con vent
ur ring
▁(“ Terms
▁Man ag
▁t ag
▁g e
▁Re ce
▁standard s
▁permanent ly
▁legal ,
▁1 00
▁purchase .
P l
▁capac ity
▁ru le
▁writ ing,
R UCT
▁M O
▁' as
▁interrupt ,
▁ADVERT ISED
▁reproduct ion
m an
▁quest ion
▁currenc y
▁L OC
▁cons ist
▁effect ive,
▁tim es.
▁under stood
▁ab use
▁appear s
▁accurate .
A DING
c ul
▁ 0
ens es
▁provision ,
▁continu ous
▁AGREEMENT ,
▁condition ed
▁fil ed
▁docu ments,
▁cap able
STAN DING
A pp
▁attribut ion
T I
f e
▁SERVICE ;
▁m ut
▁not ations
▁GRA PHIC
▁com ment
▁mal ware
▁CANN OT
▁un ique
▁dis ability
▁G od,
▁contract ors
GRA PH
T D
▁G IV
▁useful ness
ri p
▁through ,
UR RE
▁infring ed;
▁jud icial
at est
▁failure ,
▁serv er,
▁CHANG ES
▁upd ating
P ORT
▁unre gistered
ers )
lic k
▁INT O
▁j unk
▁TH AN
▁char act
▁dou b
▁act ive
▁sh own
▁(“ S
▁F rom
▁up-to-d ate
▁s ave
▁INT ANGIBLE
▁LINK S
▁ri ot
▁Product s.
▁timelin ess,
▁CONT RO
▁stat us
▁Cl ass
-h ow
E ng
▁p ages,
▁w e,
▁represent ing
ou ch
▁re ly
▁host ing
- G
▁news let
WITH STANDING
ure d
por n
▁DE AL
▁tax es,
▁plan s,
▁Ent ities
▁Austral ia
efin ite
▁ethnic ity,
▁PayP al
2 4
▁Re fer
▁enc rypted
▁Gen erated
▁CORRECT ED,
▁brows ing
i ous,
u ck
▁acc ident
▁activ ity,
os ure
▁chan nel
▁process es
▁dur ation
▁t rojan
▁L og
▁inc re
▁process .
▁PER I
▁error ,
▁LLC .
▁general ity
-c urrent
▁claim .
▁gre ater
▁j ob
▁author s
CA USE
o .com
▁Applic able
▁then -current
at ing,
▁applic ations,
▁not withstanding
▁For um
▁exclud es
▁Information .
▁Ad min
▁b alance
ro se
▁NOT WITHSTANDING
▁denial-of -service
ent ly
▁" Content
▁fail ed
▁know -how
ANN ER
▁ethn ically
▁ar ch
▁DOWNLOAD ED
▁ind efinite
▁data ;
▁employ ment
▁reference ,
ash ing
▁BE CAUSE
▁behalf .
▁inf o@
▁ENTIRE LY
▁C ESS
EM N
▁pres erv
▁Trademark s
▁ex plain
▁Un ivers
▁distribut ion,
▁detail ed
▁benef ic
▁sold ,
▁s ections
▁D ate
▁C OD
▁stat ute
▁CONN ECTED
▁yourself ,
▁(e ach
▁(e.g .
▁Sou th
Y S
▁as se
tent ion
▁W ord
▁ins ult
▁init ial
▁EQU IP
▁T YP
ri end
ail y
▁regul atory
▁disab led
▁Corpor ation
▁F e
IG N
▁Cl ause
▁disclos ures
▁actual ly
▁disp atch
▁der og
▁AD DIT
▁embar go
▁depend ing
at ic
▁dis a
▁DISTR IBUT
▁s er
▁ST ATED
▁network ,
▁remo ving
▁Market ing
▁profan e,
▁in com
▁cook ie
▁PURCH ASE
▁MED IA
▁RELIABLE ,
▁tre ated
d is
o ice
▁W a
▁opin ions,
S p
IT AL
▁disc over
▁non exclusive
▁suggest ions
▁scra pe
o der
▁s w
▁C O
▁applicable .
▁Sol utions
▁Design ated
▁vol unt
▁gather ing
▁communic ations,
▁GENER AL
▁C are
▁st alk
▁GUARANT E
▁unavail able
▁particular ,
▁promot ing
▁CESS ATION
er y
▁Cont act
▁Port al
▁offer ,
▁2 0
▁select ion
ATION S,
▁rec over
▁supersed ing
▁H ow
▁per tain
▁ordin ances
▁refund .
▁retain s
▁libel ous
▁feedback ,
▁The y
▁cons olid
▁int angible
▁arbitration .
▁disput es,
▁PERI OD
▁T AK
▁King dom
▁pl ugin
▁Platform .
▁termination .
▁INCLU DED
▁MONTH S
▁unreason able
▁Product ,
▁(I II)
▁extract ion
▁accompany ing
us e,
▁com plies
▁co ven
▁mechan ism
▁d ate,
▁( not
OR D
▁Me thod
▁Con n
edu ct
▁Secur ity
▁such ,
▁grant ing
▁K NOW
IF Y
▁SUB JECT
IS H
▁availability .
▁(6 )
▁preced ing
N ESS,
▁( to
▁off ense,
IP AA
X X
▁ASSOCI ATED
▁th ree
▁( $
el ,
▁cre ation
▁Li ability
▁network s.
s ”)
▁h ad
▁R em
oc al
▁owner .
j unk
▁h ear
▁st ruct
▁H ome
▁according ly
▁REQUIRE MENTS
z e
▁c ash
▁S ITES,
▁manner .
▁trans itory
▁quest ions,
▁material ly
▁DISC ONT
▁TERM IN
▁War rant
z z
▁“ I
▁Com plain
▁rev enue
emb er
▁risk ,
MENT S,
▁est opp
▁Cour t
▁DISCONT IN
▁there with
▁Indemn ified
CT IONS
▁complain ts
▁format s
▁prohibit ions
▁$1 00
TH ING
▁al one
▁invol ving
▁( j
▁Ex press
▁EXP ECT
W ORK
▁media .
▁slan der,
▁G am
▁St reet
▁5 12
▁vend ors,
I O
el p
▁IND EMN
IGH T
P S
▁" P
▁ver y
▁a rose
▁bar red
R e
l am
▁c ateg
UB L
▁D URING
ated .
▁(1 8)
▁m any
▁way .
▁display ing
▁obligation )
▁beh avi
s on
▁content s,
▁there after
▁LOSS ES,
res s,
▁possib le,
▁DOLL ARS
▁SERV ER
▁robot s,
▁Maj eure
d o
if ies
▁dis s
vir on
▁TIMELIN ESS,
▁f ree,
▁M ail
▁direct ors
▁promot ion
▁OB LIG
▁ext ens
ri vacy
▁Con vention
▁investig ation
▁ACCUR ATE
▁misappro pri
▁P ty
▁User ,
▁legal ity,
▁rep e
▁Cl oud
▁rese arch
▁Off er
▁spy ware,
H ost
▁L e
▁rec urring
il st
▁You .
▁some thing
▁License e
▁PROVIS ION
▁in put
▁collective ly
▁d educt
▁unt rue,
▁unre st
in o
▁l o
▁Technolog y
▁WA IVE
▁KIND .
▁Discl aim
▁purchase ,
▁complete ly
p o
▁E U
▁inc on
▁const antly
▁media ,
▁BASIS ,
▁D IG
EN SE
▁memb ers,
▁POSTED ,
▁under lying
▁COMPLETEN ESS,
▁Pro cess
▁le ad
▁repe ated
S ATISF
▁S k
an a
▁C ARE
▁P v
▁H OW
▁ass ess
S U
▁error-f ree,
▁(j )
▁ha pp
U s
▁M ag
▁Return s
▁excess ive
▁T re
▁offer ing
sel ves
- 3
▁A b
▁N ET
▁ST ATE
▁hyperlink s
▁schem es,
▁c a
iv es
▁trans it
▁DIS SATISF
▁pric ing,
▁min or
▁al ong
▁For ce
▁ACTION ,
▁avoid ance
▁revoc able,
▁WITH IN
▁interact ions
- m
u it
▁h ouse
ch ar
▁D ES
▁trad ing
▁statut e,
▁expect ed
▁MEMB ER
S c
▁NOT ICE
▁cor rupt
▁UP ON
▁APP ROPRI
▁advoc ates
▁P H
▁contribut e
▁car ry
▁cach ing
▁Fac ebook
. 5
C O
om est
▁on line,
l ined
▁n avig
▁2 00
OL LECT
▁FUN CTIONS
▁Propert ies
. io
▁comp letion
▁WH ERE
▁communic ating
▁implic ation,
▁ANY ONE
▁Im person
I X
▁A uthor
ance ll
pect ive
▁ro om
▁Discl osing
▁d raft
▁address ;
le y
▁SERVICES ;
▁Ident ification
ly -
▁republish ,
▁altern ative
▁l ive
▁interest ed
▁A utom
▁cre d
▁non-commercial );
1 1
ir ing
▁(in formation
▁G et
▁inter cept
▁en viron
UR ES
▁char g
▁visit .
▁Contribut ions
▁C ar
▁r ates
▁current ly
▁security .
pos it
▁lab or
el f
▁SUPPLI ERS,
▁fulf ill
▁TRANSMITTED ,
▁s ort
▁C ity
id uc
ad em
▁M OD
▁THEREIN ,
2 0
▁M ost
▁loss ;
▁technolog ically
▁component s
ed ul
▁international ,
▁attempt s
▁Rece iving
▁H ar
▁G ames
▁RE AD
let in
ili ar
▁incom e,
▁IMPLIED .
▁“us ”
▁disability ;
/ privacy
por tion
▁Un ion
▁NEGLIGENCE ),
▁separ ately
bur den
▁cost s)
▁(wh ich
▁payment .
n ers
▁permiss ions
▁Res our
▁week s
▁GREAT ER
▁activ ities,
f rom
- out
▁s ix
▁D ay
our se
con duct
▁redistribut ion
▁sound ,
▁B AR
▁D ev
▁over burden
con omic
▁enfor ced
▁B O
▁property .
▁invest ment
▁restriction ,
vis ual
yc le
▁fire ,
o .
▁E n
▁D EST
▁M S
▁Ar t
▁repl ac
▁suit ,
k )
-b ased
▁PROC URE
o ff
▁post s
▁reli able,
▁abs ence
▁h uman
▁E mail
re g
at ors,
▁L TD
▁Con duct
, "
p ay
un ch
▁offer ings
▁Material s,
▁(v ii)
IF IC
▁SPECIF IC
▁TERM S,
t ing
▁infring ed
▁technolog y,
▁recommend ation
▁revoc able
F ORE
w ant
▁f iduc
▁if ,
li ght
▁‘ as
▁“ T
▁“we ”,
▁fam iliar
o h
il ities
▁pro sec
▁email .
▁appro priate,
▁(i .e.
▁Websites .
▁destruct ion
y n
▁N B
▁monitor ing
▁Comm unity
▁occur s
▁circumvent ,
▁c ases,
▁P OR
▁it ’s
▁“our ”
▁WRITTEN ,
er .com
▁eng ines
▁confirm ed
T V
▁pro of
os en
▁imp act
▁hereof .
▁St ud
▁ASSUM ES
a ut
s w
▁ph arm
▁another ’s
UT ES
▁( k)
ig u
ip s
▁demand s
▁assist ance
il es
▁non commercial
▁Communic ations
▁republish ed,
▁S AP
if f
▁release ,
i form
▁ ·
▁an t
▁understand ings
▁Sports Eng
id ers
ext ,
▁proced ures,
▁forum s,
▁(with out
M ark
▁C URRE
▁part ial
▁DIG ITAL
▁PROCURE MENT
ak es
▁ON LINE
▁contract .
ce l
▁apply .
▁assign ment
▁rout ine
▁mis conduct
I OR
UT ION
ens itive
▁thereto ,
▁interfer es
▁person 's
▁inaccurac ies,
- not
re ak
▁un used
et s
▁TRANS MISSIONS
ot .com
▁pro ject
▁B M
▁law fully
▁ch osen
▁CAUS ES
omest ic
D MCA
ou ght
▁CON ST
-p arty
▁subcontract ors,
OL IC
▁Ord ers
▁imm oral
ential s
▁RELI ABILITY
▁day s.
▁objectionable .
▁doub t,
▁U GC
▁" User
▁sett ing
▁convenience ,
▁correspond ing
▁REPRESENTATIV ES
▁set s
▁REASON ABLE
or ies
▁porn ograph
- w
L INK
▁link .
▁intimid ate,
ant age
▁client s
▁litig ation
▁upload ing,
▁eng ag
▁communications .
▁judg ments,
ING S
▁perform ing
▁period ,
▁M ore
▁fiduc iary
o om
s ")
▁ex chan
▁On e
t een
ent al
▁endorse ment,
▁tool s,
▁E -
▁“ your
▁endorse ,
▁“S ite
▁v ideos
▁Re pro
▁pract ice
▁partnership ,
. 4
ed ic
▁secret s
▁fram es
▁therefore ,
Com m
▁REPRESENTAT IVE
sc reen
▁Off ice
▁hors es
▁evalu ating
▁th ings
or .
▁contest s,
▁cl aus
▁concern s
▁F OUND
▁ar is
▁CONTRO L
▁send ,
▁Internet ;
du ce,
▁R en
ens able,
▁NON INFRINGEMENT
▁P &
pl ace
▁assign s,
▁Internet ,
▁Sch ool
▁User .
▁compat ible
▁O cc
▁affect s
▁Comm ercial
▁vari ety
P ay
▁We lcome
▁acqu ired
▁Claim s
▁DEST RUCT
▁carri er
▁none theless
( c
▁negligence )
▁mail ing
▁COMMUNIC ATIONS
▁h istorical
P RO
▁A uthorized
▁consult ants,
▁lik eness
▁any time
ch ain
▁im age
ee k
▁RE LEASE
▁Use ;
▁RES ERV
▁comput ers
▁b ur
▁Ad d
.co. id
▁CONDITION S,
OLLECT IVE
▁n ull
ARE NT
▁correct ed
er ate
▁C AN
▁ad opt
▁payment ,
▁Blackboard ,
▁Rest rict
ub scrib
▁Ex per
ash ion
▁Contract s
▁exam ining
W S
” .
qu est
▁H Y
▁ann oy
N ews
▁loc ate
▁spons ored
▁objectionable ;
▁ACT UAL
▁non-transfer able
▁word s
▁pertain ing
▁con j
▁require ments.
▁arbitr ate
▁deb t,
▁worm ,
▁expl an
O K
t ra
▁I S,
▁P UBL
▁hereunder .
▁instit ut
▁Vis itor
▁SECUR ITY
ic ed
▁ad verse
▁statement s,
st ro
▁H IPAA
▁d raw
▁EMPLOYE ES
▁PR IOR
▁DOWNLO ADING
▁M AN
▁way ;
▁Re public
.com/ privacy
▁S MS
▁out standing
nd emn
▁interf ac
▁dispar age,
▁P ARENT
▁SU IT
at t
▁2 1
▁conj unction
G ;
▁reli able.
b ox
▁S earch
▁st ream
▁there from
▁ow ed
- line
▁F re
▁appro pri
▁bul letin
▁mark ,
▁neglig ent
▁SportsEng ine
▁S M
▁us )
▁un in
pres s,
▁st aff
▁Company 's
▁distribut ing
ffect ive
▁DIRECT LY
▁disassemb le
▁merchand ise
il y,
▁mat ch
h ic
▁( un
▁in qu
▁comply ing
▁clear ly
▁counter -not
▁crawl ,
▁toward s
▁DISCONTIN UE
▁cre ate,
▁system s,
▁dissemin ate
▁Viol ate
▁P OLIC
▁oper ators
▁resell ,
▁util izing
▁N on
el ivery
▁In fringement
▁SITE ;
▁att ach
of t
▁SUB MISSIONS
▁cal cul
CR IP
▁D uring
▁D omain
▁st udent
▁complain ing
▁foresee able
im e.
▁act s;
▁manipul ate
y tic
▁Data ,
▁void ,
▁invas ion
▁COUR T
▁a s,
▁Cont rol
▁pres ence
▁Client ’s
eep st
▁Disp utes
▁house hold
st er
▁F TS
AT H
▁dep ict
▁diss atisf
▁dis gu
▁E L
▁ent ries
▁modification s,
▁ship ment
▁compil ation
' t
▁s log
▁Sub scrib
▁am b
▁Wal es
▁Nor th
▁Occ as
it ness
▁d omestic
▁M AL
▁cod es
▁sign ing
▁Am az
▁Rev iew
▁s ess
▁read ,
▁notific ations
▁ex c
▁suspend ing
▁REPRESENTATION S,
▁NET WORK
▁with hold
ific ation,
▁employ ee
▁legal ity
ROU P
▁Ap pro
▁authentic ation
▁L ear
in der
pro portion
ertain ment
▁cou ri
▁pret end
▁discrimin ate
▁c ampaign
▁dis proportion
▁email ing
urn ish
▁interf ace
▁national ,
▁viol ence
▁PRE C
▁REVENU E,
_ _
u zz
▁l ack
▁" us
▁(1 2)
▁Te am
▁comb ination
▁her eto
▁Su per
▁admin istered
▁phish ,
▁delivery .
▁Univers ity
B log
▁un want
▁“ spam
▁advert ise
▁PROVID ER
▁invalid ity
▁endeav our
▁provid er,
▁infring ing,
▁adv antage
IV ID
Com pany
- pro
▁an im
▁s ense
▁cost ,
▁initi ative
▁disab ling
▁newslet ter
▁insult ,
▁service ;
▁failure s,
▁except ion
▁EMAIL ED,
er eby
▁off ices
▁acknowled g
ef ined
▁amend ments
▁render ed
ar get
▁applicable )
▁guidelin es,
▁hardware ,
▁disa gree
B LE
▁C ancell
own load
▁Comm erce
le x
1 00
IT OR
▁CORRECT ED.
IVID UAL
On line
▁S ur
▁RIS E
▁sal es,
▁pret ext,
▁ordinances ;
▁of :
le ge
▁B et
▁F O
▁IND IVIDUAL
▁fraud ,
istribut e
▁ge ographic
▁amb igu
▁m alf
▁at :
▁P& G;
▁C ou
du e
▁available .
▁cou n
▁Educ ation
ic ,
▁g ross
▁charges .
▁propert ies
▁deceptive ;
S )
▁right ;
co in
EN C
▁sup plement
▁Pr ice
▁editor ial
- IS
m is
▁viol ates,
▁associ ations
▁eng aging
▁numb ers,
▁equ ity
▁scra p
▁procure ment
▁bur den
▁so ;
▁fail ,
▁scrape ;
▁APPROPRI ATE
▁pharm ,
▁S l
▁own ,
age .
▁DE LE
▁INT EL
T O
▁N umb
▁FOR ESE
▁fore ver
▁O f
▁unwant ed
▁information ),
▁cance led
I K
▁O ver
▁( s
▁FE ATURE
▁interrupt ions
LECT UAL
▁de leg
▁“ mirror
▁unen c
▁age .
▁proced ure
▁disc o
urre n
-p olicy
▁INTEL LECTUAL
ony m
ashing ton
▁G e
▁author ity,
▁" spam
cc ount
▁sign ify
▁merchant able
FT ER
AC Y
▁enjoy ing
▁Op en
▁(W H
▁unrest rict
C P
m od
▁s k
▁un con
▁Us ers.
▁“ L
▁account ing
▁V er
▁ra c
▁dep ic
▁Technolog ies
▁coun sel
▁w ire
▁S hip
IC I
▁request ing
▁waiv ed
▁me ant
▁rec ourse
▁third-part y,
▁determ ines
▁DISCLAIM ERS
▁Part ic
▁C OS
▁" C
▁J UD
▁JURISDICTION .
▁unenc rypted
b ook
ol it
▁option ,
O GRAPH
er 's
▁be ,
▁log ic
▁inhib it
▁ser ious
▁W ashington
▁termination ;
▁refund ed
OL OG
▁satisf actory
▁DISP UTE
▁p ast
▁s ensitive
▁in vent
CC ESS
▁possible .
p aid
ron ic
▁deletion ,
▁Host ing
▁legisl ation
▁disproportion ately
▁m y
▁S e
▁content :
▁G ROUP
▁log ging
▁Account s
▁Third -party
▁exist s
▁(un less
2 5
▁th ink
C ON
▁crimin al,
▁Att empt
▁strik es,
▁truth ful
▁VI OL
▁ ve
▁court s.
▁su m
▁B illing
per form
ATE LY
▁identifi ers
▁script s
▁GIV ING
▁rep ublic
▁sever able
▁wh ereby
▁webp ages
▁Content s
PL AY
▁6 0
▁instit utions
▁Trans action
BO ARD
▁ *
eb it
▁there on
▁duplic ate
▁concept s,
▁F ore
▁M aster
▁(" S
▁clar ify
▁(D )
▁on to
▁sites ;
▁PREC EDING
r ate
▁terr itor
▁DELE TION
y l
▁mod ified,
▁void .
▁HEREIN ,
▁Chan ges
us ,
▁C lick
ad e,
let e
▁complet ed
▁ACCESS ING
u ct
▁t rue
▁F irst
ric k
▁(d efined
▁confus ion
is ,
▁at tention
▁applic ation,
▁appropriate .
▁permanent ly,
on line
▁L OS
▁Customer ,
▁Pay ments
▁equipment ;
▁Purch as
▁m oder
▁be t
▁F lo
▁G TI
▁wa ive,
▁Ac ceptable
▁Ins urance
▁ imit
▁m ach
▁Service ).
▁POR TION
▁Occas ionally
f irm
t op
om ent
▁off line
▁Cl ub
s.com .
▁Reg istered
ar ily,
▁F ound
▁Website /
▁infring es,
▁return s
▁est im
▁OFFENS IVE,
▁COS TS
▁T ex
▁available ”
▁company .
ur y
▁h orse
▁(“ F
▁block ing
▁COMPONENT S
▁head ers
▁constitut e,
A GE
▁part .
▁com e
▁R oad
▁non- s
▁fail ed,
▁need ed
▁day s,
▁INJUR Y,
▁(WH ETHER
om et
▁ind ex
▁SU CCESS
▁component s.
▁mut ually
▁“mirror ”
en der
▁dis ruption
▁device .
▁Pre mium
M e
i .com
▁g ame
▁man age
▁restrict ing
▁OTHERWISE .
▁registr ation,
▁( n
▁B ro
am per
▁INC .
▁parties ;
▁concern s,
▁explo ited
R eg
r ay
it ions
▁aspect s
-of -
▁shipp ed
P OR
▁A ir
▁OR D
▁ref resh
▁secure .
▁pre- screen
▁PRO CE
▁abs ent
▁paragraph ,
h a
▁Pro prietary
▁CONT R
▁review s,
▁permit s
▁country .
▁ver ification
xx x
▁“Service ”
u ri
▁for fe
▁credit s
▁Fl or
N et
s ”
▁App le,
) (
b a
ro p
▁P ar
▁F air
▁license e
▁confidence ;
ar io
▁not ed
▁sub scriber
▁licens es,
▁Sub mission,
▁review ed,
▁advertis ers,
▁correspond ence
▁mist akes,
l ess,
id ing
▁N et
▁In v
▁personal ity
▁Wh ilst
▁pract ices,
▁solic iting
▁C R
▁off ence
▁suit able
▁Proced ures
W eb
so ever
▁occ urren
▁Austral ian
▁don ’t
▁OP IN
▁SU FF
▁serv ers,
▁Trans act
hold ers
▁N ext
w eb
▁B rand
▁non-infringement ,
▁du ly
▁Google -Sourced
▁INCLU DE
▁draft ing
6 0
▁a ir
ot e
ut or
▁form s,
p le
▁S ing
▁Ind ust
mark et
) :
▁ ran
▁f urnish
▁In f
▁procure d
e ak
it ors
▁the ory,
▁d rive
-p aid
▁count ry,
▁brows ers,
▁Up d
▁Docu ment
▁report ed
▁arrangement s
▁LOS S,
l ed,
o res
▁ ©
▁p aper
▁W ix
am s
▁Comp ut
▁Product .
▁prompt ed
▁buy er
i eld
▁Americ a
▁PERFORMANCE ,
▁pro b
▁B est
IN E
▁damag ed
▁design s
▁discontin ue,
▁vent ure,
c are
it imate
▁F an
ter ,
ew al
▁User s,
▁To ol
▁subscription ,
▁Al so
▁Shop ify
▁GRAPHIC S
▁ca ution
E PT
e val
is p
▁expect ations,
▁Col umb
ER C
▁information :
▁organiz ations,
i ii)
▁sup erv
▁spec ify
ee ping
▁address )
▁Su ite
▁Tr ust
& C
▁own ed,
urre nc
▁correct ed.
▁OFF ER
▁MON ITOR
ro v
▁name ;
▁e arn
▁suppli er
▁On ly
▁belong ing
▁STATUT ORY,
dis cl
▁c rit
▁A f
id es
▁policies .
▁sch ool
▁dur ability,
▁racial ly,
▁Serv er
▁Resour ces
▁below ),
▁which ,
UND RED
▁sw eepst
p ite
▁h on
▁D eve
▁“ Website
▁DE V
▁rul es.
▁carefully .
▁PROVIS IONS
▁MS -Sourced
▁HY PER
▁ambigu ities
E .
▁ es
▁E ither
▁interact ion
▁USA GE
▁T op
▁e ver
▁B ad
▁out lined
▁order ).
▁disgu ise
n y
▁o mission,
in es,
er o
▁control s
▁entire ty
▁program ming
▁PARTN ERS
▁review s
▁sur vey
▁sett led
▁independent ly
▁anal ys
▁PROHIBIT ED
▁Through out
j ust
▁need s
▁future ,
en ,
▁l a
ate way
▁complet ing
▁section .
MED I
▁USA ,
r d
▁available "
▁inv ade
▁sal e,
▁endeav or
9 9
▁b )
▁Act ive
▁compet itive
▁sett ings
▁REQUIRE MENTS,
▁m ade,
▁part )
▁particip ating
▁Amaz on
s ’
▁jur y
▁world .
sh e
▁TR IAL
▁safeguard ing
/ c
m o
▁e as
ay ,
▁B ig
▁address /
▁fil ing
▁hand ling
▁pict ures,
b y
er pr
▁IM MEDI
▁PRIV ACY
P N
▁C ollect
▁SU SP
▁intern s
▁view ed
▁Pv t.
ing .com
ir it
▁WH O
▁to ;
▁D UE
▁sub scriptions
▁success fully
▁resell ers
▁misleading ;
▁ear th
▁h im
▁paid ,
▁min ing
ot el
Con fidential
▁ ο
▁tele ph
▁PROF ESS
▁FORESE E
ur b
▁as semb
▁access ing,
▁privacy .
▁hereof ,
▁REF ER
▁BL ACK
▁b an
▁H UNDRED
FUL LY
oun ce
- 1
m ,
▁TRA DE
▁tr ust
▁( see
ra p
▁E ar
▁possibility .
▁relationship s
▁EQUIP MENT
▁a )
com ments
▁comp r
▁WARRANT ,
▁electronic ,
▁suit ability
▁assert ing
▁N ame
▁how soever
▁advertisement s,
▁interruption, )
▁SECUR ITY,
▁Appro ved
▁E qu
▁download ed,
▁attempt ed
▁comments ;
▁artic les,
▁tag s
▁earth qu
▁M ORE
▁order ing
▁organiz ation,
▁deal ers,
▁report ing
▁impos es
-G enerated
ubscrib e
▁t amper
▁agre e,
▁“ B
▁work ,
T rad
i ,
▁S C
▁A FTER
nt ario
▁E very
▁THAT :
▁Customer .
▁individual ,
▁Advertis er
r .
▁part ner
▁Vir tual
▁header s,
▁revok e
▁STATEMENT S
2 ,
7 8
▁T icket
ap e
▁intern s,
▁detail s.
▁ext end
▁elig ibility
▁Sal es
▁Complain ts,
ON G
▁E D
▁TO S,
▁Us ing
▁product )
▁(to gether
t erms
▁O pt
▁by pass
▁H ouse
▁reprodu ced
ET ARY
▁IMMEDI ATELY
▁P et
▁rem edi
▁link ,
▁PRO BLE
▁email s,
▁e-mail s
▁indust ry
▁MO B
W ork
ES .
▁vul ner
E F
er ia
▁m oment
▁link (s)
▁PARTIC IP
▁inf ect
▁Publish ing
.blogspot .co.id
▁horse ,
▁PROFESS IONAL
▁d ates,
▁F uture
▁N one
▁communic ated
▁EXCLU DED
▁dest ination
▁Licens ed
▁CURRE NT
▁b uild
un g
um e
ical ,
▁subscrib e
▁(V )
▁repeated ly
▁Y EAR
▁belong s
edu le
▁TECHN OLOG
▁Repro duce,
c ent
▁P ark
▁F ood
IC E,
▁CONT AIN
▁Data .
▁HEREIN .
▁Th em
ING S,
▁condition ,
▁ARIS E
OL V
▁emb edd
▁(E VEN
C ES,
G o
G u
M E
▁W ide
▁Ar tic
s.com ,
▁select ion,
▁substant ially
▁organis ation
our n
▁mean s.
▁Re ad
▁CLAIM S,
▁board s,
▁volunt arily
▁h our
▁valid ,
▁matter .
▁mal ware,
▁quot ed
▁response .
I UM
u ff
▁l atest
▁(ex cluding
▁engag ed
ot al
▁regard s
▁let ters
▁Imperson ate
▁Flor id
▁any :
▁A UTHORIZED
▁O ntario
▁Site ’s
▁oblig ed
▁J av
▁HYPER LINK
v ision
▁al though
▁Limit ation
▁“S ervices
▁fund ra
▁schem es
▁address/ phone
m y
ing ;
▁L o
▁def enses
▁USE FUL
▁distribut ors.
▁transfer able,
▁India .
▁Word P
▁( U
▁merchant s,
▁original ly
▁compil ation,
▁ACC EPT
▁proceed ing.
▁affect ing
▁COMPAN Y,
▁18 ,
ment ioned
▁RES TS
▁offer .
▁d il
OR DING
▁termin ate,
▁j ust
▁associ ation,
▁AGREEMENT .
▁contr ary,
▁time -to
▁inst ru
▁lo an,
▁is '
▁B log
▁B EST
▁entries )
▁b ody
▁D oll
▁M oney
rib un
▁suppli ers.
▁Ex change
▁ev idence
▁time-to -t
7 9
ce ll
▁H OLD
▁harm less,
LL OW
▁fail ures
on es
▁P aid
▁irrevoc able
▁BLACK BOARD
pl es
press ion
▁advice .
▁bomb s,
▁embar r
E W
s erv
▁provid er.
od e
▁CA P
▁need ed.
duc ing
▁Prof essional
p an
▁a uto
▁D en
▁IN ST
ord in
▁cons iders
▁regul ation;
▁proceed ings,
▁stored ,
▁suspens ion,
▁expir y
▁d i
▁S IM
▁O b
▁represent ,
▁in ure
▁co -b
▁AFF ECT
.blogspot .com/
▁overburden ,
A r
t m
t ext
itt ing
▁Part ners
CR IB
▁prim ary,
/ p
f ram
es ign
▁E l
▁de posit
▁provided .
▁system .
▁subsid iary
▁audio -
▁dispar ages
▁asse ts
v i
▁m ere
▁S y
an ces.
clud e
▁loc k
▁racial ly
a ired
IT IES,
AB IL
▁employe e,
▁amend ment
▁Applic ations
-b y
OGRAPH ICAL
h ouse
ff icient
▁G reen
▁sp irit
▁accuracy ;
▁bomb s
▁flo od
▁TYP OGRAPHICAL
on st
▁unin tent
ers ;
AT OR
▁Ent erpr
▁System s
▁hack ing,
▁bul k
▁ENDORSE ,
▁f l
▁not ices.
▁L ife
▁ent ities,
▁AVAIL ABILITY
▁Bl ue
.com. au
▁Play er
▁fundra ising
▁ex press,
▁“ O
▁ACC ORDING
▁tort ious,
▁ENT ERED
▁Canad ian
▁PARTN ERS,
▁e conomic
▁acc redited
OR NE
▁ad s
hib ited
▁cod e.
▁sell er
ock et
▁Business es
▁val u
▁BUSIN ESS,
▁prep aid
▁Char ges
▁coven ant
▁W P
▁Compan ies
▁agencies ;
▁Street ,
▁incon venience
▁EL SE
▁JUD G
S I
▁f avor
▁JUR Y
▁patent s
▁CORRECT ED
▁non-pro fit
▁comprom ise
/ she
B A
v iew
▁L ive
▁H istorical
▁spec ification
▁collect ing
▁APPL IES
▁GUARANTE E,
6 ,
▁P ur
▁Un a
▁Ap ps
▁Party ’s
▁evalu ate
▁flo od,
▁corrupt ed
▁explan ation
N ot
▁m all
▁n e
▁comp ile
▁AVAIL ABILITY,
ell ig
▁admin istration
-c ase
▁misappro priate
U p
▁g ath
▁Ex port
▁AMOUNT S
▁sk ill
- 8
▁b ott
▁stat ist
▁AL LEG
▁Count y
▁DISP UTES
▁OMISSION S,
P orn
▁EX ERC
▁share holders
▁deactiv ate
▁necess arily,
▁User -Generated
▁ACC ESS,
▁undertak es
▁nonexclusive ,
N ING
y b
▁pro s
▁describ e
▁Id e
▁audio- visual
f ic
▁el imin
▁Ac adem
▁exempl ary,
▁Item s
n ivers
▁t en
▁law ).
▁reg ion
▁cook ies,
▁met a
▁un iform
▁time ;
e ved
ing )
▁disrupt ,
▁find s
▁manag ers,
▁ATT ORNE
- g
▁herein ;
▁restrict s
AA A
▁cease .
▁col or
▁IN F
mb ol
▁Ret ail
▁artic les
▁FEATURE D
c is
g or
▁P OST
▁TO S.
▁exp ose
ef ore
▁2 -3
▁he /she
▁EN J
R U
▁contribut ed
o ost
▁vis ibility
AG ES
▁upgrad e
▁D i
▁reli able
▁typ e,
▁Rul es.
▁d iv
▁PUR SU
▁interest ,
▁pric e,
▁delay ed
▁ACT IV
▁Wa iver
▁PURSU ANT
▁m ove
▁pur sue
▁blog s
▁redistribut e
▁ z
▁C AL
▁V al
▁know ,
▁supersed ed
▁Tw itch
re c
ri m
▁D et
▁complaint .
▁sy mbol
▁appoint ed
▁stalk ,
▁appropri at
▁l ate
cl aim
▁equ al
▁vend ors
▁DISSATISF IED
▁uncon ditional
it ure
▁St ock
▁Acc redited
▁WEBS ITES,
▁complain ed
▁Pass word
▁EXERC ISE
▁f ix
▁case -by
▁Partic ip
▁Af ric
▁case-by -case
h ere
▁or al,
▁m and
se t
ON D
▁ent ry
▁technolog ies
▁Cons ult
▁disput ed
▁is” .
▁RIGHT S,
▁unavail ability
▁unf air
▁incre ase
▁benefic iary
▁FO LLOW
( S)
▁rights )
▁UN LESS
IF IED
▁Refund s
h ood
ar i
▁( P
▁H igh
▁“ F
▁conf ig
▁contact ,
▁remo v
▁Sell ,
▁deliver ing
▁incomplet e
▁timelin ess
CRIP TION
rov it
I E
▁B ell
du ced
▁access ibility
el ve
▁CON F
▁licens ed,
▁loc ator
su p
▁Col lege
▁function ing
▁terror ism,
T C
ch arge
▁delet e,
▁HERE UND
▁NEGLIGENCE )
▁authorities .
m ing,
▁stor age,
▁consist s
▁FORESEE ABLE
▁ ”
▁you ’
se ct
▁L E
▁RE C
▁def in
▁ST OP
▁le v
▁Te le
▁deliver y,
▁b ann
▁A C
▁deal ing
▁approval :
▁suit s,
▁improve ments
▁EUL A
▁Comput er
▁M is
▁infring ed.
▁computer .
▁qu er
▁ret ail
ytic s
’ ,
▁license es,
▁download s,
▁fees ),
▁ther eby
▁cred entials
▁w ide
▁( OR
▁E LE
▁cert ified
▁INV EST
/ S
▁s ince
▁m ass
se en
▁ad just
w ise
▁permission ;
s) ;
▁sch edul
▁environ ment
- A
M C
M y
X T
▁indust rial
▁bott om
at ter
▁business ;
▁Res olution
▁Law s
▁d ress,
il it
▁V IS
▁Arbit r
▁PROCE EDING
▁are as,
▁M ess
▁war n
▁dem onst
- C
▁a fore
▁k eeping
comm erce
▁confidential ,
▁encoura ged
▁engines ;
▁shall ,
▁account ing,
▁consent s,
EC ESS
▁initi ate
▁struct ure
▁mall s,
is ation
▁re duce
nt ellectual
▁all oc
▁Regul ations
▁100 %
f ere
▁organizations ;
▁ext ended
▁Limit ed,
▁5 0
gor ith
T ube
g roup
▁B ox
▁USE .
olit ical
▁T &C
▁associ ations.
▁correct ed,
▁Part ner
▁4 8
▁doll ars
▁know-how ,
lam m
▁(" Content
▁maj eure
▁subcontract ors
▁CONS ULT
▁fre qu
▁Also ,
7 )
n ew
▁“ you
▁saf e
▁implement ed
V IR
▁B efore
▁comm un
▁promot e,
▁print ,
AM E
▁benefit s
▁"S ervice
▁unf avor
ly- known
▁C OP
ip al
▁ret rans
▁phot os
▁arbitrator ,
▁LIC ENSE
▁CARE FULLY
▁D ONE
▁" Terms
▁inc ite
▁SH ARE
▁organizations :
▁usern ame,
▁plan s
▁bring ing
Link ed
▁ADDIT IONAL
f ect
▁( S
▁are ,
▁un paid
▁3 rd
▁ask s
▁PROGRA MS,
▁adequ ate
▁for b
▁refund ,
▁detail ,
▁defam ation,
▁execut ed
▁wire less
R UP
▁un known
▁V ox
▁oblig ated,
▁address ed
▁OBT AIN
omet imes
▁t our
re land
▁f ax
▁LI ABIL
▁public ation,
▁serv e
▁NB CU
▁ACCORDING LY,
T o
h ost
▁w in
li ke
▁An g
▁cert ify
▁notific ation,
t v
▁ANY THING
▁H ARD
▁discre dit
▁conduct ,
▁assert ed
▁principl es.
▁Cent re
▁FUN CTION
▁doll ar
▁Ear th
p ages
▁re ve
ass ign
▁ref rain
▁COMPLET E,
▁Gu id
▁DEAL ING
▁al gorith
ry ption
▁conduct .
olog y
.co. uk
▁discuss ion
▁distributors ;
▁COD E
▁couri er
▁a ud
▁" mirror
▁V ent
▁DIS PLAY
▁inf lamm
▁tw elve
a ’s
▁a im
▁have ,
▁BE FORE
▁sp ace
▁thereof ),
▁publicity )
▁reimburse ment
ARK ET
▁DEL IVER
▁b od
▁will ful
▁publish ed,
▁retain ed
▁ACT S
▁Cent er
▁Cancell ation
i ance
▁M ot
▁(“ User
▁tit les
▁embedd ed
p oint
s /
▁Ad s
▁Blackboard ’s
▁feature d
▁A uto
ad d
▁penalt ies
▁TERMIN ATION
▁ant i-
▁interfac es,
▁ve hic
▁Sing ap
A ll
▁is ’
▁product .
▁ON ,
▁Re quest
▁opportun ities
po en
▁unfavor ably
▁acc rued
▁dis ast
▁Content ”
▁V end
▁nam ed
▁valid ity,
▁KNOW N
▁in come
▁information )
▁share ,
▁investig ation,
▁UP D
▁Red istribute
▁Fran cis
▁How ever
▁non-s ublic
▁vulner ability
▁M et
▁website :
▁PRO PRI
▁mon etary
▁exist ence
▁attribut able
▁leg itimate
▁non-pro prietary
▁Manag ement
2 1
▁un fore
▁public ,
▁DAMAGES ),
▁purposes ;
▁receiv es
▁CLAIM ,
▁attack ,
▁ALLEG ED
▁C BS
▁F IL
▁st ay
pli ance
▁caus es,
▁Dis c
▁OTHERWISE )
▁sublic ensable
▁col ors
mis lead
at al
▁exploit ,
▁administr ator
▁Rev ised
▁Artic le
▁an onym
se ll
▁THE Y
ATION S.
▁non- public
▁parties ’
▁Ch ild
▁exploit ation
.blogspot .com
▁Ph ot
▁TECHN ICAL
▁L ond
▁infring er
▁refer ral
▁limitation )
▁PROVID ES
▁correct ness,
▁Res pon
perform ance
N C
▁EXPRESS ED
▁defect ive
8 8
▁court .
▁guarant eed
▁defect ,
▁Tra ck
▁ann ounce
▁Promot e
▁p ending
▁s ol
▁g amb
AL TH
▁In vest
▁claim s.
▁Re al
▁NE W
▁file ,
ru g
▁change .
▁host ing,
row d
▁time-to-t ime.
▁"mirror "
ial og
▁access .
▁oper ates
▁CORRECT NESS,
▁Refer ence
▁def ence
▁process or
▁JUDG MENT
a res
▁t arget
▁C ash
▁Content ”).
▁non- mislead
▁dev ices,
▁enc ryption
co .
▁section ,
▁NE ED
▁HYPERLINK ED
U n
s im
▁T rial
▁ex it
▁prohib iting
▁withdraw al
▁E st
▁comm enced
p ec
▁M ar
▁which ever
▁act s,
▁thereof ;
▁features .
▁rele ases
▁Group ,
▁CH AR
▁Trad e
▁Ang el
I ET
T ech
h eld
it le
▁deriv ed
▁uns ubscribe
▁Order .
▁death ,
▁Advert ising
▁ENJ OY
▁p ut
▁h at
▁THE FT
▁secur ities
▁Not e
▁develop ed,
▁opt ions
TM L
▁mere ly
▁f riend
▁(“ P
▁ERROR S.
▁CA UTION
te ch
es .com
▁S EE
▁C ap
▁W est
▁pre mium
▁sign ific
▁fact s
char ge,
▁adopt ed
▁PROPRI ETARY
▁cont am
clud ed
▁regul ation.
▁address :
▁relationship s,
▁fac ility
▁endeav ours
▁decl ine
U C
y .com
’ )
▁t i
ol ly
▁B ack
▁An al
▁www. m
es h
▁un ac
▁person nel
▁occ urred
▁intent ion
▁GOOD S,
▁unintent ionally
▁discredit s
I ENT
s ite
it ion,
▁h olid
▁ex act
▁“ Your
▁r ating
ific ations
▁public .
▁owner ’s
▁PARTIES .
▁non-refund able
e u
▁D ATE
our ce
ify ing
AN GE
▁log g
▁2 5
▁hyperlink .
▁redistribut ion,
▁install ation
eng th
▁Francis co
▁hat red
r int
▁t empl
▁for ge
▁secure d
▁parent al
▁provid ers.
▁users ;
▁THROUGH ,
▁detail s,
▁misappropri ation
▁licens ing
▁send s
▁Re present
▁circumst ances.
▁common ly-known
▁HARD WARE
i .
▁th ough
at ,
▁re form
ro id
▁S IX
ay er
▁N ECESS
▁organiz ation.
▁charge .
▁9 0
▁ACT IONS
▁FAILURE ,
▁riot ,
u il
▁p ow
▁d ates
▁prim ary
▁reach ed
▁Fin ancial
▁MOB ILE
2 7
k it
ach ing
▁understand s
▁ins ide
OLV ED
▁an sw
▁M ESS
▁(“ A
▁compli ed
▁Una uthorized
i ries
▁E d
▁bre ak
COM M
▁key stro
o of
p ost
® ,
▁L ib
▁Customer 's
▁solicit ations
▁wrong ful
▁adverse ly
▁mach ine
▁MONITOR ING
d omain
▁T W
aw are
▁thereof ).
▁Ad v
▁$1 0
▁Smart B
▁ADVERTIS ING,
▁claus es
H IP
▁c )
▁D ownload
▁" I
▁reli eve
▁card s
▁necessary .
▁alter ed
▁threaten ,
▁ext ra
▁submissions .
▁useful ness,
▁non-refund able.
▁purport ed
H OLD
L OW
m aster
y le
▁f low
▁l ength
▁pro duce
▁( AND
▁B ANNER
▁material )
ub missions
▁specific ations
▁SITES .
▁512 (c
- R
A V
▁c ure
▁S af
▁W OULD
▁B IN
▁delay s,
▁hate ful
END ED
▁Upload ,
▁terror ist
▁layout ,
▁keystro ke
G ES
▁S ENT
▁st ipul
▁H ER
▁photograph s
▁ic ons
▁EN VIR
▁ENVIR ON
ot ter
▁con vey
▁right ful
▁COM PL
▁restrict ed.
▁list s
▁ENT ITY
▁prohibit ed,
▁Americ a.
▁“Terms ”),
▁HOW EVER
▁respon ses
▁prior ity
▁laws uit
▁lib ell
. L
▁C ivil
▁se ven
lo ok
▁qu ick
▁them e
ell o
▁platform s
▁EXP ENS
▁depic ts
▁gath ered
ur u
ut ion,
and id
▁K ong
▁cancell ation,
▁is" .
▁THEREOF .
▁republic ation
3 0
▁H TML
▁support ,
▁Prov ince
▁RELI EF
▁CRE DIT
▁charact er
I FF
▁F UND
▁F ashion
▁en cl
▁viol ence,
▁price .
▁intent ions
▁MEMB ERS
▁Mon th
C ard
ag ing,
▁E asy
ib ab
▁access es
▁oper ations
▁circumst ance
▁(e ven
▁dif fic
▁SA F
▁convent ions.
▁dissatisf ied
tm l
. ”
st ore
▁dist rict
▁contract s,
▁below ).
▁opt -out
▁arrangement ,
▁Disclaim er
c rib
d ay
u ch
▁m iss
▁W OR
▁( re
▁D ue
▁D EC
▁E P
▁loc ations.
▁effect s
▁mark ed
▁credit ed
▁uninterrupt ed.
nivers al
▁c ycle
▁Applic ation,
▁final ly
▁C rypt
▁B RO
▁forum s
grad e
▁estopp el,
▁Tex as
B D
ri ver
▁W ill
eb ack
▁U s,
▁co -
▁Client s
ativ es
▁agenc y,
' ),
▁t ribun
▁(C OLLECTIVE
▁expl os
▁negative ly
3 ,
▁fe e.
▁" we
▁allow ing
▁directly .
▁cancell ation.
▁Ltd ,
▁document ation,
▁redistribut e,
▁call ing
8 0
T ra
c y
u ed
▁b i
▁our selves
et y,
▁H ay
UL TS
▁way s
contract ual
▁afore mentioned
▁ad her
▁te ll
▁rec on
▁cho os
▁parent s
▁carri ed
▁forb idden
- M
E LL
▁correct ed;
▁Guid elin
▁Act ion
▁App ,
▁prohibit s
▁VIOL ATION
M I
▁H IS
▁H ead
▁FOLLOW ING
ilit ary
D PR
▁THE M
▁M o
▁E arn
▁Part s
▁Cour ts
Cl aim
-t ime
p yramid
▁breach ing
▁HARM LESS
▁Found ation
x y
ed om
le b
ri v
▁L a
▁Material s.
▁jo in
▁HEREUND ER
2 01
▁s ought
an ct
an ced
▁sub poen
▁grant ,
▁transfer ring
▁herein after
▁program ,
▁functional ity,
▁substant ive
▁anal y
▁advis ers)
L ab
g y
▁n ud
▁rec o
▁disclosure ,
▁develop ed.
▁satisf ied
A CE
D F
en ess,
ran ch
▁all ;
ven ient
▁“P ro
▁FA ULTS
▁Road ,
r ateg
re ens
▁b ot
▁S AL
▁S ex
▁all ,
▁list ing
▁FURTHER ,
- D
V is
or th
et ter
▁it ;
▁EX CH
▁license es
▁design ees
▁membership ,
▁Co in
▁etc. )
▁guarante es,
▁preserv e
u ps
▁R og
▁modify ing
▁free -of-
▁OFFENS IVE
Gu ide
▁B OUND
AT IVE
▁M al
▁it )
▁H u
ist ,
nd ic
▁inst ance
▁DATA ;
▁meas ure
▁pack aging
▁thereto .
▁MED IUM
▁show ing
▁Elect ronic
▁survey s,
▁f ive
▁d ba
▁(" P
▁reflect ed
i or
o in
▁P E
ER AL
▁ar t
▁BE H
▁mail .
▁authoriz ation;
▁arbitrator ’s
▁award s,
▁Prof ile
▁Exper t
▁C le
▁res ale
▁D av
▁L ove
▁se qu
▁ins ist
▁clar ity,
▁situ ation
▁happ en
▁Det ail
▁with :
▁D ef
▁V ideo
▁infring ed,
▁mon ies
▁consequ ence
▁system atic
▁AFFILI ATED
▁invo iced
e th
if est
▁M ANNER
▁char ge,
S. COM
▁sav ings
▁SEE K
N IA
▁F RA
ard s
▁non- assign
▁inhib its
▁slog ans
▁p olitical
▁RES TR
▁hold ers
▁pric es,
▁report s
▁constitut es,
▁Admin istration
▁prob e,
F ree
is c
▁W ORK
ure au
▁read ers
▁invo ices
ov ies
▁Canad a,
▁continuous ly
▁" M
▁WE LL
▁CONTR ARY
urrenc y
▁co-b rand
▁NBCU niversal
3 )
▁F il
▁post s,
pect ed
▁FROM :
▁posting .
▁market ing,
▁datab ases,
▁retri eval
▁BAR G
▁deleg ate
▁any )
▁S ATISF
▁D eal
▁indic ated,
▁unrestrict ed
C ,
▁c ent
▁( 7)
▁" our
▁hyper text
▁initi ated
▁theft ,
▁Rel ated
▁riot s,
M edia
all en
IC K
▁copyright .
▁reason s.
▁CONT IN
▁spec ified,
▁www. b
▁Comm on
▁occurren ce
▁SHARE HOLD
ic ian
▁W M
▁B rit
▁g am
▁warrant ,
▁serv ed
▁nature .
▁solicit ation,
▁PROGRA M
▁ENVIRON MENT,
. "
▁b ig
▁d ot.com
▁S ee
ra wn
▁im pression
▁Vir gin
▁intro duce
PA IR
▁COP Y
- on
m edia
▁S oci
▁Con tain
ak e,
▁account s.
▁third-party ’s
▁acknowledg ment
e .com
er se
ther n
▁B re
▁B RING
▁M ain
▁M usic
▁Con firm
▁“ R
▁ent ertainment
▁Term in
▁activities .
▁QU IET
WE L
▁track ing
g er
▁will ,
os s
▁disrupt ive
eng ine
▁199 8
▁hear ing
▁Stud y
▁Singap ore
r at
▁l ower
▁D ig
▁L ocal
▁M a
ist ry
▁PRO MIS
▁collect ed,
▁DO CU
▁subscription .
▁potential ly
▁SA V
▁artwork ,
▁(i.e. ,
H ub
T IC
▁m ot
om in
▁content ”
▁account )
▁ear li
▁encl ose
▁free-of- charge,
4 ,
n :
▁IN FRINGEMENT
▁US ED
▁world -w
▁tort s
▁non-mislead ing.
▁s anct
▁I reland
▁de ad
▁In form
▁const ruct
▁CONTENT ;
▁Ch eck
▁bet ter
b ar
▁IN FRING
▁damag ing
ifi ed.
▁list s,
▁statement ,
▁Network ,
▁enab les
IFIC ATION
▁CAL I
▁BARG AIN
▁f all
ro bot
▁content s.
ge D
ip p
▁“ c
▁good s.
▁permitted .
▁posting s,
▁subsequent ly
▁spid ers,
▁“A greement
.blogspot.co.id /
j ob
▁Service ”,
▁pl us
”) ;
▁ rand
▁e lement
e, ”
▁grant ing,
▁collect s
▁Ex t
▁associ ate
▁(v iii)
▁Al ibab
▁spons or
▁India ,
▁POLIC Y
I I
▁sh e
▁CONTENT S
▁Cre ative
▁bug s,
ur isdic
▁Us .
▁J ust
▁card .
▁unenforce ability
▁PURP OS
▁blog s,
▁lab els
▁estopp el
▁any where
▁f our
ad r
▁Pro hibited
▁vis ible
▁DE ATH
▁dispute .
▁develop ment
a ith
l u
n a
▁S ave
AT ES
▁non- contractual
▁priv ately
▁misrepresent ation,
▁recommend ations
▁T A
▁P an
▁F und
▁parties )
FOR NIA
▁submit s
MENT AL
iar ies
▁compet ition
▁blog ,
▁territor ies
▁CALI FORNIA
b reak
▁enter pr
▁APPLIC ATION
▁Eng age
▁Inst itute
MO TION
▁I ll
am ily
▁account (s)
▁EX IST
▁MA INT
▁sc an
▁RIGHTS .
▁Att n:
▁close ly
▁Admin istr
▁SmartB ear
▁BIN DING
▁rand om
m et
▁design ations
▁serv ers.
▁treat ies
. ca
▁J urisdic
▁Go og
▁misrepresent ations
▁fram e,
▁implement ing
▁calcul ated
▁remedi es,
▁THE N
▁M M
sib ility
▁dist urb
▁Ex ternal
UN CTION
▁impair ment
▁Gam ing
▁estim ated
▁( p
▁Com mission
▁gu est
▁Part y,
▁terminated ,
▁fact ors
▁sess ion
▁Ship ping
re p
▁p ir
▁g ames
▁E LECT
-d ay
" .
S M
al .
▁d id
▁available '
▁e- commerce
▁free ly
▁3 ,
▁Cont in
▁California .
▁screen ,
▁Spec ially
▁infrastructure ;
▁a ch
▁in her
▁D aily
▁ref us
▁sec ond
▁ERROR ,
▁indic ating
▁Polic ies
▁select ing
nc il
▁dut y,
▁facilit ating
▁reve al
o le
▁P ack
▁g ateway
▁N Y
oc ol
▁indic ates
▁Tax es
▁enhance ment
D R
▁co ll
▁subject ed
▁full .
▁network s,
▁COMPLET E
▁call s
Reg istration
▁U S,
▁D iv
▁request s,
▁(“ Third
▁concern ed
RUP TION
sim ile
▁NECESS ARY
▁(“ M
▁threaten ing
▁ins ur
▁database ,
▁Vis itors
▁PUBL ISH
▁SUIT ABILITY,
T E
on th
▁T itle
▁D r
▁dis ob
▁download able
▁equ ity,
▁check out
▁GO VER
▁FE AT
▁MED ICAL
app y
h idden
ant a
▁non- h
▁Z eal
▁stor ing
▁Program ,
▁compil ations,
▁intro ducing
▁LOC AL
▁TAK EN
atal og
R ON
V ideo
▁C rowd
▁de ce
and a
▁cert ific
▁REQUIREMENTS ;
▁malf unction
▁mand atory
n ov
it ,
IT ABLE
ul ty
▁int act
▁security -related
▁authoriz ation,
▁disclose ,
▁substant ial
▁Zeal and
C ER
▁( at
▁B ab
ub scription
▁comm ission
▁Sup plement
▁manufactur er
▁recipient s
. 7
▁d ialog
ad vert
▁Site 's
▁RE PAIR
▁des k
▁ro ot
▁custom ers.
▁HE ALTH
B ook
em and
▁( G
for t
AS H
▁also ,
▁regulations ;
▁false hood
▁IM PRO
anc y
MO V
l a
in ,
▁this .
▁un d
ag n
qu id
▁responsib ilities
▁cre ates
▁negligence ;
▁terminated .
▁sub-lic ensable
▁Inter fere
▁Goog le,
- 7
▁s ometimes
▁( R
ING .
▁business .
▁necess ary,
over ,
▁INTER ACT
▁Columb ia
▁us ually
▁N ether
▁E ffective
▁de grad
▁war ning
▁St ar
▁order s,
▁determ ining
▁sell ing
▁month ,
struct ion
▁Em ploy
▁sy ndic
▁(each ,
▁WordP ress
pec ially
- us
. .
4 0
x i
s. org
▁G erm
▁RES OUR
go ing
▁ADV ICE,
▁redistribut ed
▁subscrib ers
▁Rec ipient
▁opportun ity,
▁ACTUAL LY
▁Nether land
n ame
▁terms ;
▁RE VI
PL O
▁V AL
▁display ing,
▁Platform s
▁(th rough
▁behavi or
▁pornograph y,
▁unknown ,
▁diffic ult
6 5
re nt
it iz
▁c le
▁T V
IT CH
et ition
▁E AR
▁per cent
▁acknowled gement
▁third-party 's
▁cod es,
▁RISK ,
▁SUBS CRIPTION
▁Cor p
▁LIK E,
▁waiv es
-up ,
▁compat ibility
▁Lab s
oh n
d ,
▁D on
act ual
▁" D
▁infring ers
▁saf ety,
▁Bad ge
▁con vers
▁used .
▁arbitr ated
▁DISCLAIM ERS,
▁statut ory,
▁play er
/ m
1 8
C S
f ax
▁us age,
od ay
▁damages ;
▁invol ves
▁Del aware
pay ment
aut y
▁B iz
▁M ass
ount ain
▁app eal
▁effect ,
ap plic
▁INT ENDED
▁destro y,
▁Regul ation
▁plugin s
▁specification s,
▁st ores
▁J ud
▁delay ,
▁barred .
▁Deve lop
i os
it ial
ed own
▁not ed,
▁act ed
▁off ense
▁contact ed
▁ver ified
▁dil ig
i leg
ER IC
if ically,
▁WH ILE
▁performance .
▁explain s
w ide
re me
▁must ,
▁communic ation,
▁check s
▁CONTRACT ORS,
▁(h tt
▁EQU ITABLE
▁imit ated
▁CORRECTED ;
▁disob ey
S ite
e ap
▁ £
▁res iding
▁H old
▁“ E
▁if :
▁mod el
▁damages ),
▁(“ Content
▁ENT ER
▁THEREOF ,
▁SHAREHOLD ERS,
z y
in st
▁( F
ir t
▁are a,
urre ct
▁defect s,
▁collective ly,
▁scra per
▁PLATFORM ,
▁Book ing
▁“Content ”
er ce,
▁m en
▁m ind
▁C opy
▁R ent
og a
▁TIM ES
▁Ag ency
sh op
▁"S ite
isp ute
▁Jurisdic tion
▁T ime
um ul
▁wr ite
▁behalf ,
con s
▁convenience .
▁intent ional
▁DELETION ,
ic s,
ic tion
▁B ar
▁M ind
▁account ;
▁harmful .
▁Sup ply
▁treat ment
m issible
▁Content ”)
lo per
▁process es,
▁sc reens
▁MERCH AND
▁COMPAN IES
▁ins urrect
▁plac es
▁Ass ign
▁brows ers
▁institut ed
W orld
f ers
▁T WEL
▁E M
ard less
▁em erg
▁users ’
▁transact ions,
▁INDIRECT LY
Sh op
U S,
o on
▁e ase
▁on -line
▁B oth
▁B oard
TAN CE
▁attack .
▁CAP AC
▁TWEL VE
. g
▁b ox
▁v ouch
▁det ri
▁ins ol
▁record s,
▁fac simile
▁MIS USE
▁unconditional ly
▁quer ies
▁ad here
IL Y
▁disc ard
▁loc ation,
▁dec ided
▁CLAIM .
▁Rec ord
▁SUBSIDIAR IES
▁recogn ize
▁National s
▁Fore ign
▁Fair fax
e em
▁P ract
pri et
▁add ,
▁der ive
▁exerc ising
▁sweepst akes,
▁logg er,
ing ”
▁n et
▁F itness
▁Website ’s
▁G ift
▁fe e,
▁inj uri
▁TIME .
▁exper t
▁entities .
▁news group
▁limit ;
duct ion
▁R ad
▁Us age
▁ob serv
▁BE Y
▁se es
▁stat utes
▁jud ge
▁Dev ice
▁ran k
N G
P M
a )
▁( any
▁B ut
▁M IGHT
▁employ ment,
▁appro v
eng age
▁SET T
▁Chan nel
▁transport ation
▁world-w ide,
▁T ask
▁M edical
imit ed
IC ES
ifi able
▁confidential ity,
▁ACCESS IBLE
▁threat s
▁particip ant
▁export ,
▁opinions .
▁mist ake
▁benefic iaries
▁contam in
v id
on ic
re h
▁us ing,
IL AR
▁R ob
▁copyright ed,
▁St udio
▁arbitr ators
▁describ es
.COM ,
▁Cons um
az ine
▁Associ ation,
▁guardian .
▁consolid ated
ndemn ified
▁Equ ip
▁SIM ILAR
▁ad missible
▁CON CER
▁comm iss
▁non- d
▁form al
▁vir tual
▁2 ,
▁tort ious
▁notification .
▁decl ared
▁Ill ino
. id
N A
▁B row
▁alleg ing
▁alleg ation
▁issu ing
▁submission s,
▁leg end
▁Rem ove
▁Day break
C are
O O
▁s olution
ve ll
TH E
▁rest s
▁Order ,
▁interruption )
▁AM ERIC
▁relief ,
▁high er
▁es pecially
. V
▁app s
▁CA SE
▁Americ a,
▁Trans mit
▁Post ing
▁Qu est
▁object ions
/d ebit
discl osure
▁with held
em ption
▁WE ,
▁infringement .
▁fin es,
▁government al,
▁6 ,
▁medium ,
▁prosec ut
- engine
m ar
▁ #
er ing
▁T rovit
▁S n
▁C ause
ER Y
▁F ire
ub ai
▁" Website
▁unlawful ly
▁mess ages.
▁IT ,
▁Tre nd
▁eas ier
▁viol ent,
▁correct ion
▁exclud ed.
▁Bl ock
▁brow se
▁imperson ates
▁webp age
▁Bit ly
▁REVENU ES,
▁categ ories
R Y
▁m ilitary
▁H and
ru it
▁defend ing
▁Del iver
▁get ting
▁enfor c
▁Los s
▁authors hip
▁extens ion
▁earli er
▁in activ
▁F IR
▁out put
▁J O
▁incorpor ating
▁compens ate
ACT ORY
▁Plan et
▁Spec ifically,
▁opportun ities,
edic ated
▁signific ant
- link
S ign
n xx
▁M ake
os h
▁sub mitt
ile ge
▁review ing
▁process ing,
▁interpret ation,
▁invoice .
▁detri ment
w ealth
▁D ec
▁r ather
▁caus ing
▁proceed ing,
▁Tre as
▁(n or
▁SUFF ER
▁p ers
▁you :
▁E FF
▁(“ DMCA
▁5 ,
▁reverse -engine
▁appropriat eness
▁co- oper
▁big ot
( b
5 00
▁ ur
it z
es k
▁S end
ow nt
▁chan ging
▁sp ider
▁Sub scriptions
▁associ ates
▁list ings
▁revok ed
l imin
in s
▁of ten
▁A UTHOR
▁( H
▁ex hib
▁B io
▁g ift
IS ION
ven ue
▁Act .
▁STAT ES,
▁OMISSION ,
▁($ 100
▁ne ut
▁T ext
ar a
▁P O
enc es,
▁irre par
▁modific ations.
▁ban ner
▁Hu geD
▁HugeD omain
. 6
d own
▁C D
▁Sub mitted
▁des pite
▁responsibility .
▁receiv ed,
▁spons ors,
▁Cook ie
▁Tw it
▁start ing
▁512(c )(
▁libell ous,
r is
is on,
▁F ile
▁li quid
▁H ong
▁et c
▁component s;
▁commence ment
▁teleph one,
r us
▁C ampaign
▁B ang
▁E ast
▁st and
▁pre limin
▁technolog ical
▁statut es,
▁sever al
otter y
▁c ens
▁( actual
ron t
▁2 8
▁matter ,
▁item s,
") ;
▁(wh ere
▁transmitt ing,
▁discontinu ing
▁resident s
▁navig ational
▁pros pective
S L
▁sub mission,
▁record ed
▁paragraph s
▁TAK E
▁Over Blog
k ey
l ist
l ing,
▁c ity,
▁this ,
▁In fo
▁def ense,
▁" L
FOR CE
▁them es
▁inst ead
▁Sites ;
▁goods ;
▁priv ileg
▁sour ces,
▁tort u
▁Sp ace
▁fram ed
▁CORRE CTION
▁Tra ffic
▁Vis a
▁201 8
▁recogn ized
▁charg ed.
in a
▁D R
IN ATION
rad emark
▁sp ok
▁indicated .
▁REPRESENTATIV ES,
▁re-export ed
▁pow er,
▁root kit
- T
▁S D
▁P ASS
▁L AB
vail able
ip h
▁St art
▁upd ates,
▁gen erate
▁PER MAN
enc y,
▁record ings,
▁success or
▁Promot ion
▁Spec ial
▁MAN AG
▁Numb er
s y
▁un eth
▁com es
▁N I
ENT LY
▁caus ed,
▁event s,
▁vir t
▁rec ent
▁owner 's
▁Limit ed.
▁port ray
▁pack ages
▁exec ute
▁dissemin ation
▁Arbitr ator
▁BEY OND
u es
▁S ty
▁I R
▁cont ra
▁H ot
▁over load
▁sell ing,
▁telecommunic ation
▁confer ring
▁Log in
▁Ren ewal
▁PROBLE MS
▁ach i
T IONS
w id
▁H yper
▁" junk
▁users '
▁AVAILABLE ,
▁occur .
▁' comments
▁Trad ing
▁home p
▁Qu ick
▁countri es,
▁bug s
▁ +
▁W e,
▁g lobal
ens ive
▁requ iring
▁Licens or
▁More over,
▁'comments '),
j a
▁V IP
▁Submission .
▁award ed
▁vend or
▁Sim ply
▁(COLLECTIVE LY,
▁EFF ECT
O .
i ant
p ric
ab or
et t
▁“ in
▁Ex pl
▁Term .
▁MATERIAL .
▁www. s
▁OPER ATE
▁Wik ia
▁negoti ations
▁Add ress
▁draw ings,
▁scrap ing,
▁Rog ers
6 6
IT ED
ir l
ia ison,
▁obsc ure
▁place ment
▁inform al
▁X nxx
▁fund am
▁penalt ies,
-pro t
I f
y cl
▁d rug
ro om
im edia
▁dis ability,
ib le,
▁bro k
▁continu es
▁compan ies.
▁future .
▁15 4
▁“Content ”)
Comm unic
▁Transact ions
▁crit eria
u el
▁O CC
▁G mb
ious ly
▁list ings,
▁Not ification
▁arran ge
▁older .
▁Child ren
▁Gmb H
P UT
Q u
▁C red
▁THAT ,
▁process ;
▁period ic
▁treat ies.
▁TOU ,
▁decept ive,
▁Warrant y
▁O VER
fer red
▁“ Third
▁BE LOW
▁PART IES,
▁www. t
▁Ch amb
▁(" Terms
▁wish es
▁Good s,
▁PROGRA MS
▁channel s
▁Common wealth
▁PURPOS ES
n ect
▁ x
▁f ar
▁T or
ot s
▁other ,
▁app ly,
vern ight
▁fail ing
▁WEBSITE ;
▁Information ”
▁customer ,
▁authoriz ation.
land ,
▁deb t
▁IS, ”
▁DEV ICE
▁W rit
▁PROPERT IES
▁propos ed
▁interfer ing
▁jo ined
▁pornograph y
▁match es
- B
W H
▁C ANCE
▁P ol
▁P AR
as es.
▁dis k
▁PRO T
▁Act iv
-f ree
▁month .
▁TOU .
▁Job s
.com/privacy -policy
▁Academ y
▁t urn
it ra
▁re lying
▁A F
ER CIAL
ol en
▁B alance
▁custom s
▁Res earch
▁13 ,
▁profile ,
▁Wik id
ENC ED
▁GOVER N
E QU
f lo
z a
▁s ent,
▁S um
▁wh olly
▁ACC EP
▁US D
▁Not ice,
▁12 3
▁hand le
▁REF UND
▁categ or
▁superv ision
▁Brit ish
. h
▁in clusive
▁con vert
▁F resh
▁non- performance
▁credit /debit
▁memb er,
▁Te ach
▁feature ,
▁buy ing
▁"S ervices
▁WA IV
▁holder .
▁Indust ry
▁Francisco ,
b all
▁a ug
▁S .
▁“ w
▁inst ances,
▁libel ,
▁extract s
▁Gu arant
▁Cent ral
▁embargo ed
▁neut ral
. xxx
1 3
r ist
▁acknowled ge,
▁publish er
▁into ,
av ing
▁ask ing
▁unre lated
▁Seller ’s
▁accom mod
▁elimin ated
▁MESS AGES
MOTION AL
d y
▁c atalog
▁S m
▁e p
ce iv
▁B LO
▁M ult
AL F
erson al
ric s
▁public ;
▁mis use,
▁check ing
▁webp age,
▁fulf il
▁EUL A,
▁DISTRIBUT ED
▁prelimin ary
▁d )
iv otal
▁term .
iz es
▁loc ation;
▁them selves
▁network .
IP ATED
▁issu es,
▁occur ring
▁13 .
▁thir teen
▁inappropriate ;
▁hand led
▁begin ning
▁embarr ass,
advert ising
▁fundam ental
m s,
▁B ROUGH
▁post ed.
▁account able
▁cost s.
▁view ing,
▁cancel bot
▁uns atisf
▁Provider .
▁corpor ation,
▁Are as
▁Conn ect
▁inflamm atory,
▁BROUGH T
B ox
▁ ES
▁T est
▁n ear
▁L iaison,
ac ing
▁product ion
▁fit ,
▁behalf ;
▁Im m
▁TERM S.
.1 ,
▁CONS UM
▁Department 's
▁counter-not ice
▁$10 ,000
/ own
▁P oint
▁( M
▁Data ”
▁arbitrator .
▁seek s
▁Parties ”)
▁PRE VI
▁ADDIT ION,
▁happ y
▁therefrom .
▁ENJOY MENT,
▁tribun al
m ob
▁su ms
▁F AC
▁M ay
iz e,
▁pass ive
▁purchas er
▁origin ating
▁authoriz es
▁pract ices.
▁non-commercial ,
▁Canad a.
Cl oud
▁vehic le
- RE
9 .
O ur
a ur
▁w on
▁T ube
▁virus es.
▁TRA D
AD A,
▁harass ing
▁port al
▁ut ility
▁charg eback
▁PUBL IC
▁earthqu ake,
▁schedul ed
▁virt ue
▁ ;
on us
▁M ond
▁ch allen
▁int erv
▁pre par
▁J ohn
▁Ex am
▁visit s
▁Person s
arm ful
▁bank rupt
▁attribut ions,
▁corpor ation
▁"Content "),
▁OBLIG ATIONS
f ar
l aw
in er
▁T ap
▁P ix
▁AN TIC
ist ics
▁viol ate,
ia .com
▁back ups
▁ERROR-FREE ;
▁Own ership
▁lab el
▁MEMB ERS,
▁undertak en
▁compr ising
Go ogle
* *
/ b
n ’t
ers ’
▁L ead
▁M ARKET
IN ED
▁“ Us
▁sp oof
ID ENTIAL
▁St ream
▁visit ors,
▁method ,
▁COR RUPTION
▁usern ames
▁absolute ly
▁intend s
▁CONCER NING
▁co ordin
ram es
ight s
▁Products ;
▁support .
▁initi ating
▁Gu ide
▁Autom at
▁s elf
▁l ose
▁EX EC
▁" chain
ities ;
▁responsibility ,
▁As se
▁free .
▁REG UL
▁Rul es,
▁Secur ities
▁up-to-date .
▁Doll ars
▁PREVI OUS
' )
▁ 's
er e,
▁an xi
▁c ess
or der
ar ,
se arch
▁your s
▁above ;
▁controll ed,
▁advertisement s.
▁la unch
▁BEH ALF
▁ANTIC IPATED
er ”
▁f oot
▁T our
▁P at
▁we ’
▁MATERIAL ,
▁mislead s
▁ment al
▁mainten ance,
▁analys is
▁ACTIV ITIES
c le
▁t angible
▁use ;
▁N Z
▁email ed,
▁parties '
ast ic
▁hold s
▁author ities,
▁install ed
▁dep artment
▁Offer ings
▁annoy ance,
- 5
e el
▁T rip
▁" E
▁gu ide
▁required .
▁disclos es
▁(1 0)
▁sex ,
▁dep art
V PN
▁M Y
ATION .
▁INFORM ED
▁WARRANTIES .
iver se
▁customer .
▁TE LE
▁INV OLVED
▁Author ity
▁REVI EW
h am
▁N ut
IC IT
are house
▁post age
▁applic ation.
▁V ol
▁solicit s
▁contribut ions
▁facil ities,
▁exper i
▁affiliate /
sup port
▁Contin ued
a a
x )
▁communic ation.
▁Re port
▁tra ining
▁ASS IGN
▁sublic ens
urch ase
▁i .e.
▁exec ution
▁DESTRUCT ION
▁disco very
▁SAV INGS,
▁desk top
W ARD
o ’s
s olicited
v an
▁P eople
▁otherwise ;
▁" T
▁refund able
.00 )
▁ru le,
▁GRAPHIC S,
▁irrepar able
0 .
L ist
S IM
▁p op
▁g raph
am er
▁we lcome
▁" c
▁rev is
▁1 -8
ia .
▁SO L
▁transact ion,
▁interest ;
▁pract ic
▁qual ified
▁NE V
▁manag ed
▁Del h
▁princ ipal
eat ures
▁TRANSMISSION ,
▁don 't
▁affirm ,
▁uneth ical
B T
i us
▁S W
▁do ,
▁ch equ
ing, ”
ese ll
▁offensive .
▁accom pan
▁foresee able,
utor ial
point s
▁dead line
3 .
S ided
l er
er ation
▁F ull
▁responsible ,
▁chan g
▁particular ly
▁“we ”
▁adequ acy,
__ __
▁Fan Sided
▁NEV ADA,
/ C
6 8
O r
W W
d e
i j
es person
▁A A
id s
ol f
ir th
▁F L
▁NO THING
▁“ G
▁J ot
▁(i x)
▁CL IENT
▁messages ;
▁Im age
▁harvest ing,
▁Organ iz
▁EQUIP MENT,
▁MAL F
crib ed
▁T el
ce an
IN S
▁“ junk
▁warranty .
▁print ing
▁Applic ation.
▁COMM ERCIAL
▁SE LL
▁Pr int
ourn al
▁shareholders /own
▁recon struction
T ool
▁P age
ers .com
▁ass ent
ence .
OD ,
▁agenc ies,
▁APP EAR
▁integr ity,
▁Ph il
▁invent ions,
H E
▁f ood
▁S pons
▁A V
▁C OUNT
▁dis burse
▁R ew
▁G rant
old ,
▁Conditions ;
▁Re p
▁Ar ab
▁misrepresent ation;
▁derog ation
▁forfe iture
▁contamin ating
▁affiliate/ advertising
▁shareholders/own ers;
▁t able
▁C IV
▁M il
▁R O
el iver
ist ory
▁“ You
▁go ing
▁infringement s
▁inaccur acy
▁Sol ution
▁(E )
▁Conn ection
▁Detail s
O ut
P ,
ing );
▁d ownt
▁B ACK
▁tim es,
▁subject s
▁over due
▁Comm erce,
▁priv ilege
▁CH ANGE
▁Disp ut
▁revisions .
▁Master Card
▁Document ation
▁o vernight
in qu
▁pro duc
▁C engage
▁W IK
.org .
▁Cour se
▁convent ional
▁IMPRO VE
▁anxi ety
A INT
il es,
▁P C
ch ool
▁F ollow
res pective
▁In fring
EN SION
▁there on,
▁pre -paid
▁ident ity,
▁text .
▁PARTY .
▁compliance ,
▁Inst ant
▁Wik i
▁Wa it
▁EXPECT ATIONS
▁moment .
▁FAC IL
b e
b rand
▁S qu
▁W in
▁“ chain
▁SU P
▁J erse
▁download s
▁when ever
▁manner ;
▁disclosure .
▁sublicense able
▁enab ling
▁setting s.
▁Soci ety
B y
I ENCE
N .
R ev
r ated
id get
ol es
▁F amily
▁wh y
▁set up
”) :
▁activities ;
▁Contract ,
▁cap ital
▁operator s.
▁(“F eedback
yb er
▁co-oper ate
O OL
R IGHT
S k
▁ )
▁B ul
▁act ,
▁reserv ation
▁" F
▁consent ing
▁ALL OC
▁author ise
▁Ind ividual
▁tax ,
Th em
▁Discl os
▁cou pon
l in
▁P ear
▁B uzz
▁cl ass,
▁otherwise ),
▁K n
▁online .
▁gamb ling
A m
C ent
o ph
p ose
▁S L
▁P ac
ED ERAL
um p
▁license .
▁effect ed
▁min or,
▁EXCLUSION S,
▁rent al
▁perpet u
▁10 ,
person al
▁PAY MENT
▁Washington ,
▁remov ed,
X ,
g n
i ke
for d
▁V iew
▁apply ing
▁Sites ”).
▁fil ter,
▁Ch at
▁(" M
s.com /
▁deliver ies
▁STATUT E,
▁Bit coin
▁"A greement
▁ticket s
▁six ty
▁Lear n
I FT
r ill
it ution
se t,
▁P ivotal
▁Site )
▁access ;
▁In itial
▁H older
ach us
▁stat es,
▁membership .
▁platform ,
▁INTER ACTION
▁Proced ure
▁DISSATISF ACTION
▁FEAT URES
5 ,
ο n
▁D amag
▁D istribut
▁website );
▁pur su
▁G lob
ATION AL
ist ic
▁distribut ors,
▁www. h
▁need less
▁phys ician
▁Sc ience
▁Out do
▁non-proprietary .
▁EXEC UT
▁Jot For
▁CIV IL
- 4
A MENTAL
▁S us
art .com
▁un due
▁N ev
▁applic ations.
▁EX PL
▁St e
▁ph one,
▁www. f
▁Ar ch
▁inform ing
▁webp age.
▁Purchas er
▁holid ay
▁FUND AMENTAL
▁Mass achus
▁spok esperson
D ES
i et
▁not .
▁( m
▁L ONG
ul es
IC S
▁Content )
ist a
▁r ising
ee ch
▁understand ings,
▁(b y
▁electron ically,
▁EVENT ,
▁method .
▁du e,
▁Trans fer
▁Market place
▁currenc y,
▁OPIN ION,
▁machine -
▁A WARE
▁( '
gre ss
ain t
co ver
▁pack et
▁DEFECT ,
▁Standard s
▁Upd ated
▁ATTORNE YS
▁Vend or
▁Hay market
▁IMPROVE MENTS
▁C ollective
▁( T
IS TED
▁K now
▁form ation
▁(“ T
▁obligations .
▁tool s.
ie ce
▁sources ;
▁undertak ing
▁incons ist
▁REC ORD
▁EXCH ANG
▁SATISF ACTORY
▁Alibab a.com
9 ,
B M
▁P op
ab les
▁J ew
▁customer ’s
▁disab led,
▁webp ages,
▁prefer ences
▁“you ”
▁target ed
▁m ag
▁U PLO
▁st ud
▁1 ,
▁(“ C
▁plan ,
▁DEFECT S,
▁CIRCUMSTAN CES,
▁C AR
▁C ARD
im ize
▁man ually
err y
con tent
▁financial ,
▁Col or
▁Warrant ies
▁Mal ays
- is
D A
P LE
“ )
▁B uild
▁N atural
AL T
li ent
▁loc ation.
▁qual ify
▁suit ability,
▁equipment .
▁restriction s,
▁PARENT S,
▁bann ed
▁tortu ous,
sy ch
wid th
▁dis charge
▁li ght
ink l
▁discre p
▁exp osure
go v
▁redistribut ing
▁FIR ST
7 2
ur t
▁pro priet
▁W atch
▁RE T
▁EX C
▁Be auty
▁NONINFRINGEMENT .
▁CONTIN U
S C
m ary
’ ),
▁ —
▁( ‘
▁N e
▁We ll
▁“ Confidential
▁V ARY
▁Term ,
▁compens ates
▁datab ases
▁therewith .
▁attach ed
▁disco vered
▁quick ly
▁L ight
ag ram
and width
▁result ,
▁char ities;
▁pass ed
▁Ex chan
▁PER FORM
▁forego ing.
▁Sh are
atab ase
▁compil ed
▁Provid er,
p ic
or a
▁C ert
▁E MOTIONAL
▁R esell
▁H D
▁H e
▁rem ember
▁personal ized
▁email ed
▁am en
▁LIMITATION S.
▁mak e,
▁PRODUCT ,
▁alter ations
▁DIRECT ORS
▁medi ation
▁thereafter .
▁retrans mit
▁Nev ad
▁b ad
▁S ound
▁C OLLECTIVE
▁M ast
▁property ;
▁display s,
▁SP ONS
▁brows er.
▁exceed s
▁lit er
▁War ner
▁TW ITCH
▁EXPENS ES
▁non-assign able,
▁t ri
▁C AS
ay ment
un e
▁U t
▁v o
▁en roll
AN Y
▁employ ed
▁J ack
▁days ’
▁mess age,
▁PARTY ;
▁Prov ide
▁issu er
▁TE XT
▁firm s;
▁USEFUL NESS
▁Month ly
▁reco very
▁Asse ts
f ol
▁f ill
ard en
enc ing
▁method s,
▁util ized
▁langu age,
▁Administr ator
▁non-h armful
▁achi eve
▁non-harmful .
I AN
d n
u es,
▁you '
▁C in
▁L and
▁sh ut
▁M edi
ag s
▁de ep
▁In nov
▁attorney s,
enc es.
▁emb od
▁advance .
▁Wal let
▁replac ing
▁malf unct
▁SUCCESS ORS,
P .
S A
p al
▁S ince
▁( 9
▁TO :
ru ck
▁liability ;
▁St ri
▁Section ,
▁method s;
▁Feedback ,
▁Cod e,
▁anonym ous
▁unac ceptable
▁MERCHAND ISE
▁aug ment
6 1
▁c art
▁con ce
▁is :
▁V e
▁regard ed
▁agent s)
und red
▁mon it
▁accurate ;
▁registration .
▁enc ount
▁cancell ations
▁lik e,
▁(x )
▁enab led
▁derog atory,
▁BAR RED
▁moder n
▁pir ated
7 5
v a
on ial
▁p iece
▁S oft
▁C as
im b
▁( L
un z
▁F EDERAL
ib er
▁G DPR
▁“ sp
▁em ot
.com )
ind ow
▁rest ore
▁count y
▁arbitrator 's
▁Mark s.
▁injunct ion
▁Trademark s,
▁interfer ence
▁ELECT RON
H D
l ock
ing "
▁C OULD
ut s
ra g
ra ining
▁All ow
▁mean ings
orn e
▁read ing
IG NS
▁return ing
▁fam ily
▁Fe es.
W h
l ad
▁ac ross
as i
▁D ubai
▁R H
pro v
▁reason s,
▁pre clude
▁warranties .
▁general ,
▁discrimin ation
▁replac ed
▁Earth Link
▁Treas ury
▁w itness
▁P aper
▁acc ru
▁Service (s)
▁G old
▁al arm
▁author isation
▁contents ;
▁solicit ation.
▁spam ming
▁visiting .
▁USA .
▁group s,
▁Subscrib ers
▁Florid a
▁enterpr ise
▁approv al,
reh ensive
in ent
ar .com
an s,
▁M ed
all ed
AN S
▁ir respective
▁disclosure s,
-s ite
▁run ning
▁FRA UD
▁emot ional
A p
S G
ive ly
▁E ven
SE L
▁sp eak
▁text s,
▁“AS -IS
▁advoc ate,
▁INDIRECT LY,
▁DESTRUCT IVE
▁Lear ning
▁rac ism,
▁Angel es
7 ,
T A
r ition
u le
▁L ess
▁M ad
ig ration
▁St or
▁V ict
▁discretion )
▁An n
▁upon ,
▁SO LD
▁fil ing,
▁origin ated.
▁Platform ;
▁subs ist
ren ch
▁coordin ation,
▁MALF UNCTION
▁EXC ESS
f ly
w orld
in ct
▁P OT
as ing
▁M ob
▁E mb
VE L
▁offer ed.
▁beli eved
abil ities
▁Res erv
▁quant ity
▁201 6
▁expense .
▁COMMUNIC ATION
vir us
g round
l ines
o ch
s ),
or row
▁C op
▁int ellig
▁RE LE
▁conditions :
▁Web pages
▁individual ly
▁fal s
▁support ed
▁propert ies.
▁Affili ates,
▁chat ,
▁manufactur er,
▁Cou ncil
▁stipul ated
▁Automat tic
H ealth
U F
e es,
▁Y elp
▁sub sect
UR ES,
▁exp ed
ax ton
▁condition .
▁ST AND
▁owner ;
ell ed
▁App .
▁fully -paid
▁ins ert
▁DAMAGE .
▁Subscription .
▁Ent ity
▁reput ation,
▁PRIV ATE
▁Process ing
▁CONST IT
▁inqu iries
▁Tele phone
▁INTERACT IVE
▁monit ored
l ab
▁e fficient
▁P arent
▁breach .
▁mis pric
▁memb ers.
▁IND EP
▁remed y,
▁Client .
▁every thing
▁differ ence
▁explicit ,
Host ing
▁PAR A
▁INDEP END
▁T M
▁m erg
▁( US
▁M IN
▁trans fers
▁respect ing
ind ing
▁LIABILITY .
▁EV ERY
▁program m
▁approval .
▁(6 0)
▁occas ionally
▁Organ ization
▁CONF IDENTIAL
co. uk
▁BRO WS
▁PARA GRAPH
G roup
e ’s
it iously
▁m irror
▁M L
▁law y
▁R oy
▁payment s,
▁means ;
▁immedi ate,
▁restrict ,
▁Party .
AY S
▁solicit ation;
▁Good s.
▁mechan ical,
▁DELAY S
▁Educ ational
▁di agn
g ers
▁T al
an .com
▁F ish
▁L ottery
▁mod e
▁pre d
▁sur round
▁compli ant
▁activity ;
▁fa ulty
▁short ages
▁incon venient
▁reverse-engine er,
▁PERMAN ENTLY
B C
ri ef
▁h otel
▁v est
▁trad e,
▁al ert
▁one -time
red ible
▁tak edown
▁anyone ’s
▁else .
▁format ,
▁terr itory
▁artic le
▁“Content ”),
▁index ,
▁TRADE .
▁commun ities,
▁rank ings
d ata
v il
▁T imes
id d
▁comp ar
▁trademark s.
▁As ian
▁Material ,
▁he ir
▁issu es.
▁restriction .
▁And roid
▁discount s
▁active ly
▁hon or
/ t
▁in sp
▁b oost
▁b andwidth
▁y et
ill a
com pliance
▁V ert
▁effect s.
▁limitation :
▁LLC ’s
▁report s,
▁recomm ended
▁Mod el
▁vari ations
▁consolid ate
▁TERMIN ATE
▁OBLIG ATION
▁Inform a
m on
ing s.
▁h idden
▁up set,
▁UN ITED
▁required ,
▁cancel s
▁describ ing
▁resol ving
▁else ,
▁representative ,
▁9 ,
▁Other wise
▁Membership ,
▁manufact uring
▁unf etter
▁“User ”
▁security. .
▁unfetter ed
F L
▁not es,
un nel
▁claim ing
▁ref use,
word s
ont act
▁indemnify ing
▁inf ection
▁stri ve
▁SE O
▁Sch edule
▁Har vest
▁Non -
▁Pur suant
4 4
w orth
▁m uch
ain ed
est ,
▁G IVE
IM B
▁where ver
▁sell ers
▁forth with
ath er,
▁world ,
▁host s
inter net
▁License .
▁PROPERT Y,
▁sub-lic ensable,
▁Bro ad
▁PARTICIP ATE
a der,
▁th us
at ically
▁S eat
▁N ow
▁Content ").
▁G AM
EC K
▁(“ D
▁advertis es
▁item ,
▁prevent ed
▁omissions .
▁par cel
▁reside )
▁anim al
▁Mis use
▁Consum ers
▁unsatisf actory
th em
ance .
▁Content :
▁" sp
▁oper ation,
▁(" DMCA
▁partn ers.
▁renew ed
▁dut ies,
▁Post ,
▁decl ar
▁hack ing
▁(th is
▁NONINFRINGEMENT ,
▁inqu ir
▁Disc ount
applic able
N ow
c ription
▁th ings,
▁of )
▁C axton
▁P MC
▁B T
▁J u
▁tit les,
▁alter ed,
▁rele ased
▁deal ings,
▁domain ,
▁Vis a,
▁Sc ot
▁word s,
▁MOD IFIC
▁ORD ER
fram e
▁Equip ment
▁m er
▁l ow
st ar
▁F eatures
▁M or
▁comp os
▁V ER
▁pos ition
▁one ),
-f aith
▁Z iff
▁success ful
▁national ity,
▁platform .
▁paragraph .
▁call ed
▁exchan ges
▁Flo or,
▁valu able
▁frequ ently
▁sequ ences
- a
T rack
▁t rip
▁c rack
ar ies
▁C UM
▁D EN
▁SERVIC ING,
▁ass ur
▁V IV
▁ACC ORD
▁J an
▁assign s.
▁PRODUCTS ;
▁FAIL ED
▁X N
uct ion
▁bigot ry,
▁p ick
▁S at
▁C irc
art er
▁L ISTED
▁E ner
▁Website :
▁oper ational
▁(“ App
▁obscen ity,
▁duplic ated,
▁bank ing
▁GENER ALITY
▁DEAL ING,
▁"us "
▁WOR MS,
▁COPY RIGHT
A .,
g en
w all
on a
▁w ast
▁f ont
▁I C
st ream
ul g
▁M use
▁In sp
MA ND
▁make )
▁REL ATIONS
▁numb er.
▁jurisdictions .
▁REMED IES
▁phish ing)
▁ACCORD ANCE
m a
er d
▁m ission
▁pro duced
▁C P
▁C lear
st alk
▁un st
▁L IT
▁website )
▁discretion ;
▁roy alt
▁sublic ensable,
▁Subscriber ’s
▁dissemin ate,
TM ,
▁Spec ific
▁PROC ESS
▁OP PORT
▁Tool s
▁LIABIL ITIES
: 00
h ack
▁T alk
an ing
▁C ra
pl an
▁F ram
▁off ,
▁SITE 'S
▁V END
▁K ore
▁rep et
▁stated .
▁VIR US,
▁recommend s
▁“I ntellectual
▁room s,
2 00
Y .
▁C E
▁P al
▁P res
un ities
▁F C
▁G reat
▁inst ances
sp ace
Th is
▁$ 50
-d elivery
▁Agent :
▁volunt ary
▁extens ions
▁Earn ings
▁output ,
▁cess ation
F A
P ath
g ment
p ire
▁b ase
erm edi
▁un iverse
▁R SS
▁provide .
▁exp ire
▁apply :
▁mess aging
▁OWN ER
▁CH O
▁Associ ation.
▁inconsistent ly
▁DES CRIB
▁dilig ence
FORCE ABLE
▁Massachus et
▁conce al
r ical
’ s,
▁c andid
or rent
ent y
▁T ri
▁S un
▁D ream
▁L O
▁product (s)
▁cre ating,
▁dist inct
▁prot ocol
▁enforce able.
▁wa iving
▁monitor 's
▁DEF END
▁At l
▁COST S,
▁Docu Sign
▁Facebook ,
▁Enterpr ises
▁compile ,
▁unfore seen
▁FIL ES
▁Lond on
Communic ation
▁near ly
h ub
▁P RACT
▁F it
▁Th us,
ag iar
▁E NS
▁password s,
▁INFORMATION .
▁(“ Google
▁Provider ’s
▁problem s,
/privacy -policy
▁sanct ions
▁spoof ing);
▁ er
▁T able
▁Website )
▁H om
▁form er
▁WH EN
▁advertis er
ook ies
▁Memb er.
▁negligence .
▁else ’s
▁techniqu es,
▁never theless
▁HE LD
▁non-sublic ensable
D B
▁b ond
ro ad
▁U r
▁B ud
▁available ’
▁prof iles
▁paid .
▁COMPAN IES,
▁extract ing
.org ,
▁settle ments,
▁Indemn ification
▁TIMELIN ESS
▁accident ,
▁assemb ly
▁INF ECT
▁Anal ytics
▁random ly-
g enerated
s "
▁p ages.
▁T ips
▁( either
▁B ureau
▁E r
▁H arm
▁perm itting
▁appro x
▁register ,
▁conduct ing
▁cancel ,
▁encoura ging
▁OWN ERS,
▁Contract .
▁Tra vell
▁SUB MISSION
▁Feedback .
▁Co .
▁children ,
▁RESERV E
▁auto -
▁length .
▁POT ENTIAL
▁randomly- generated
] .
h ot
▁or /
ic a
▁website ’s
RO SE
▁“ co
▁comm ot
▁limited .
▁Software ”):
▁credit ,
▁Ent ertainment
▁resources ).
▁struct ure,
D irect
▁c rypt
▁T CP
ri vers
▁prov ince
ance l
▁en qu
UT IONS
▁form )
▁COMP ENS
▁ASS IGNS
▁recommend ation,
▁PL AINT
▁Advertis ers
▁EXPECT ATIONS.
▁navig ate
.L .
▁Dav is
iph er,
▁repet itive
▁PLAINT IFF
( a)
/ a
I ,
R .
R ATION
▁O h
▁con cluded
▁C C
▁C all
▁we ather
▁hold ing
ograph y
▁U.S. A.
▁confirm ing
ffili ate
▁re- use
▁pict ures
▁PERIOD ICALLY
▁prosec ution
▁Collect ion
▁nud ity
umul ative
▁privileg es
D UC
b an
▁A UP
im e,
▁N it
▁ANY :
▁distribut or
▁funct ions,
▁DISCLAIM ED
▁functional ities
TER M
▁ERROR-FREE .
▁experience .
▁gre atest
▁furnish ed
▁Cap ital
▁Guidelin es
▁embod ied
▁INDEPEND ENT
- cl
N CE
” ;
ri or
ur s
▁( www.
▁N ep
▁rem ark
▁EX PER
▁" you
▁request ed,
▁oper ators,
▁maintain s
▁check points
▁ID ENT
ov ie
▁“A ccount
▁legisl ation,
▁retrieve ,
▁Them e
▁Mond ay
▁randomly-generated ,
▁c ru
al let
▁( though
▁B el
▁un like
▁Services :
▁link s.
▁US .
▁le ft
▁entit le
▁Tra ining
▁disput es.
Cl ub
▁top ic,
▁trojan s,
▁EXPECT ATIONS,
▁explos ion,
▁newsgroup s,
▁categor ized
.h tml
2 3
B U
H S
M ,
M ail
is er
▁S ign
RE EN
OR G
▁exp ires
▁follow ed
▁conduct )
▁rep aired
▁equ ity.
▁(" User
▁PARTICULAR ,
▁exist s.
▁Techn ical
▁Gu est
▁PAY MENTS
▁inher ently
▁falsehood s
E Y
is ed,
▁C B
ers ),
▁our s
os p
▁G ST
▁EXCLU DE
▁Memb er,
ik i
▁Des pite
▁acqu is
▁COMPONENT S,
▁lab our
▁Advertis ement
▁Is land
▁“C ustomer
▁embargo es,
▁LTD .
▁Stud ios
▁certific ate
▁unst ated.
' ,
1 5
s ”),
z .com
▁s ame,
us ing
▁S ong
▁v en
▁M atch
ail or
per t
so far
▁V ideos
su fficient
▁U.S. A.,
▁record ing
▁Al ways
▁expect ations
▁Fl ow
▁cover ing
▁Govern ing
▁rac ist,
ha ust
▁anti- virus
▁non-d elivery
h op
x t
▁b irth
▁S F
▁E F
▁E CON
AL U
▁non disclosure
▁again .
▁FROM ,
▁refer ring
▁register ing,
▁www. j
▁Memb ers,
▁OFFIC ERS
▁Right s.
▁sch edule
▁Law .
▁involve ment
▁subscrib ed
▁DISTR ESS,
▁GREAT EST
▁ow ing
▁Mag azine
▁CONST ITUTE
▁templ ates
▁Vict or
▁VIV A
▁ECON OM
▁d aily
▁cont ing
▁res old,
▁im age,
▁offic er
▁inst ant
▁www. c
▁yourself .
▁sing ular
▁residence .
▁INDEMN IFY
Sc ript
▁unrestrict ed,
▁NEED S
F .
w r
▁s ust
▁A ROSE
▁e .g
▁M ich
el ine
▁im plies
▁ar ri
ap s
▁expenses )
▁particip ants
▁effort s,
▁DISPLAY ED
▁(re ferred
i ef
▁C OL
▁on going
▁F rid
▁Con sequent
▁imp aired
▁threat ens
▁4 ,
▁Nor thern
▁insurrect ion,
B l
N ,
a e
ed uc
▁O m
▁E ver
▁ad ditions
▁Un it
eral d
▁PROVID ING
▁author ,
▁SPECIF IED
REG ARD
▁WA IVER
▁consum ers
▁TYP E
▁instru ment
flo od
▁Sum mit
L ATED
s k
y m
on .com
en ch
▁h istory
pl us
▁Services )
▁receiv ed.
▁www. d
▁authoriz ing
▁actions .
▁develop ing,
▁red eem
▁deb ited
▁Count er
▁call s,
▁mail, "
thel ess,
▁unreason ably
▁Cou pon
▁SUSP ENSION
▁WIK IA
/ IP
h ol
▁w idget
▁S ever
im o
ab out
▁F ant
▁F ast
os ed,
▁H EAR
▁“ We
pect ed,
▁inv ad
▁item .
▁anyone .
▁uns us
▁THERE FORE
▁Member ’s
▁compil ations
▁resource .
▁Form ,
▁impact s
▁think ing
▁Ide a
▁ACCEP TANCE
- per
A way
an .
▁C urrency
▁F RE
▁E conomic
ION S,
▁ad jud
.com ;
▁rece ive,
▁ACC RU
▁fore seen
▁EV ALU
▁DE MAND
▁DE TERM
▁Sh ow
▁Blackboard .
▁8 ,
▁PAID ,
▁unavail able.
▁comb ine
▁List ing
▁Brand s
▁Pac ific
▁assur ances
r ata
r ary
▁A ff
ri es,
▁C OU
▁un su
IS TER
▁“ sc
▁des ire
▁2 000
▁fil ter
eve l
sel v
▁propert ies,
▁ATT EM
Mark et
▁SUCCESS ORS
▁statist ical
- L
F ER
O ,
is ite
▁re ader
▁T een
▁C ost
▁W all
▁it 's
▁off line,
▁SO CIAL
▁inst ance,
▁cho osing
▁Eng ine
▁Q ual
▁children .
▁DELAY S,
▁comb in
▁learn ed
▁Work s
▁emerg ency
▁EXPL ICIT
g ain
▁ 00
▁f ranch
▁m us
ub ject
▁G ive
▁rece iver
▁unl imited
▁prof iles,
▁view s,
IV ERS
▁Cli ent,
▁Ac cept
▁subscrib ing
▁fre edom
▁coven ants
▁deduct ed
-m onth
▁RESERV ES
▁hatred ,
▁overload ing,
▁ELECTRON IC
▁or/ and
7 .
N ER
e ffective
it ation
▁B ase
RO SS
▁(“ AAA
ffor d
▁URL (s)
▁normal ly
Pl us
▁fix ed
▁("Content ")
▁UPLO AD
. tv
▁b al
ro s
▁C ycle
op en
▁network ed
▁exclud ed,
▁incorpor ates
▁Cont roll
wh ere,
▁COMPANY ’S
▁admin ister
▁SUBS CRIB
▁class ified
▁CH ECK
▁Fe ature
▁Particip ant
▁EP ILE
▁SETT LE
4 5
B R
▁n omin
▁P in
art s
▁D og
ac es
▁st rateg
▁def eat
▁pre -p
▁individual s,
▁delet ing
▁sc an,
▁tax es.
▁ACTION .
▁cover age
▁high est
▁NOTICE .
▁dece ive
▁Nit ro
P C
P ass
m ises
t ers.
at in
▁re use
▁pro ve
▁e asy
▁( N
▁D ays
▁st olen
▁inv ite
▁exp ired
▁payment s.
▁mis ident
▁2 3
▁gen er
▁plac ed.
▁misrepresent s
▁30 -day
▁updates .
▁assert ions
.2 ,
▁Form .
▁upgrad ed
▁Australia .
▁Pv t
▁Fil m
▁foot er
▁NZ ME
▁inconsist ency
A .COM
I ANCE
N OS
U se
X P
y d
▁p an
▁INTERRUPTION S,
▁Qu ot
▁REQUIRE D
▁Mod ification
/s ervices
▁"Content "
▁"Content ")
▁behavi our
▁Ontario ,
. Com
Z E
▁be .
▁( 8)
▁M er
one y,
▁acknowled ged
▁disp ose
▁system s.
▁controvers y,
On e
▁Cre ate
▁negoti ations,
▁consum er,
▁THEFT ,
▁(“DMCA ”)
▁fully-paid ,
▁unlike ly
/ JUR
2 6
G A
P ost
g ent
▁c rim
▁any one,
▁f light
▁L ESS
▁L evel
▁de pendent
s. net
▁(" Mark
▁visitor ’s
▁Mod ify
Ad s
WH ERE
▁TCP /IP
O THER
U K
▁S K
▁C a
▁Y oga
▁F rench
▁L AST
▁N ig
▁G od
▁Comp etition
▁K en
▁(“ Your
▁No .
▁"AS -IS
▁worm s
▁satisf action
▁FREE ,
▁fire s,
▁GUARANTE ES
▁PH YS
▁co-brand ers
▁Roy al
ro g
▁P enn
▁L INE
qu al
▁R oom
ERV ICE
▁RE COMM
▁OTHER S
▁limitation s,
▁DE T
▁advertis ers.
▁RISK S
▁Lic ence
▁FE ES,
.2 .
▁ARBITR ATOR
▁open ing
▁manufactur ers
▁occas ions
▁firm s
▁sweepst akes
▁ο r
/ h
G S
c ard
g est
ic o
▁d edicated
▁S OUR
▁S elf
▁pro -
▁un discl
▁H appy
▁G l
▁G RANT
▁RE PL
▁pl agiar
▁K ey
▁contact @
▁allow ed.
▁audio visual
▁Em ir
▁re-export ,
▁Express VPN
▁E- MAIL
Comm erce
▁depict ing
▁scrap e,
▁ATTORNE Y
▁bot s,
▁four teen
▁EXCHANG ED,
X .
▁P ush
▁Con c
AL ,
▁G ro
▁infring er.
▁COMP AT
▁amount .
▁protect ive
▁meet ing
▁7 ,
▁cooper ation
Cl ass
▁Event s
▁upgrad es
▁RECE IVE
▁crawl ers,
▁channel s.
▁embarr ass
▁you’ re
▁DELIVER Y
▁dialog ue
▁Color ad
▁Consequent ly,
in fo
▁to .
▁m ar
an der
ot a
im p
▁U .
ud i
if ty
▁“ b
▁sign ifies
▁unt rue
▁Sell er.
▁tw enty
▁ACCOUNT ,
▁misappropri ates
▁cens or
▁unsus pected,
ar ing,
ill ary
AR P
▁TO OL
▁represent ed
▁" your
▁understand ,
▁docu ment,
▁Ch eap
▁Ch rist
▁pres ide
▁dec re
COM P
▁X XX
▁supply ing
▁prepare d
▁board s
▁old .
▁illust r
For um
▁execut ing
▁penalt ies.
▁mut ual
▁Fe es,
▁cred ential
▁"spam ,"
▁FUNCTION ALITY
▁bi ographical
▁PREVIOUS LY
▁ASSIGN S,
/JUR ISD
l oc
▁p ure
▁( al
ol a
▁F ar
▁M c
▁we a
▁avail ing
▁nam e.
▁accept ed,
▁IT .
way ,
▁brand s
-h ome
Pro duct
▁config ur
▁submitt ed,
-prot ected
▁OCC UR
▁challen ge
2 9
it i
at ar
▁f ield
▁T ake
▁P ress
▁F ed
▁F riend
▁“ Company
▁Agreement :
▁privacy ;
▁DATA .
▁item s.
▁upgrad ing
▁Op port
▁“your ”
▁HIPAA .
▁(together ,
(b )
▁DESCRIB ED
▁“co vered
S H
in ic
at ri
▁in sufficient
em ploy
▁E ll
▁RE LY
▁regard ing,
▁work -
▁password ;
▁MATERIAL S.
▁inacc ess
▁he ard
-S P
▁incorrect ly
▁stri ves
▁preserv ation
b ound
or m
▁S UR
▁D emand
▁will :
end ,
▁entity ”
▁origin ates
▁opin ion.
▁cancell ed,
▁Ltd .,
▁Z one
▁instruct ions,
▁aggreg ated
▁acquire ,
▁dispatch ed
▁Numb ers
▁Doll ar
▁alloc ated
▁MANAG ERS,
▁CUM UL
▁c umulative
or por
▁m o
if fer
ul ate
OU GH
▁applic ability
▁viol ent
EN CES
▁gen u
▁APPLIC ATIONS
▁authority .
▁aggre ss
▁guardian s
▁Merchant s
▁fault s,
▁Art ist
▁UPD ATE
C V
n es
▁re -p
▁P os
ER .
▁E c
▁“ Claim
▁must :
▁INC OM
▁check ed
▁entit led,
▁amend ,
▁therein ;
▁PARTIES ;
▁‘ comments
▁protection ,
▁assist ance,
▁Co ach
▁ADVERTIS ING
▁slan der
▁House ,
▁Afric a
▁Lond on,
leb r
▁cancelbot s,
▁Jew el
▁EF FOR
- off
T .
▁ id
▁P AIN
art er,
▁H OST
▁consequential )
▁modify ing,
▁EXT END
▁below :
▁alter ation,
▁Prov ision
▁(W eb
yl van
Not ice
▁VIS IT
▁demonst rate
.V .
▁downt ime
▁Follow ing
▁wast ed
/JURISD ICTIONS
c illary
AB LY
▁" Your
▁Un iform
▁Un solicited
▁caus e.
ok e
▁det ect
▁char ities,
▁websites ;
▁log ged
▁cancel ing
ock ing
▁pat tern
▁ext reme
▁prohibit ion
▁PR ESENT
▁ordin ance,
▁vol ition
▁Propert ies,
NE W
/ pro
3 3
4 .
▁t ask
▁d imin
▁post .
▁PER MIT
▁www. internet
▁company ’s
▁month s.
▁solicit ,
▁impro ving
▁evalu ate,
▁Inc redible
▁learn ing
▁situ ations
▁Out side
▁(htt ps://
▁SUFFER ING,
▁Twit ter
▁graph ical
▁ECONOM IC
▁‘comments ’),
F ROM
“ ).
▁O S
▁F ind
▁R UL
▁H otel
▁express ion
's )
▁COM MIT
▁address ing
▁Pl us
▁promot ion,
▁further ing
ret ri
amp le
▁AFF ECTED
▁Reg ardless
▁reven ues,
▁Tw inkl
▁discrimin atory,
▁authentic ate
▁17 ,
.3 ,
▁Jud gment
▁enforc ing
G E,
J ob
U NT
o or
p re
in ity
at -home
▁S SL
▁C os
▁P ic
▁is ,”
▁D ut
od es
com es
▁rem ote
▁sp eech
▁WARRANT S
▁bas ic
ECT IONS
▁assign able,
▁As k
▁sour ce,
up .com
▁judg ments
▁Right s,
▁brows er,
▁book ings
▁“P rivacy
.00 .
▁undertak ings
▁REVEN UE
▁Public ations
▁ran ge
▁pred ecess
▁A ARP
ag er
▁“ W
▁cre ator
ors hip
▁" pyramid
▁adv ising
▁INT EG
▁delay .
▁PERS ONS
▁Sell er,
▁forum ,
▁Card ,
▁CONS ENT
▁STATES /JURISDICTIONS
▁“O ur
▁disburse ments
▁Ener gy
a por
s ylvan
▁T L
▁W AS
▁E dit
OR TED
▁out we
▁" B
▁1 .
▁Policy )
▁another ;
▁Re qu
acc ount
▁REPRESENT ATION,
af e
▁THERE ON
▁transactions .
▁instruct ion
▁ment ion
▁litig ate
▁“Site ”)
▁dissatisf action
▁break down
▁Bre ach
▁commiss ions
UF ACT
▁Penn sylvan
▁work- at-home
-SP AM
▁outwe igh
I nd
▁( an
▁prov ing
▁M ountain
▁E T
▁copyright able
▁RE MA
li x
▁contract ing
▁kind ;
UN ITY
▁correct ness
▁dest in
▁Part n
▁requirements ;
▁interfer e,
▁vari ation
▁itself ,
▁GIV EN
▁MAN UFACT
▁la under
-RE LATED
▁outweigh s
/ ind
2 8
▁ •
▁l ines,
▁other .
▁E du
os es
▁link );
▁own ;
▁Ex p
▁Sites ").
▁determ ine,
▁sign -up
▁component s,
▁Fl ash
▁THEREIN ;
▁interfac es
-g enerated
▁unfore see
▁adher ing
▁Sty le
▁“You ”
▁Vert ical
▁www.internet brand
/ .
m ed
en e
▁are :
▁part ially
am a
▁N S
▁content )
▁exp osing
ous ly
urn iture
▁compet ition,
sp ec
▁media ;
▁STAT UTE
▁contribut ion
▁SUB MIT
▁contest s
▁Up grad
▁capac ity,
▁ATT ACK
off line
▁exchan ge,
▁RELEASE ,
▁withhold ing
▁Bab y
▁adjud ic
▁RECOMM END
F C
S al
d irect
m er
w ear
▁s ize
▁S o
▁h ot
▁( THE
▁L oc
▁H elp
▁FOR ,
▁NOT E
▁RES OL
▁prom ises
▁good -faith
▁TIM E,
Com ments
▁fact ,
▁mechan ism,
▁mist akes
▁Contribut ion
▁Process or
▁earthqu akes,
▁LIT IG
▁CUMUL ATIVE
2 .
U IT
t ube
▁T ak
▁P rom
▁h undred
▁R an
▁Content "
▁Content ")
▁Content ”),
oc us
▁requ isite
▁man ifest
▁another .
▁purchas ed.
▁(" T
▁domain s
▁profile .
Sc ope
▁student s
▁MAL ICI
▁acknowledg ed.
▁earn ed
▁Jav a
▁insol vent
▁CANCE L
▁Wikid ot
E X
e ach
i am
▁I ran
id em
▁U BM
▁un ex
▁L ux
▁v oice
▁H UB
▁conn ections
▁third-party .
▁design ate
▁cancell ing
▁day .
▁tool ,
▁9 4
▁block ed
▁inappropriate .
▁Associ ates
▁Op in
▁FA V
▁z ip
▁ELE MENTS
F inder
c ertain
o es
er ts
in ja
▁m oney,
▁co vers
ub mission
▁st ating
▁Comp are
▁licens or
▁end -us
▁due .
▁network ing
▁then ,
▁includes :
▁day ,
▁4 5
St reet
▁point s
▁newslet ters
▁arch ive
▁Restrict ions
▁WHO LE
▁LIABIL ITIES,
▁Guarant ee
▁ep idem
▁Ve hic
▁MALICI OUS
b al
e ight
t y,
v ideos
al d
ol ve
▁H am
▁harm s
▁K eep
io ,
▁purchas es,
▁valid .
▁PURP ORTED
IF Y,
▁record ,
▁(I ndemn
▁physical ,
▁completeness .
▁Provid ed
▁“us ”,
▁Supplement ary
▁CONSTIT UTES
T ,
p pens
y a
im onial
▁R isk
▁ha ppens
▁link ing,
▁G rad
▁G OD,
ative ,
▁mark s.
▁(“ Linked
▁advertis er.
▁exist ence,
▁enhance ments,
▁sublicense es
edd able
▁revenue ;
▁lev ied
▁choos es
▁1-8 00
▁Exchan ge,
lad esh
- back
A ny
T P
▁S ource
ct or
▁( REGARD
▁product ion,
▁dist ress,
▁enforce ment,
▁IND UST
▁e-mail s,
▁amend ed,
▁choose ,
▁11 .
▁REASON ,
▁transport ation,
▁coll abor
▁Nep al
▁(REGARD LESS
. gov
M L
r ashing
er k
is on
▁C e
▁D atabase
▁wh ilst
▁M ac
OR ,
▁H er
▁loc ations,
▁Wh ite
▁associ ates,
▁delet ions
▁PARTY ’S
▁typ ically
▁statement .
▁support ing
▁ID .
▁SUB MITTED
▁Be ach
▁COMMUNIC ATIONS,
Sh are
▁understood ,
▁incre ased
▁flood s,
▁"we ",
▁subpoen a
▁heir s,
▁undiscl osed,
5 .
F IT
f low
p m
p ack
p atch
▁S il
▁P OW
▁P AST
▁L L
▁L IST
clud es
▁E G
▁de pos
▁de gree
▁ob ey
▁contact s
▁(“ H
▁include :
▁individual .
▁merchant s
▁dec ipher,
▁Cl ar
▁describ ed,
▁Media News
▁record ings
▁Off ic
▁fre ight
▁calendar s,
uil der
▁Termin ation.
▁Ext ens
▁Develop ment
P ECT
j o
▁c ut
▁c apt
ch eck
st ate
▁viol ation,
▁AD DED
▁2 .
▁alleg ations
▁interruption s,
▁red irect
▁Im ages
▁EN G
AG E,
▁RELIABLE ;
Ch at
▁institut ion,
▁truthful ness,
▁Website/ App
▁dollar s.
▁Task M
▁ENS URE
▁Sever ability
O CK
P P
s "),
▁o we
in .
▁not e,
▁F lex
▁L iving
▁M ak
▁IN J
▁R eb
▁services )
▁G ROSS
▁non- personal
▁non- compliance
▁All iance
▁Int ellig
▁ST UD
▁(“ the
▁refund s,
▁Memb ers.
▁WHICH EVER
▁harass ment
▁UP S
▁endeav ors
▁Ph one
▁$100 .
Online .in
▁Columb ia,
▁injuri es,
▁Illino is
▁Instant Pay
r out
v ival
▁T yp
▁h ope
▁M ath
▁E C
▁reg ist
bit ration
▁terminate .
▁Pl ace
▁page (s)
MENT S.
▁TIME LY
▁ALLOW ED
▁acqu iring
▁propos als
▁OPER ATOR
▁(C th
▁Elect ric
▁Enterpr ise
▁HugeDomain s
▁HEAR ST
( ies
g un
ic i
▁T rick
▁P ower
▁( IF
▁F ly
▁N ames
▁en erg
EC A
▁commercial ,
▁DISCL OS
▁pres cribed
▁representativ es.
▁i ONE
▁top ic
▁"User "
▁aris ing,
▁SUIT ABILITY
▁Deve loper
▁pers istent
▁Chamb ers
▁MODIFIC ATION,
R ES
c er
‘ s
▁any .
▁m em
▁h ire
▁( you
as c
▁ex haust
▁L EAR
am ,
iv eness
▁H IM
▁att end
▁Pri or
▁una ffect
▁commercial izing
▁To U
▁except ions
▁Ad vis
▁www. adr
▁AB ILITY
▁POSS IBLE
▁Al tern
▁identifi er
▁else where,
▁compens ated
▁“S t
▁Buy ers
▁taxes )
▁Own ers
▁etc. ,
St ar
▁Pric ing
▁relig ious
▁Are a
▁contra vention
▁TRAD E,
al o
ay .com
▁D unz
▁H ard
▁ind eed
▁G B
▁copyright s.
▁MATERIAL LY
▁visit ed,
▁(" A
▁phot oc
▁ins pected
▁relief .
cast ing
rid e
▁accident al
▁IS, "
▁50 %
▁Study port
▁Rad io
▁Cred entials
▁XN XX
B I
D aily
G ,
H L
it coin
▁s ender
or gan
▁l if
▁I V
▁for ging
AT ING,
▁R ub
▁li eu
▁person s,
ok er
▁offer ed,
▁list .
▁Ch oice
▁confirm s
▁est imate
▁AL W
▁duplic ative
▁joint ly
▁Direct ory
▁advis or
▁assess ed
riv ol
▁VAL ID
▁Bang ladesh
▁encount er
▁Kore a,
▁FAV OR
/ re
D ata
H C
T Y
p ass,
▁ |
ou ri
▁F raud
▁we l
▁int ermedi
▁G all
iz z
ew ork
▁PRO DUC
▁reserv ation.
▁non transfer
▁breach ;
▁Un ion,
▁work .
▁le ased
▁No v
▁Part ies,
▁(d irect
▁employees )
▁operated ,
▁THERE TO
▁4 0
▁expect ation
▁buy ers
▁reput ation;
▁letters, "
▁Autom obile
▁Review s
▁exc used
▁INVEST IG
▁aud ience
▁DOCU MENT
▁Germ an
▁Outdo or
1 ,
D eal
h ealth
at i
▁in effective
le ased
▁A nt
▁Th ink
▁G M
▁G row
▁“ WITH
▁SERV ERS,
▁los s.
▁direct ly,
▁V OL
VAIL ABLE
▁Ad ult
▁individual ;
▁Users ’
▁receipt ,
▁PR ICE
▁India Online.in
▁Off icial
▁Advert ise
▁discuss ed
▁organis ations
▁provincial ,
▁charact ers,
uck s
▁arch ive,
▁Union ;
▁NB C
▁SUSP ECT
▁"our "
▁subsect ion
D ,
g ames
h on
i q
ic ense
▁b orne
▁W ine
em a
gre g
▁will ing
▁Service )
▁Agreement s
▁direct ing
▁card (s)
▁Pl ugin
▁code ;
▁method (s)
▁renew als
▁English .
eng er
.in .
▁preced ence
edd ing
▁“M ark
▁assemb le
▁Confirm ation
aur ant
▁TEXT ,
A )
O VER
T un
ri z
▁C F
▁P ak
ch edul
▁ex emption
ran ge
▁R AM
▁comp el
▁licens able
▁Int ro
▁INT ENT
▁DISCLAIM ED.
▁Section .
▁Dis cover
ash board
▁Reg ister
▁instruct ional
▁Publisher ’s
▁Department ’s
▁De lete
▁LOC ATION
▁Class ified
▁explain ed
▁Vent ures
▁SAL E
▁Cle an
▁won ’t
▁sublicens ing
▁Vertical Scope
A n
D C
I nt
N etwork
b et
▁in -
▁re ct
▁T S
▁T em
▁m ine
▁A Z
RE PRESENT
sib ilities
▁H ill
▁V ision
▁legal @
▁CAUS ED,
.1 .
▁SYSTEM ,
▁JURISDICTION S,
▁authentic ity
pr int
▁Manag ers
▁deduct ion
ycl es
▁Nut rition
▁surround ing
▁commot ion,
. m
3 60
I t
f l
it ut
▁s l
▁s am
ent s
▁( t
▁sh aring,
et ch
▁H OT
▁inter im
▁claim s)
▁BE NE
▁DE BT
▁then -
▁compens ation,
▁resources ;
anc ing
▁“D ispute
▁gross ly
▁ti ers)
Lab s
▁Pract ice
" ;
( g
S e
p art
p op
w ire
▁an cillary
▁d rawn
un te
▁F eed
▁L iqu
▁R ank
▁R SI
▁ass urance
▁" hidden
▁here :
▁control s,
▁le w
▁Material s;
▁protect ions
▁brand s,
▁PayP al,
▁“M aterial
▁comment ary
▁Mag ic
▁intercept ,
▁analys is,
▁eas ily
▁PROMIS E
▁Bio News
▁“AS-IS ”
% )
A l
n z
r ab
w ebsite
es tern
▁T otal
ri me
ER SE
▁B ill
▁F uck
▁E E
▁sub domain
▁pri ze
▁" robot
▁gen der
▁App s,
▁cancell ed.
▁method s.
cont act
▁‘ s
▁mail, ”
▁Health care
▁11 ,
▁Viol ations
▁CAN -SPAM
Work s
▁Ide as
▁FORESEEABLE .
▁Request s
ceiv able
▁prepar ation
▁SETTLE MENT
' s,
▁in action
▁f av
▁T enn
▁us es,
▁B lo
▁we ather,
▁R ock
▁G AME
ates .
▁CONT ACT
▁products )
▁cour ses
▁regul ated
▁read y
▁pres s
UM B
▁priv ate,
▁est ate
▁Access ing
▁error-free ;
rid ge
oun sel
▁deactiv ation
▁derog atory
▁“spam ,”
▁“L ast
▁offline .
▁Nig eria
. b
I OUS
y an
▁ EST
▁S anta
▁C ore
▁OR IG
▁ex pro
▁D rive
▁M V
▁G A
▁“ pyramid
▁log -in
enc ies
▁ins pect
▁Wal es,
▁Up grade
▁enhance ments
▁TRANSACTION S,
▁disa greement
▁aris en
▁TECHNOLOG Y
▁reform at
▁ALLOC ATION
- 9
W ORD
i F
l ife
v o
it .
it a
▁P e
▁D river
▁govern ment,
▁year s.
▁dec is
▁tra ce
▁Applic ations,
▁ID ,
▁develop ment,
az a
▁bar gain
▁COD E,
▁Den ied
▁"we "
▁RESOUR CES
▁Brow ser
▁FACIL ITIES,
5 2
t ree
at s
ar b
▁I B
▁P EN
▁h istor
▁D UT
▁D iffer
▁F us
▁M ach
▁N ever
▁im plicit
▁accept ,
▁court s,
▁activ ated
▁text "
▁ord ers.
▁secure ly
▁forum .
▁manag ing
ai ,
.00 ).
▁team .
▁(x i)
▁Tex as,
▁cle ared
▁scraper ,
▁EXECUT ING
/ D
/ us
y ear
ur ric
▁su e
▁right )
▁F arm
el ty
▁per fect
▁" R
▁distribut ing,
pend ing
▁case .
▁hel ps
air s
▁Res ult
▁internet ,
▁spam ming,
▁treat y
ivers ion
▁IM P
▁harvest ing
yc le,
▁strik es
▁Sim ilar
▁indefinite ly
▁CO VER
▁CURRE NC
▁exchan ged
▁REFER ENCED
▁demonst r
▁discrep anc
▁insp ection
1 7
“ ),
▁S END
▁con clusion
▁W WW
▁not )
▁use )
▁B ra
▁L A
▁L OG
▁G al
▁there under
▁contract or
▁credit or
▁prof ane
▁Submissions ").
▁Part ies.
▁ownership ,
▁method olog
▁record ing,
▁document .
▁implement ation
▁slog ans,
▁supplement al
▁Florid a,
▁Respon sibilities
▁HOWEVER ,
▁pre-p ay
S ports
w a
er ator
in ess
en eral
▁S er
▁B o
AT A
▁Services ’
▁ob vious
vail ability
▁NO W
▁V ista
▁software ;
▁exp oses
▁trade -
▁Cont est
▁AB LE
▁REG ISTER
▁Ent ire
▁Sec ure
▁appoint ment
▁(V I)
Pl ay
▁thereon .
xy z
▁liter ature
educ ational
▁unex pected
( f
1 9
8 6
s ”).
re nd
▁in sofar
▁O z
om en
▁U A
▁F ACT
ul s
▁R ental
▁rel inqu
▁under ,
-p erson
eg g
▁K a
▁error .
▁care ful
▁CONTRACT ORS
▁THERE FROM
▁Sp ark
▁Network .
▁System wide
▁col our
▁old ,
▁quot e
▁orient ation
▁Ge org
▁(U .S.
▁misident ification
▁"AS-IS "
▁relinqu ish
” :
▁T rue
▁C .
s, ”
▁B h
▁we '
▁" Us
▁ph r
▁AD EQU
▁rep ly
▁proceed s
▁restrictions .
▁advertising .
▁remedy .
▁respond ing
ren ewal
▁Buyer ’s
▁Per fect
▁default .
▁Vir al
▁ol der,
▁Affiliates .
▁CUSTOMER ’S
▁“I ndemnified
▁(s ubject
Trad emark
▁div ul
▁WAIV ING
C o
l k
p e,
p aper
▁Terms )
▁cl osed
▁G re
▁up per
▁form ation,
▁PROV IN
oy alty
▁tool bar
▁FAIL S
▁guid ance
▁according ly,
▁imperson ating
▁CONDUCT ED
▁signature ;
▁contributors )
▁disabled ;
▁ACTIV ITY
▁defin itions
▁"Service ").
▁spokesperson s,
h ome
w ise,
ou l
▁C yp
▁W ire
▁N AS
ak en
pli ed
▁" in
▁K l
▁secur ities,
▁INC OR
▁inst al
▁3 .
▁(1 4)
▁invalid ity,
▁market place
▁complain t,
▁USER .
▁disrupt s
PT IC
▁fund s,
ov a
.org /
▁Li ability,
▁OPIN IONS
▁USEFUL NESS,
▁MEMBERS HIP
Rev iew
▁Ur ban
▁aggress ively
retri eval
/ retrieval
n o
▁a fford
or ough
▁res c
▁dis hon
▁v ac
▁cl osing
▁H ers
▁G ig
IM E
▁K h
▁disp os
▁suit s
▁disrupt ing
▁search /retrieval
▁INTER ACTIONS
▁Notice .
▁discontinu ation
▁Austral ia,
▁FA ULT
▁Fran k
▁Refer ences
▁caching )
▁Expl or
▁accommod ation
▁DEBT OR
▁ 01
at ement
▁c ity
▁re b
▁f rivol
le arn
▁A BS
▁A stro
▁C r
▁I r
▁I MAG
▁U l
ul a
▁website (s)
ist an
▁“ f
▁“ look
led ge
ous and
▁(b) the
▁e-mail .
▁version .
▁transferred ,
▁re- sell
TR IBUT
St ream
▁INACCURAC IES,
▁health care
▁litig ating
▁cach ed
▁protected] .
▁MIS REPRESENT
▁sess ion.
▁rating s,
▁CREDIT OR
▁SUP PORT
▁REPL AC
▁Iran ,
/ in
D S
M ag
Y O
b uy
er pt
or ies,
▁f ew
im al
▁P ath
▁by pass,
▁M oder
▁E v
▁em an
ish ed
▁" You
▁St an
▁card s,
▁sell s
▁organiz ational
ang er
▁SOFTWARE )
▁Z y
▁Z en
▁award ,
▁award .
▁fee -based
▁blog .
▁manag er
▁exceed ing
▁COMM ENCE
▁Design s
▁EXP OS
▁upgrad es.
ONT RACT
▁199 0.
For ce
▁INDEMN IFICATION
▁exc erpt
▁“spam ”
Trad e
▁Ticket s
▁Sy ri
▁Frid ay
▁mus ical
5 8
L ocal
▁S IGN
▁S eek
▁A MA
▁F irm
ag le
ub e.
ip e
▁“ m
▁user ;
▁" In
▁pl ural
▁CONTENT )
▁Product ;
▁MAK ING
▁incurred .
▁customer 's
▁Ind ependent
DE L
up port
ered ith
▁INTERRUP TIONS
▁created ,
▁install ing
▁discontinu ed
▁revoc ation
▁verify ing
▁official s,
▁strik e,
uct u
▁statist ics
▁Val ue
▁(F )
▁EXPER IENCE
▁TaskM itra
7 0
S erv
T ON
V O
▁s ay
▁T ok
▁C ub
cl ick
e, "
▁personal ization
▁def raud
▁CONT AM
▁V M
▁V PN
▁infring e,
▁event s.
▁char ging
ERS .
appro priate
▁WHATSOEVER .
▁Buy er.
▁search able
▁schem e
▁Rec ruit
▁high ly
▁protected] ,
▁Home Away
▁human -per
▁APPROPRIATE .
/c opyright
▁POST ING
▁announce ments,
▁Contain s
▁(9 0)
▁("DMCA ")
▁DEN IAL
▁human-per ceivable
. site
▁b onus
▁C ro
▁W az
▁( l
▁Th ank
▁In k
▁RES IDENT
▁password -protected
▁DE EM
▁arbitr al
▁paid -up,
▁fit .
▁min ors,
▁Publish ,
▁CONDITIONS .
▁final .
▁PURCH AS
▁ordin ance
▁gre at
▁Purchase ;
▁Forum s
▁Portal .
▁Kingdom ,
▁BO TH
▁BO OK
▁republic ation,
▁Purchas es.
▁savings ;
▁“w e,”
▁Ca rol
▁Altern ative
▁expro priate
6 .
B ack
N AL
S mart
l as
u .com
is cl
il ater
ut ions,
▁F AR
▁servic ing,
os is
imit ation
▁cop ies,
▁User name
▁V PS
▁des patch
▁control ;
▁Wh ale
▁AD DR
▁rep ost
▁rep rint
▁interest s,
▁correct ly
▁Comm ons
comp any
▁market ing.
▁inform s
▁amend ing
▁lost ,
▁Sell ers
▁APP ,
▁Indemn ite
▁harvest ing)
▁concept s
▁Period .
▁Mess age
▁bod ies
▁observ e
itz er
@ g
R AL
T est
a .com,
f ile
▁T empl
▁con clusive
im ately
▁( all
▁M ax
itt ed,
▁H ired
▁“ In
▁IS P
ven ue,
▁elect rical
▁Account ;
▁le aving
▁AT TRIBUT
▁3 D
▁controll er
▁CONS ID
▁capac ity.
▁Rel iance
▁Kingdom .
▁therewith ,
▁SERVER (S)
▁hour s.
▁“Services ”
▁("P rivacy
▁Germ any
▁154 2
L ING
P O
l r
▁c itiz
▁in -line
▁e B
▁P S
▁( 2
▁B IT
▁M iss
▁M umb
▁" Third
ade qu
▁refund ed.
▁more ,
▁pat ient
▁incurred ,
▁COR POR
▁ABOVE ,
▁invo ice,
▁according ly.
▁withd rawn
▁“us ”).
▁Sw itzer
▁knowledge .
▁redistribution )
▁fl uctu
▁algorith ms
▁non-sublic ensable,
▁Phil ipp
▁Rew ard
▁fals ify
F X
S oft
d un
w in
▁S CH
▁A v
▁con gest
▁un us
▁M ah
▁ad ware,
ty )
▁dist ress
▁process ed.
▁Information ”).
ell er
▁CONN ECT
▁interact ing
▁feed s
▁depend s
▁negoti ate
▁spy ware
▁Min ors
▁Union :
▁CONTAIN S
▁pros pect
▁adher ence
. c
it al,
le .com
▁A ut
▁A UT
▁C ours
▁W estern
▁U nt
IT ION
▁B rain
▁N ation
▁RE MOV
▁V ouch
▁te ach
ap ers
▁vis ited
av es
▁serv ing
▁solicit ations,
▁PROFIT ,
▁- -
▁short age
▁PROBLE M
▁lock -out
rec i
▁PROCEEDING .
▁unac cept
▁Head ings
ifest yle
▁DEATH ,
▁appropriateness .
- ex
- WILL
N Y
R oll
or p
ing u
th rough
▁M em
▁N K
▁website /
ak er
▁H ack
▁cre ation,
▁web master
▁kind s
▁implied )
▁WARRANTY .
▁relationship ,
▁hyperlink ed
▁platform s,
▁Law ,
▁manufact ure
▁“A d
▁201 9
▁guarante ed.
▁(here after
▁fault s
▁rout ines
▁prim arily
▁implic ation
▁prosecut ed
▁EPILE PTIC
▁pure ly
▁ATTACK ,
- and
1 4
K NOW
w eg
▁S ECTIONS
▁C oll
▁C yber
▁C ounsel
▁W is
▁P DF
▁M ont
▁agree :
▁Service ),
▁We alth
▁comp elled
▁app .
▁k new
▁With in
▁AGRE ES
▁var ied
▁PARTIES ’
▁back ed
▁Ag ent,
▁find ings
▁litig ation,
▁CONDITION ,
▁Direct ive
▁serious ly.
▁vouch er
IVERS AL
R I
it s,
▁s em
▁in duce
▁re inst
▁S IT
ot ing
▁M T
▁AND ,
▁H a
▁agreement s);
▁extent ,
▁comput ers,
▁request ed.
▁prom ulg
ROU ND
▁Re alty
WARE ,
▁export s
▁Parties ")
▁vol ume
▁writ er
▁thereafter ,
▁Val ley
▁COMPL IANCE
▁CAPAC ITY
Tool s
▁INTERACTION S,
▁ALW AYS
▁lew d,
8 00
D e
L ife
f m
h e
▁t ο
▁f ake
▁A CH
▁I l
st rong
ud e
AT ORY
▁M eredith
os a
▁G ateway
ing, "
▁RE PUT
▁make .
▁IS ”,
▁wa ivers
▁prevent ing
▁meet s
▁consult ants
▁Program .
▁York .
▁Health y
▁Port ability
▁Leg isl
▁Pr inc
▁OFFER INGS
78 79
▁cycle .
▁construct ion
▁Rep ublish
▁cru elty
▁SUSPENSION ,
▁Requ ire
f in
▁in adequ
▁O g
▁W ood
▁un ilater
per ty
olic it
▁em anc
ph em
▁affili ation,
▁IS ",
▁eng ages
▁Party ”)
▁ADV IS
ET Y
▁purchas es.
▁REG IST
▁actual ,
▁Other wise,
▁Publish ers
▁ME ANS
.co .in
▁bomb ,
▁(x ii)
▁Them es
▁Glob e
▁mispric ed,
▁distinct ive
V ENT
▁c ell
▁S port
▁S und
ar at
th is
ur d
▁C andid
art ies
▁res ort
ver tent
IS IONS
fer ence
▁“ d
rib e
ind ia
▁her e,
▁hold ers.
OL ID
▁imply ing
▁sent ence
▁USER ’S
▁provider ’s
▁sublic enses
▁submission .
▁reflect s
▁destruct ion,
▁want s
▁decision .
▁letters, ”
▁trial .
▁perjur y
▁List ,
▁arch ives
▁school ,
▁gam es,
▁BROWS ING
A I
M PT
k s
t ed
u ries
▁t ab
▁re use,
▁C ool
▁TH REE
as phem
▁L ast
ag ement
▁ch eat
oc urrency
um n
ant ,
▁go al
▁app ,
▁laws ;
▁harm ing
▁J ournal
▁address es.
▁UN EN
▁INFORMATION AL
▁over all
▁others ’
▁sur ve
▁dec ides
▁Pay pal
▁country ;
▁bl asphem
▁Affili ated
▁PR IC
▁attack s
▁evalu ation
▁common ly
▁AAA ’s
▁Propert y,
▁test imonial
▁199 9
▁ENDORSE MENTS
▁forbidden .
▁PASS WORD
▁APPEAR ING
▁emanc ipated
w ell
▁a way
▁s urre
▁l and
▁e le
▁( reg
▁dis qual
▁L ex
▁Con st
▁reserv ations
▁sp eed
▁DAMAGES )
▁full ,
▁transmit s
▁REL IED
▁(“ I
▁equ ally
▁LLC 's
▁(" Third
▁relationship .
▁ce ases
▁inf o
▁pack ag
▁Im p
▁Provid ers,
▁legisl ation.
▁Is ra
▁knowled ge,
▁“D MCA
XX X
▁appropriat eness,
▁miss ing
▁difficult ies
▁ENTER ING
▁depart ure
▁photoc opy
▁histor y,
▁surre pt
n 't
v ed.
ic ious,
▁re ward
▁d ig
▁S em
▁C am
▁W oo
▁( VI
▁by :
▁B S
▁D ebit
▁N ex
▁Site :
▁perm itted,
▁" sc
▁direct ion
▁consequential ),
▁Reg istr
St ore
▁visitor ,
▁visitor 's
▁IM PORT
▁Dep art
▁Sch ol
▁Statement ,
.5 ,
▁project s
▁“Site ”).
▁College NET
▁analy ze
▁SOL UTIONS
▁Less on
▁merg er,
▁programm es
▁Cub a,
A Y,
p age
r um
is es,
▁S ett
le vant
ot o
▁C V
▁W il
IT RA
am es,
▁RE M
▁WITH ,
▁claims ;
▁REPRESENT S
olog ical
▁sal e.
ang a
▁misrepresent ing
▁mal icious,
▁proced ural
▁den ied
▁princ ip
▁Card s
▁Sec ond
▁Rel ations
▁research ,
cel erate
▁COMPONENTS ;
▁es c
▁Div ision
▁CAPAC ITY,
oles ale
▁JotFor m
▁dimin ish
▁wel comes
▁then- applicable
▁UNEN FORCEABLE
B ,
C ity
G AN
S ur
v y
or .com
▁S AR
cl ip
▁may :
▁M ovie
am ing
IN ING
▁access ed,
▁“ H
▁V an
▁can ’t
▁rest raining
▁rest ocking
▁mis -delivery
▁Account ability
▁LAW FUL
▁ed ited
▁origin ated
acc ur
co hol
▁SOFTWARE .
▁Reg istry
▁prevent s
▁carri ers
▁terror ism
▁impos es,
▁ACTUAL ,
▁campaign ing,
▁occurren ces
cell aneous
▁alloc ation
osp ital
▁COMMIT MENT
▁surrept itiously
V iew
m ans
p ool
p ower
y e
in ety
▁S mall
ar rant
res s.
▁M ap
IN AL
▁E DIT
▁website 's
▁Service 's
▁trans form
▁SITE ’S
▁non- c
▁K al
▁pr or
▁ST OR
▁system atically
▁Inc. ’s
▁Cl aus
▁enc od
▁need s.
▁4 .
▁REQU IR
AP P
▁CRE ATING,
▁incur ring
▁DMCA ,
▁PROC ED
▁shipp ing,
▁Har ass
▁Imm igration
▁Jerse y
▁Hers ch
/ terms
s pect
▁t ill
▁A z
▁I DE
▁right fully
ag ging
▁The B
▁pri z
▁service (s)
▁ass ure
▁computer ;
▁TRA VEL
▁GOOD -WILL
▁SUPPL Y
▁plan .
▁deb ts,
▁reflect ,
▁Network s
▁stor m,
▁Trans port
▁INTER CE
▁correspond ence,
▁decl are
▁Apple ’s
▁Operator ,
▁safeguard s
▁engag ement
▁Sur vey
▁schemes ;
▁Angel es,
▁convey ed
▁Corp .
1 6
b el
d f
w ood
re m
▁con du
▁C amp
▁W ERE
ER ENT
cl ub
▁B oot
▁F un
os ;
IL D
▁H AY
▁H ung
▁St .
▁St and
▁collect s,
▁age ;
▁dec ency
▁protect s
▁THERE WITH
.com/ legal
▁sub- domain
▁believ es,
▁prevail .
▁BU Y
gu ide
▁itself .
▁carry ing
▁ο f
▁algorith m
▁anti- spam
▁MAINT AIN
▁convers ion
▁filter ing
▁EXPLICIT LY
▁GOOD-WILL ,
- ident
- OF
1 01
7 7
G .
H Q
N OT
c am
k er
o ices
▁w arehouse
▁b ureau
ro ck
▁A venue,
il s
▁W iz
▁res um
▁F oot
▁Th om
▁M IND
AL E
▁H ero
▁const rue
▁pre mises
▁promot es,
▁delet ed.
(s) ;
▁(" Linked
▁Bl u
▁nature ;
▁Sh ar
▁Pay U
▁retain ,
▁AFFILI ATE
▁educ ation
▁Credit s
▁WRIT ING.
▁comb ined
▁legisl ation;
▁level s
▁PH OT
▁“T rademark
▁disast ers,
▁reform at,
▁Def ame,
▁prosecut ing
aint iff
▁launder ing
▁(Indemn ification
DEL IVER
H R
k a
m ont
t xt
▁in ad
▁T en
▁T ip
▁W ater
▁F ront
▁R C
▁user -generated
▁app e
PR ESS
▁effect iveness
▁pass ing
▁activ ation
▁month s,
scrib ed
▁quest ion.
▁benefit ,
▁differ ences
▁Trojan s,
▁19 88
▁integ ration
▁manufact ured
▁discrimin atory
Your Guide
▁anal ytics
▁clip s
▁ONLY .
▁Los ses
▁residence ,
ICI AN
▁symbol s,
▁Respon sibility
▁BLO CK
▁BENE FIT
F ox
P rivacy
â 
▁d river
▁IN S
▁site ’s
▁H T
oc u
LE AR
▁consent ed
▁pl aintiff
▁UN KNOW
▁il leg
▁correct .
▁inj uries
▁Sh ort
▁Sp ot
▁Sp am
▁HARM ,
AC Y,
au ce
▁clear ing
▁Tw o
▁ev id
▁stream ing
▁“Services ”).
▁defin ition
▁answ er
fort un
▁homep age
▁accompan ied
▁SELL ER
▁Disput e,
▁perpetu ity
▁"you "
▁THEREFORE ,
▁FRE ED
- W
O ID
c ode
i w
o ly
▁O reg
▁( on
▁( your
▁F Z
el anc
▁H olid
og o
▁“ s
UR N
▁ent ertain
▁non- payment
▁V EN
▁govern .
ven cy
▁condition al
▁www. g
▁3 60
▁dec ency,
▁issu e,
▁Communic ations.
▁description ,
▁Buy er,
▁Google ’s
▁emb ed
▁call ,
▁robot s
▁Is su
Pl ayer
▁asse t
▁misconduct ;
▁E- mail
▁REFER ENCE
▁DELIVER ING
▁Tor ont
▁debt or.
▁MasterCard ,
▁you' re
▁Medi ation
▁nomin ated
▁genu ine
▁Upgrad es
h om
l ack
▁w indow
▁m ask
eb y,
st ock
if ts
▁out come
▁LIMIT S
▁contract ed
▁J AM
ividual s
▁fil es.
▁Ch in
▁year ly
▁anyone 's
▁ship ments
▁NON E
▁tra in
▁harass ment,
ik a
▁Host ed
▁settle ments
▁Plan ,
▁CONS OLID
▁FA Q
▁asse ts,
▁Ab use
▁aris es,
▁serious ly
▁PUBLISH ED
▁AMERIC A
▁inactiv ity.
▁512(c)( 3)
▁Exam ples
▁practic able
▁STAND S
Tun es
▁condu it
H OST
▁on e,
▁v ice
▁Th reat
▁M ir
OR TS
iv es,
▁Content ),
▁if rames
ap os;
▁program .
▁exerc ised
ix ,
▁PARTIES ”)
▁9 9
▁Membership s
▁Co vered
▁spid ers
▁Sec ret
▁Em pire
▁Chan ge
▁DES IGN
78 -
▁inflamm atory
▁ti ers),
▁bankrupt cy
▁Ut ah
▁Stri pe
▁Fant asy
▁MANUFACT UR
▁Studyport als
C all
W atch
u ary
ed ge
▁re plic
▁con venient
▁P sych
▁B G
ran et
iv a
are ,
ist ing
▁St ation
▁mod em
ili ation
▁indemn ity,
▁agent s.
▁expens es.
▁return .
▁Submission ;
▁ce lebr
▁subst ance
▁Subscriber 's
▁Per form
▁discuss ions
▁occas ioned
▁schemes, "
▁Fre edom
▁SM ART
▁Flo or
▁Par agraph
▁Lo op
▁gamb ling,
▁compatibility ,
▁men u
▁Assign ed
▁chequ e
▁e.g .
▁inaccess ible
B ACK
f ree
h ak
l or
▁ ‎
en ior
▁p ol
▁f ashion
▁C orn
st all
un o
▁OR GAN
▁F SIM
IC ANN
▁R un
ost ing
itt le
CL AIM
▁data )
▁non refund
▁notice :
ue ens
▁app reci
▁const ru
▁infring ers.
▁J ERSE
work s
▁DE VE
▁interest s.
▁care .
ix ed
.com/ terms
▁suggest s
▁circumvent ing
▁faith ,
▁opt ed
icro soft
reg ister
▁TECHNOLOG ICALLY
▁OBTAIN ING
▁Promote Labs
▁exact ly
▁Sn ap
▁BARRED .
▁Cas ino
▁predecess ors,
▁congest ion
▁promulg ated
- 12
B E
I nc
M ARKET
▁ >
▁in act
▁you )
ar is
cl oud
▁F ap
▁M us
▁ap art
▁non- re
▁Sub sect
▁eng ine,
▁mess aging,
▁Material .
▁support s
▁dem ographic
▁Sh e
▁effective ly
▁Q S
▁receipt .
▁plan n
▁10 %
igh b
▁Inc ,
▁Wik imedia
Ch eck
▁test ing
▁REF LECT
▁affirm ations,
▁tag s,
▁redistribution ;
▁Email :
▁sum mary
▁frequ ency
▁Fresh L
▁PRACT ICE
▁SOUR CE
▁Unt il
▁DEVE LO
& apos;
3 5
E U
M D
M IN
P AR
g age
▁s itting
ic on
▁S a
▁A riz
▁n inety
ite ct
ab ad
▁AN OTHER
▁D eck
▁F X
▁law )
▁H el
▁H IGH
▁up ,
▁obtain s
▁credit ors
▁Information ”),
▁arbitr ations
▁pat ch
▁bill ing,
▁inform ally
▁civil ,
▁offensive ;
bur s
▁brand ed
▁col or,
▁dispar aging,
▁mechan ical
▁play ers
▁met at
▁Ord ers.
▁Fran ce
▁Disclaim er,
▁Get YourGuide
▁claus e,
▁aris es.
▁Upd ates
▁COMPL Y
▁propriet ary,
/ind ividuals
78- 7879
/ or
S ites
m ost
in ning
▁re activ
▁T AIL
▁S ix
▁A uction
il ation
▁pro scribed
▁h ell
ut ive
▁ex empt
▁F IVE
▁Service :
▁warrant ed
▁sup plies
▁AG E
▁oper ations,
▁J o
▁perform ed,
▁Product (s)
▁employe es.
▁CONSEQU ENCES
▁min utes
▁files ;
▁Membership .
▁entities /individuals
▁browser ;
-c alled
▁Em erald
▁Fin al
▁lo an
▁fulfill ment
▁depic tions
▁forfe ited
▁Afric an
▁CONSULT ANT
▁Illino is,
▁Malays ia
▁pan el
▁FREED OM
c rap
m ovies
▁ ́
▁t rou
in i
in ary
▁w atch
▁B ur
▁M CL
ag ue
▁E ss
▁Com pliance
▁out -of
▁V ers
▁J ap
▁publish ing,
▁process ors
▁sim ple
▁ro le
▁enc rypt
IZ ATION
sh irt
▁client s,
▁integr ated
▁point ers
▁institution .
▁exam ples
BO OK
▁MO TION
▁Refer ral
▁behavi or,
▁SM ALL
▁newsletter s,
▁Resell er
fol io
rior ity
▁EVALU ATE
▁Similar ly,
▁eman ate
▁INTERCE P
1 .
F eed
S earch
▁w allet
▁T F
il m
▁con clusions
▁I CP
for um
▁D F
▁E agle
▁IN FOR
RA ND
▁app arent
▁web -based
▁accept ed.
▁them ;
▁2 2
▁SP AM
▁deal t
ix el
▁ra re
▁extract s,
▁scra ping
ift een
▁WRIT ING
▁Corpor ate
▁Statement .
Ar tic
▁DOCU MENTS
▁(htt p://
▁injuri ous
▁Java Script
P ress
c ar
f ox
‐ mail
er a
re view
ing er
▁f aster
▁S pl
▁S av
▁S MS,
▁A W
▁A x
▁( ad
▁D I
▁we ight
▁“ hidden
▁V apor
▁regard ,
▁Re venue
▁assum ed
▁Prov isions
▁transl ation
LET E
▁issue .
▁ordin ances,
▁vent ure
▁Conn ected
▁Sur vival
▁Procedures .
▁ELE MENT
▁choos es,
▁screens crap
▁royalt ies
▁PHYS ICIAN
▁INTEG R
▁DISCLOS URE
▁Intro duce
P lan
m ast
se x
▁W ay
▁P or
ate .
ra pe
▁B reak
▁ad -free
▁comp rehensive
▁en ough
▁go es
▁St ack
▁off -site
▁Company ;
▁breach es.
▁license (s)
eg al
▁pr udent
▁enforce able,
▁process ed,
▁ret ro
") :
Con s
-S ERVICE
▁judg ement
▁suspect s
▁book ed
▁inaccurate ly,
▁sever e
▁quot ation
▁reject ed
/d e
▁TR UTH
▁DOLL AR
▁is, "
▁Bet a
▁SPONS ORS,
▁Dunz o
▁WWW .
A s
G en
M on
h o
▁S et
ar ious
▁A uthorised
▁O ri
▁W ebs
▁e ‐mail
▁for .
id o
em ical
▁M el
▁E AS
AS S,
▁V enue
▁US ERS,
▁Account "
▁For ms
▁assign ing
▁bind ing,
▁submitted .
▁exploit s
▁force .
▁deve lo
▁distribution .
▁8 00
▁sound s
▁sav ed
▁THEREIN .
▁Promot ions
.3 .
▁unrest ,
▁Car ri
▁RESERV ED.
▁pre-screen ,
▁Mess ages
▁Infring e
▁INFOR MA
▁screenscrap ers.
- year
B G
B OD
Q ,
R ad
▁A vailable
▁O Ü
▁con v
▁M all
▁at tent
ph a
▁1 01
▁cost .
▁down grade
▁DAMAGES ;
▁elect ion
▁above )
▁basis )
▁fram ework
▁Group .
▁medi ator
▁Post ings
▁attack s,
▁discuss ions,
▁pict ure,
▁(x iii)
fram ing
-7 78-7879
▁Netherland s.
▁authorship ,
▁FC 2
▁ven ue,
▁invad ing
▁DENIAL -OF
▁DEEM ED
▁DENIAL-OF -SERVICE
/ f
O ff
ο r
al es
▁A WARD
▁P AT
st ep
art ic
▁F ol
▁F als
▁so -called
▁R ocket
ens es.
▁express ions
▁agreement ;
▁off ers.
▁contract s;
ures .
▁upload ed.
▁(“ R
▁Party ;
▁case ;
▁cannot ,
▁Ch enn
▁Bl iss
▁deve loper
▁ID s
▁format )
▁Seller 's
▁Program s
▁Co .,
▁resident ,
▁requirement ;
▁accident s,
▁DISCONTIN U
▁ED UC
▁Consult ing
▁Spons or
▁pursu ing
vil le
▁animal s;
▁configur ation
▁inad vertent
it ig
erm ark
ol ved
qu art
ard ,
▁H it
▁FOR :
▁order ed.
▁public ations,
▁Software ”).
▁entity ’s
▁Sh aring
▁located ,
link s
▁logos .
▁VIRUS -FREE
▁occur ,
▁suggest ed
▁Ass ist
▁brows ing,
▁SUPPLIERS )
▁REMEDY .
▁affirm ative
▁Professional s
▁Est ate
COMM UNIC
▁extra ordin
▁slander ous,
/ 6
K .
V ID
ar u
▁A AP
▁acc rue
▁B as
▁B ased
▁D ate,
▁F u
et ime
der s,
os er
▁Website 's
▁R oll
▁G raphic
▁comm erce
▁" V
▁St rateg
▁purpose ly
▁contact ed;
▁ident ifies
▁le ader,
▁AVAILABLE ,”
▁www. k
▁ce asing
▁encoura ge,
▁harass es,
▁choose .
.COM .
▁datab ases.
▁internet .
▁INTER N
VEN ANT
▁etc. ).
▁bar ring
▁less er
▁ADVERTIS EMENT
▁Sou thern
▁Sim ple
▁VI EW
▁CO VENANT
▁forfe it
▁config uring
▁DEC ISIONS
▁Block ed
▁TELE COMMUNIC
▁Pear son
▁ATTORNEYS ’
▁vest ed
▁sust ained
▁arri val
▁appe ared
B uzz
E WS
S IDE
h elp
p olicy
s g
v )
▁not ifies
▁ex clus
▁as certain
▁B ull
▁D P
▁L IN
▁M r.
▁N est
▁ANY .
▁R R
▁R and
▁In accur
▁G eek
iz ation,
▁applicable ).
▁V eg
ast e
▁Ar ts
▁surv ive,
▁RESULT S,
▁TRANS MIT
uc lear
▁contribut ing
▁proceeding s.
▁unavail able,
▁SYSTEM S
▁later .
EL S
▁lik eness,
▁reside .
▁categ ory
▁200 3,
▁intercept ed
▁CONTROL ,
▁campaign s
▁estim ates
▁CURRENT ,
▁“O r
▁EXIST ENCE
▁percent age
▁CONSUM ER
▁produc ing,
▁GAM ES
(ies ),
▁discrepanc ies
▁STANDS 4
M aster
b er
▁a fo
re w
ar iff
▁O k
ab ot
▁is /
res aid
AR ILY
▁including :
▁site 's
▁In clusion
li k
▁SU E
▁Policy "),
▁them )
▁visit ,
▁https:// c
▁restrictions :
▁Am ount
▁wish ing
▁cap abilities
arm a
▁feed s,
▁LAWS UIT
▁DISTRIBUT ORS,
▁unin stall
▁Ob lig
COMP ANY
▁unaffect ed
▁Waz imo
▁afo resaid
C M
R em
p at
▁A w
▁l ife
▁P ORT
ra vel
ver e
▁Services ”
▁Services ”).
ist s
▁J et
▁text ”
▁individual s.
▁basis ;
▁care ,
▁Media .
▁tax ing
▁Te a
▁fram ing,
ffili ated
▁Ag greg
▁Personal ly
▁course ,
▁ACKNOWLED GES
▁(if rames
▁WEBSITES .
▁confidence ,
▁199 6,
Sp inning
▁POLIC IES
ICI ENT
▁INST ALL
▁sol utions
▁(“A greement
▁“Pro duct
▁element s.
▁CE ASE
8 ,
H ome
d a
at o
▁n uclear
▁res ides
▁OR ,
▁L angu
▁no .
▁NOT ,
▁BE ING
EN ANCE
▁out ,
uthoriz ation
ever se
▁work (s)
▁disclaim ed
▁cancel ed,
▁18 .
▁[ eight
▁accom pl
▁Supplier ’s
▁Wal es.
▁fulf illing
▁occas ion
▁Period ,
▁depict ed
▁YEAR S
▁you’ ve
▁disast er,
▁MAINT ENANCE
▁154 2,
▁RECORD S,
prov ided
atin um
▁LAST S,
▁(reg ardless
G ROUND
T oday
U MS
] ,
t ing,
▁a id
▁p etition
▁s mart
▁S ed
▁h d
ER PA
ess ion
▁F AM
▁We ’
plic ation
▁“ the
▁conditions ;
▁" offline
▁non- a
▁only )
vern ment
een ]
▁adv ance,
▁Product s)
▁memb er.
▁correct ive
▁Ch arge
▁(" R
▁AGREE ING
▁every one
▁FREE .
vers ion
▁LEGAL LY
▁dissemin ation.
▁Contribut ions,
▁shipp ed,
▁tamper ing
▁rating s
▁HARDWARE ,
▁reco vered
▁Badge :
▁model s,
▁accompan ies
▁vo ice,
▁trade- mark
▁[eight een]
G et
L T
b ody
f ts
▁w ag
▁re claim
▁f ifteen
▁n umer
om a
▁P i
▁P CI
▁F M
▁F act
▁L if
▁N A
▁IN ,
end s
▁have .
▁H op
▁G arden
▁pay ,
▁app s,
▁Un l
ound s
▁perform ing,
▁Submissions ;
▁(" F
▁(1 3)
▁compet e
▁7 0
arn ish
▁Off ered
▁Purch ases
▁USERS .
▁Inst a
▁experience ,
▁“Terms ”)
▁(hereinafter ,
▁room s
▁Phot o
▁(“A ccount
▁district ,
▁Main ten
▁Stream lined
▁"Agreement ").
▁conting ent
▁(iframes )
8 .
9 5
S ome
f ire
s ",
t a
▁to k
▁S pect
▁con d
▁M eg
ver age
▁E s
▁R ule
el i
▁G irl
▁lic ences
▁ent ers
let ter
▁inc ap
▁1 R
▁pre c
▁Wh ether
▁effective .
▁Mark s,
▁re- en
▁engineer ing,
▁opportunity )
▁manufactur ing,
itch en
▁Fac ility
▁preserv e,
▁INDEMN IFY,
▁navig ation
▁INVEST MENT
▁DEC ISION
▁dialog ue,
▁Delaware ,
▁Damag es
▁Qual ity
▁1-800 -778-7879
▁Hersch el
▁hell o@
B .
G ames
V C
Y OU
j ay
▁C Y
▁B oost
▁F ILE
▁E Z
▁R ate
▁st ep
ip st
▁def ici
▁email :
▁RES OLVED
▁(“ you
▁rec re
▁amount ,
▁Dis play
▁Polic ies,
▁Parties )
▁i P
▁i Tunes
▁attribut ion,
▁option al
▁"S oftware
▁approve ,
▁Microsoft ,
▁minors ;
BO X
▁wrong ly
Ad ditional
▁Manag er
▁stream ,
▁Indust rial
▁EXPENS ES,
▁mot ion
▁inher ent
▁“in cluding
▁Muse um
▁RELATIONS HIP
▁SUBSCRIB ER
▁Differ ent
▁Depart ment,
▁(ad ditional
▁extraordin ary
P E
f il
t ract
at rim
▁T up
▁O T
em y
▁F actory
▁L es
▁M en
OR IES
▁available ;
▁FOR UMS
▁" W
▁WH OM
▁Policy ;
▁qu iet
ceed ing
▁ens ures
▁obscen e.
▁OFF ERS
▁mail ;
▁Dis rupt
▁satisf act
▁Person s,
▁best ial
OP E
.net ,
▁cach e,
▁harvest ,
OG N
▁embargo ,
▁stalk ing,
▁512 (f
▁exc use
▁Se lect
ams ung
▁“Website ”
▁Pur pose
▁lev ies,
▁Pol and
▁we’ ll
▁retransmit ,
SEL F
▁SAR L
B usiness
D .
I .
e ure,
é b
it as
ou s.
ed oph
▁S ony
▁A 2
▁l atter
▁P add
▁( ”
▁U T
▁U NT
ra ce
▁D yn
▁F ab
▁F ort
▁M ade
▁M edic
▁ad s,
iv ity
▁In come
▁cl ub
▁H yp
▁int ang
▁“ strong
▁se en
▁1 .5
▁2 7
e. in
▁As semb
▁new ,
▁year .
ick er
▁day )
▁Sp read
▁“S oftware
▁deliver ed.
▁updated .
▁deb ts
▁decomp il
▁book ing.
▁REASON ABLY
▁administrative ,
▁settle ment,
▁Microsoft 's
▁controvers ies
▁PLATFORM .
▁corruption ,
▁show s
▁Represent atives
▁RESTR ICT
▁INFRING E
▁AUTHOR ITY
▁IR RE
▁Delh i
spec ific
▁“strong ”
C ont
M oney
S ervices
g ister
l ast
▁ raw
▁in active
▁O d
ot ech
▁C ENT
▁P te
▁P II
▁F ever
▁M any
▁cl os
▁cl oud
ip es
▁“ The
▁“ robot
▁mod els
▁SU PER
▁US $
00 ,
▁Information ;
▁Su ccess
▁submitted )
▁record s.
-S h
▁notification s,
▁PR H
▁LEGAL ,
▁bank s
▁ordin ary
▁Promot ional
▁De pending
▁adequ ately
▁MIS CON
▁(x iv)
▁consum ption
▁Elect ron
▁Complain t
▁Lo an
-A VAILABLE
▁Vent ure
▁disturb ance,
▁PROT ECTION
BU Y
▁wea pon
▁RESOL UTION
▁ATTRIBUT ABLE
▁INTERN ATIONAL
- H
B uy
N ew
T ING
V IS
a ad
s ign
u el,
▁re duced
▁S N
▁S now
ot ic
ur a
▁( me
▁B an
▁D M
▁g rat
ies .com
▁Com ment
▁applicable ),
▁EX AM
▁" Communication
▁sup p
▁add ing
▁Any thing
▁event .
▁K el
▁J .
ook ie
▁purchas ed,
▁LIABLE ,
▁monitor ’s
▁Al b
▁instit ute
▁truth ful,
▁Care er
▁Exper ts
▁INST RUCT
Tube .com
▁("Content "),
▁holid ays
lu ence
Care ers
▁Quest ions
▁Friend s
▁INJ UN
▁is/ are
. cc
8 7
B e
J et
▁re organ
▁P en
▁P ure
eb ec
▁( pass
▁B OD
▁B enef
▁un c
RE T
▁N L
ust ral
▁G S
▁LI F
▁RE AL
▁(“ L
▁2 6
▁either :
▁determ in
▁PURPOSE ;
▁fin al,
▁functionality .
▁Limit ations
▁AP N
▁Ag ain
▁Law s,
▁group ,
▁REQUIRE MENTS.
▁"A s
▁"A ccount
▁“M ember
▁consum ers,
▁STATEMENT S,
▁(“Terms ”)
▁Sk y
▁Imperson ation
▁PARTICIP ATION
▁AC QU
host ing
▁Record s
IFT Y
▁Sus pens
▁accru ing
▁Mich ig
▁Christ ian
▁IMPORT ANT
▁Fals ify
▁MISCON DUCT
d ated
i ’s
i ams
r un
▁s ide
▁in -person
▁f ace
▁T ru
▁T err
▁pro xy
▁P M
▁F IFTY
▁co gn
▁material ’s
AR GE
SE CTION
▁G P
and al
▁RE CO
▁" We
▁direct ions
ile ,
▁K EE
▁oper ate,
▁submit .
▁refund s.
▁As h
▁enter ing,
▁place ,
▁areas .
▁adapt ations
PER FORMANCE
▁par am
▁“as -is
net ic
MED IA
▁stor ies,
▁Post ed
▁administr ators
▁Qu ebec
▁countries :
vis itor
▁DMCA .
▁Port al,
▁adequ acy
▁registr ations
▁Rem ed
▁lock out
▁Waiver .
isc ount
▁disturb ances,
Book s
▁EAR TH
▁EXPECTATIONS ;
▁stud y
▁Controll er
▁Cyp rus
▁AUT OM
▁Cours es
▁DEVELO P
/6 79
. w
. ae
D ash
F ly
K ey
P r
r as
▁w il
ic ens
▁T im
▁m ir
▁S AME
▁you ng
▁A gree
▁O ra
▁W r
▁W ild
ran ce
res s.com
▁M US
ies t
ad s
▁does n’t
ator ,
▁privacy )
▁qu ery
▁them selv
▁author is
▁Re ach
▁Ar m
▁vers ions.
▁program s.
ORE D
▁enc umb
▁OUT SIDE
▁exerc ises
▁Lic ense,
▁relationship s;
▁DEF INED
▁TE AM
▁Inter est
▁COUR TS
▁INCLU DES
▁Shop ping
▁Wal mart
▁situ ation.
▁Fin ance
char ges
CRIP TIONS
▁“F eedback
▁(“M obile
▁“sp ider
▁VER IFY
▁Gall ery
▁ABS OL
▁ele ments,
▁INJUN CT
. lk
2 .2
9 1
B iz
J AMS
h tt
h ead
o z
it ions,
▁s n
us er
▁O x
▁O cean
▁I PR
erm ination
cl ass
▁B H
▁F UT
el o
▁vi able.
▁" stalk
▁off ending
▁respect ,
▁non- b
▁form ed
emb ership
▁(“ Mark
▁ed iting
▁(1 5)
▁rele ases,
s.com /privacy
Con nect
▁DEF ENSE
▁Z B
▁disrupt ive,
▁stor ies
▁establish ing
▁Trans l
▁exper ts
▁Discl osure
▁avoid ed
▁upgrad es,
▁(E X
▁environ ment,
▁UGC ,
▁(P ty)
▁(R ights
▁Hold ings
▁detriment ally
▁Mast erc
H e
Y E
c y,
al a
▁l end,
▁C W
▁res ume
ver ,
ad get
▁R ating
▁person s.
▁rights ).
ID .xxx
▁Product )
▁author (s)
UN IVERSAL
▁communications ).
▁CL ASS,
▁non-in fring
▁Property .
▁import ,
▁etc. ),
▁carri er.
▁INCLU D
▁object ives
▁stri ke
▁Porn ID.xxx
EP OOL
▁Den y
▁commun ity,
▁EXCH ANGE
EQU EPOOL
mob i
▁Delh i,
▁Emir ates
▁Conc iliation
▁INVESTIG ATIONS
▁FreshL ime
- specific
3 4
A VI
B L
D esign
T orrent
f ield
en er
▁b ought
▁f ifty
▁T REAT
▁T ouch
us .com
▁n ο
▁O ption
▁U I
AT ORS
▁R everse
▁st reet
▁st yle
▁G T
ult ure
ex ,
▁agreement s.
▁" Registration
▁licens es.
▁comput ing
edia .com
▁deriv atives
▁mail ings,
▁market ,
▁occur s.
▁domain .
▁ide a
▁recommend ations,
▁mult i-
▁Own ers,
▁carri age
▁improve ments,
▁Public ation
▁ADVERTIS ERS,
▁pict ure
▁crit ic
▁him /her
▁Adv anced
▁Crypt o
▁Massachuset ts
▁Accept ance
▁RUL ES
▁constru ed,
▁(me aning
C art
P AGES
U .
er ty
re ng
▁c as
▁c rime
or ing
▁b orrow
▁b arter,
al i
▁re tention
▁T ur
▁T oday
▁( provided
▁res idual
if ul
▁B er
▁un res
▁M alt
▁ob so
▁Com mission,
▁DA YS
ear ance
▁follow ing,
▁who le,
▁Account ”
▁Pl atinum
▁Ad Vis
▁SP IL
▁Re ason
▁Data ;
▁min ors.
▁Al t
▁invol unt
▁amend ments,
▁amend ments.
▁FAIL URES
▁consult ation
▁possess ion,
▁instructions .
▁Own er.
▁ethn ically,
▁aggreg ate,
▁Technolog ies,
▁litig ated
▁cach e
▁Li ke
▁official s
dom in
▁status ,
▁EU ,
▁fulfill ed
20 2
▁Super cell
ENC Y
▁Transact ion,
▁TA ITRA
▁(p lease
▁Children ’s
▁table t
▁Disclos er
▁2016 /679
▁Seat t
▁"sp iders
▁LL P
▁resc ind
mans hip
▁VEN UE
m ember
u pload
▁t ailor
er "
ent ai
▁re -d
▁f illing
▁T urn
▁l ar
▁O range
▁C ru
▁B ILL
▁B .V.
▁un it
am ond
▁all .
▁E ffect
▁R iver
▁im press
▁ar rive
▁H ere
▁G LO
▁G BD
▁" O
▁communic ates
▁rec ruit
irc raft
▁similar ly
▁Inc. .
▁DAT E,
▁threaten ing;
▁place .
▁advertisement ,
▁class -
ren e
▁technology .
▁expect s
▁integ ral
▁SY MPT
▁Inst agram
▁mist aken
/s ervice
▁Viol ation
▁Serv ers
▁doub t
▁MEDIA ,
▁CONTR IBUT
▁announce ments
▁nud ity,
▁gam ing
▁S. A.
▁Emb eddable
▁“Mark s”)
▁HAY MARKET
▁(pass words
▁SYMPT OM
C G
H A
M T
W P
b ank
l é
▁S ud
▁A ward
em ale
ER G
▁B ike
ION ED
ire ,
▁li ving
▁which :
▁post ;
▁ent rant
▁Use ”)
▁att ract
▁Product ions
▁Account s,
▁(“ we
▁individual ’s
▁IND IC
▁sign s
▁rele v
▁return ,
▁ACT IVE
▁gain ed
▁EN FOR
▁evalu ating,
▁worldwide .
▁15 ,
▁CIRCUMSTAN CE
▁cert ification
▁Ge o
▁(“F ERPA
▁instru ments.
▁CAREFULLY .
uil t
▁Nevad a
▁Stor age
▁Oh io
▁“St udent
. t
5 5
i as
▁b und
▁f uel,
an z
▁C G
▁P .
▁You Tube
▁B i
▁B ody
ran ders,
▁F AB
aw ay
IC TED
▁H at
▁G N
▁G ET
▁pre domin
ee per
▁J une
▁else 's
▁BASIS ;
▁“S ubmissions
▁patent ly
▁FREE ;
▁util ization
▁enjoy ment,
▁withdraw ,
▁EXP ENSE
▁Sol ar
In fo
▁vol unte
▁language .
▁Date .
ATH ER
▁past ,
ams adr
▁hour s,
▁Adv ice
▁(“Content ”)
▁counter-notice .
Them es
▁enqu iries
▁bal ances
▁POW ER
▁implicit ly
▁"You "
▁“Or der
- add
@ m
A b
e e,
v ideo
y g
▁c ο
▁T EN
ation .com
▁l at
▁other ’s
▁B rill
▁D ell
et .com
▁M osa
▁E nc
▁R U
AL ID
are l
▁rem un
▁RE D
▁pay s
▁suppli er,
▁ST AR
▁endorse ments
▁determ ines,
▁SP IZ
▁list ,
er. net
▁ship ment.
▁FUL LY
▁USER 'S
land .
▁back ground
▁dissemin ating
▁201 0
▁incomp at
▁affected .
▁begin s
▁INV ALID
▁operator ,
▁Sw itch
▁consist ing
▁Univers al
▁“Site ”),
▁appropri ately
▁anim ations,
▁letters ;
▁valu es
▁friend ly
▁chang ed,
▁Asian V
▁Opport unities
▁(“H IPAA
▁PEN ALT
▁Zy ng
▁Nest lé
▁RECO VER
▁FUT URE
▁class- action
▁SPIZ OO
. p
C OME
D ev
F unnel
L )
V ERS
i ec
▁w ater
▁A er
▁C ur
▁B R
▁B UL
▁D UR
▁F urniture
▁F ocus
▁L ets
▁N avig
▁E dition
▁Site (s)
▁ad mission
▁H aw
▁Agreement )
▁claim ;
▁non- ex
▁non- app
▁ident ification,
▁(“ B
▁Information "
▁obsc ure,
▁valid ly
▁CL A
▁sign -on
▁cho ices
▁OTHERWISE ),
▁Al f
▁domain s,
▁OWN ERS
▁back -up
▁guid es
▁Rights ”
▁attribut ed
▁fact ual
▁facilit ates
▁generally ;
▁open ed
▁feel ,
▁PRE VENT
▁Licens es
▁prefer ences.
▁mechanism s
▁prosec ute
▁explos ions,
▁stand ing
▁deep -link
▁SUR V
▁Extens ion
▁Moder n
▁pror ated
- IP
C lick
F rom
R ank
V oice
b o
b erry
e asy
▁ ult
▁or By
▁C art
▁W y
im do
▁( AS
ers ”
pl ifi
as s.
▁un mod
▁D eb
▁D IFF
▁F le
▁F LO
▁“ Re
▁adv anced
▁Int eg
▁err one
▁To y
ps on
▁entire ty,
▁know s
▁Comm un
ORE ,
▁profit s)
▁whatsoever ;
IZ E
▁TORT IOUS
▁http:// s
▁block ,
▁Ent ra
▁discover ed,
▁assess ments
▁attach ments
▁WOR LD
▁mot or
▁Pan el
▁Brow s
▁Twit ter,
▁brok er
▁JotFor m,
▁Jan uary
▁(“App le
▁Er r
▁crim es,
▁("Mark s")
▁DET AIL
▁Intellig ence
▁NAS DA
▁REM OVE
▁REQUIR ES
▁retro active
▁obso lete
d esk
f ig
▁ i)
in y
in al
▁s low
▁C rate
▁W AL
▁D u
▁F uel
▁L .L.
▁com ment,
od cast
▁im ages.
olic ies
▁def ame
▁web casting
▁complet ed.
▁limitation .
▁herein )
▁claims ),
▁possib ly
▁Client 's
▁Al pha
▁fraudulent ly
pos ed
▁LICENS OR
▁Member 's
▁opt im
▁Law y
▁DEL IV
blogspot .com
▁APP S
▁Rec ogn
Pro v
▁Prof it
▁official ,
▁impos sible
▁Organ is
▁"P rivacy
▁GTI ,
▁compr ised
▁co-b randers,
IE VE
▁refus es
▁Jud icial
▁($100 )
▁inquir y,
▁"your "
▁INCOM E,
▁(Cth )
▁SIT U
APP ROPRI
C ar
L oad
M an
S w
S chool
p ow
v ed,
en dit
▁A h
▁I O
▁h um
▁are a.
▁L etter
▁otherwise ).
ribut ion
so ftware
▁ref used
▁RES ELL
▁communications ;
▁interest .
▁valid ation
▁Ch ic
▁fraud .
▁Ind ones
▁18 72
▁Al ch
▁success ive
▁PR ICES
▁usage .
▁suspension .
▁SUB SECTION
▁standard s.
▁professional s
▁RIGHT ,
EAR CH
▁Me as
▁Att orney
▁default ,
▁repair ,
▁(x v)
▁ser ies
▁$100 .00)
▁Ab out
▁DESTRUCT ION,
▁"spam "
▁Next Roll
▁convert ed
▁exhaust ive
▁photocopy ing,
▁“spider ”
▁ENFOR C
L AND
N O
m ot
es ter
al e,
ro ps
▁T ours
▁S ri
ut ter
▁B ol
▁M at
▁M ary
am il
ow ards
▁such .
▁E sc
▁Service ’s
▁act .
▁G uru
▁al erts
▁WAR NER
▁Un ify
▁communic ate,
▁activ ate
▁obtain ,
▁illegal ity,
ret urn
FF IC
▁Ch urch
▁licensors )
URA NCE
▁arbitrator (s)
▁believe :
▁Websites ;
oy .com
▁USER ,
▁unre gister
▁promptly .
▁guidelin es.
▁attribut es
▁ADVICE .
▁visitor s.
▁Mod ify,
▁feel ”
▁Advertis ers,
▁DISP UT
▁Pass port
▁sw itch
▁Har ass,
▁waived )
▁Document ation,
▁analy z
▁Teach er
Or der
▁SUBMISSION S,
▁COL LE
▁(al so
▁end-us er
(g ).
▁fav our
▁Ora cle
▁predomin antly
J E
P rint
e er
g am
s es,
z ,
▁W ick
▁W ave
▁W ISH
▁be tt
▁P ICT
as .com
▁F ody
▁IN IT
ice .com
▁H eav
▁en em
▁notice ):
▁grant ed,
▁work manship
▁pass port
▁COM B
ob e
▁PRODUCT S.
▁suspend ed.
▁transact ional
▁Ch egg
▁exploit ing,
▁prevent ion
▁develop ,
▁statut es.
we et
▁Technolog y,
▁dissemin ated
▁records ”
▁enh ance,
▁Book s
/d esign
▁profan ity
Re alty
▁OBLIG ATIONS,
▁Sk ill
▁Cancell ations
-g ame
▁ENJOY MENT
▁friend s
▁HTML ,
▁SAF ETY
▁Supplement al
▁(“Feedback ”),
▁acquis ition
▁Opin ions
▁unilater ally
burs ed
▁accompl ish
▁(“FERPA ”),
- through
2 (g).
B ase
C ONTRACT
D N
T RA
u gg
▁S am
▁C ast
▁P ick
▁B ay
▁un ivers
▁D om
ub mit
▁R uss
lect ronic
▁“ educational
ach e
▁disc on
▁down grad
▁control s.
▁Web ,
ree k
ry st
acc ess
▁valid ate
▁Cl ip
▁given .
▁5 .
▁transl ation,
▁Communic ations,
▁confidentiality .
▁award s
▁bl ack
pe at
▁Off ers
▁Play ers
▁LOSSES .
▁button s,
▁intimid ate
▁DES CRIPTION
▁HIPAA ,
▁Par cel
▁SUFF ERED
▁(U se
▁elimin ate
▁aud it
▁Vent ures,
▁TA X
▁contra ven
▁123 2(g).
▁experi ences
▁MALFUNCTION ,
▁ATTEM PT
▁Vehic le
▁Tenn es
▁transform ,
▁PROCED URES
▁wil ful
▁INJUNCT IVE
/ im
G eek
p ed
u ous
on .
at .com
▁d iversion
▁T utor
▁A ve
▁C urrent
IT LED
ir ts
▁B AP
▁our s.
▁L ook
et ent
▁M ARK
ad a
▁Website (s)
▁R MA
ff ee
rans action
▁link ed,
▁G E
▁“ t
▁" DMCA
ove l
▁nam es.
▁pre dic
▁BY ,
▁work s.
▁jurisdiction al,
▁elect s
▁REL ATION
▁rec k
▁circ ulate
▁SP Y
▁new s,
▁consider ation,
▁(" EAR
▁OFF LINE
▁sour ces.
▁COMPANY .
▁organizations .
▁invest ment,
▁cease ,
▁LINK S,
▁photograph ,
▁investig ations
▁SUB CONTRACT
▁re- register
▁Law s.
▁sub-lic ense,
▁authorization (s)
▁medical ,
▁Vir us
▁Bit Torrent
▁decisions .
▁foresee able.
▁Min imum
▁junk ,
▁INDEMN IFIED
▁("S ite
▁“Website ”).
▁warn ing,
▁Note :
Vis itor
▁Distribut ion
uts ch
▁(“Google -Sourced
▁(“Google ”);
▁“We ”,
▁REGIST RATION
▁surve ys
Sites .com
P al
W in
Y C
f inder
i ens
o op
▁t ouch
▁t rovit
▁an oth
▁S ole
▁A IG
▁pro gress
▁C ow
ite ch
▁I ts
▁h urric
▁D rop
aw k
▁G PS
▁ag g
▁EX PERT
▁email ing,
▁inv ited
▁exp endit
LY .
▁J M
▁Web Site
▁computer ’s
▁As ia
▁del iber
apt op
▁occur s,
▁ACTION S,
▁goodwill ;
sh are
▁resell er
▁(ex press
▁COMM ENCED
▁render ing
▁clar ified
▁ARBITRATION .
▁tre nd
IDE O
▁merchand ise,
▁Le ague
▁CONTROL .
▁you’ ll
▁T&C s
▁answ ers
▁Cle ver
▁BRING ING
▁detriment al
▁“Third -Party
Cent ral
▁OPPORT UNIT
Class ified
▁"robot s",
▁lock-out s
▁Subsect ions
▁plann ed
▁bestial ity,
▁(“Apple ”)
ryst al
0 5
K E
O Z
O PER
p am
u its
y a,
it im
▁S eg
▁S AM
▁I con
▁I onic
pl ies.
▁F NG
▁M EN
▁M anga
▁N ob
▁N inja
▁ind ices
▁User ;
▁termin ations
▁RE NT
▁(in d
▁MA G
ap es
▁Software "):
▁over ride
▁delet e.
▁(1 8
▁Z oom
▁Sp eed
▁representative .
▁obscene ;
▁Gen et
▁7 5
▁subst ances
▁URL s,
▁pack aging,
▁enj oin
▁Suppli ers
.net .
▁ARBITR ATION,
▁OMISSIONS IN
▁ill ness
▁DISCRETION ,
▁De utsch
Ex change
▁Min nes
▁consolid ated,
▁PARENT ,
att empt
▁POLIC Y,
▁CR Y
▁Food s
Ar t
▁Guidelin es,
▁readers "
media .com
▁(“Content ”).
▁CHO OSE
▁Massachuset ts,
▁approx imate
▁birth ,
▁twenty -f
orpor ated
▁unforesee able,
▁careful ly,
▁INCOR POR
▁anti-spam ming
▁AdVis ible
▁Entra vision
N ING,
O OD
P DF
b uzz
n etwork
p .com
y o
▁o u
on es,
▁c ycles
al o.com
▁su per
▁D efin
et ing
▁M int
▁N H
▁comp uls
▁“ flood
▁V R
▁provision (s)
▁SH O
▁AD R
▁Ex posit
▁Ex press,
▁Ad vent
▁ARIS ES
▁Inc. 's
▁Ch ina
▁qual ification
▁prevent ,
▁red emption
▁arran ged
▁interrupt ed
▁interrupt ed,
▁Vis it
▁head quart
▁Fl ipp
▁Att ack
▁intimid ates
▁impose ,
▁Ident ifiable
▁negoti ation
▁DISTRIBUT ORS
▁Expert Voice
▁“Agreement ”
▁liquid ated
▁("M icrosoft
▁compar able
▁PROCESS ING
▁(“AAA ”)
▁blasphem ous,
▁illeg itimate
BOD Y
2.2 27
He art
▁("EAR ");
. ORG
2 2
D on
I ER
M obile
f ill
r .com
▁ ign
ur ity
▁C itiz
erv iew
un ter
ul se
▁provid ing,
▁so vere
▁H ef
▁“ N
▁Agreement s,
▁FOR CE
▁" Our
▁laws uits
▁result s.
▁users ),
▁oper ations.
▁ident ical
MS -Sourced
▁advertis er,
▁It al
▁(" MS-Sourced
▁quest ion,
▁Store ,
▁meas ured
▁modification .
tal k
▁Agent s
▁Prot ocol
▁Mod ifications
▁SE IZ
▁antic ip
▁constitut ing
▁Cre ator
▁prefer red
Ex pert
▁arose .
▁Subscrib er,
▁imit ated,
▁PROCE ED
▁entirety (ies),
▁CHAR ACT
▁MEDICAL ,
Shop ping
▁submitt ing,
▁MARKET ING
▁intellig ent
▁adjudic ated
▁INDUST RY
▁EC -C
▁methodolog y,
▁VM ware
▁ADDR ESS
▁unaccept able,
▁metat ags
▁develo ping
EQUEPOOL .COM
▁mistaken ly
▁("Microsoft ");
- law
@ c
F irst
G ood
L ear
M ap
P ING
i i
l if
▁t ariff
in ux
it ter
▁S EVER
▁l aid
th ,
▁W ise
eb ill
em p
▁M art
el ated
▁“ V
▁Pro of
ish ing
▁" WITH
▁se al
▁V AR
▁form ;
▁form ul
▁prom inent
▁Conditions ”)
▁Ap pt
▁register .
▁date ;
▁promot ed
▁DE LETE
▁alleg ations,
▁APPLIC ATIONS,
▁company _
▁https:// g
▁charge able
▁transl ated
▁transl ated,
▁(h owever,
▁meas ures,
▁$ 25
sh ort
▁administr ators,
▁TOS ;
ead ,
▁Indemn ifying
▁point ,
▁play ing
▁counter fe
▁counter claim
▁ADVERTIS ERS
▁occas ional
▁non-confidential .
▁API ,
▁ge ographical
▁MOD IFICATION
▁CR IM
▁“Website ”)
▁Read ing
▁(U K
▁ACCEPT ING
▁LE AST
▁Invest ment
▁Wikid ot.com
▁GOVERN ED
▁CAS ES,
▁insert ed
/t rademark
▁PROVIN CES,
▁RESIDENT ,
▁pol ice
▁1.5 %
) )
. IO
4 6
C ast
T e
W ell
d ate
l ive
n ings
u pon
on om
▁in -game
▁m itig
▁C ase
▁C ube
om an
▁be ars
erm an
st rap
▁M R
am ent
rom e
▁E lig
▁ANY )
▁G ear
▁notice ;
▁Comp lete
▁Use ”
ph en
▁j 2
▁inc ent
▁V ape
▁provision al
▁addres see
▁end s
▁over se
▁(“ Website
▁(“ Company
▁Products '
SO FT
▁indic ia
▁IT P
▁ra ise
▁“S ubscription
▁FAIL URES,
▁deliver ed,
▁find ing
▁$ 2
▁regular ly.
▁letter ,
UAL LY
▁Count ry
▁username .
▁Prot ected
ai j
.net /
▁FIN AL
▁rate .
▁“D ata
▁Char ity
▁HIPAA )
▁Inv oices
▁Est ablish
▁occurred ,
▁Chamb er
▁Writ er
▁He art
▁intellig ence,
▁RELE V
▁VEND ORS
▁“b usiness
▁INTENT IONAL
▁C. F.
▁Claus es
▁Fap junk
( S
- 201
3 6
@ b
R IES
d ent
f ood
i ries,
y ’s
▁ €
es p
▁f ig
▁T EM
▁S oc
▁A UD
un s
▁B ench
▁ad mit
▁Service ”
itt ance
s. txt
por ter
▁St rat
ABLE ,
▁pass es
▁LAW S,
▁ADV ANCE
▁suspend ed,
▁LIMITED .
con tain
aj ar
den du
▁medi ation,
▁engineer ing
EL P
▁STRICT LY
▁Propert ies.
▁infrastruct ure,
▁“our ”)
▁Mon itor
▁FURTHER M
▁comprom ised
▁(“S ubmissions
▁misconduct ,
online .com
ming, ”
▁"I ntellectual
▁syndic ators,
▁AMERIC AN
▁Imm edi
▁Innov ation
▁PRESENT ED
ati οn
▁CONSID ER
▁Miss ouri
▁Sund ay
▁Harass ment
▁"stalk "
▁Recogn izing
E d
K it
M ak
S ale
p ublish
▁s .
▁O ak
▁C ity,
▁h inder
▁B al
▁B all
▁L .
▁L oyalty
▁N ic
▁servic ing
du le
imit ed,
pro duce,
▁express ed,
▁1 Shopping
ack .com
▁licens ing,
▁sites )
▁K e
▁K ids
▁J imdo
▁individual ly,
▁list ing,
▁pric es.
▁SITES ;
▁hereunder ;
▁Linked In
▁sold .
blogspot .com/
▁Claim ,
▁Ph arm
▁Perm itted
▁ear ly
▁FUR N
▁intro duction
▁impos sibility
▁Min istry
▁adult s
▁charact ers)
▁Entities ”).
▁Le af
light s
▁staff ,
▁counter-not ification
▁SUFF ICIENT
▁Saf ety
▁Pack age
▁LAB OR
▁"Services ").
aa S
▁BACK GROUND
▁Ir ish
▁clearing house
▁numer ous
▁grat uit
▁EXAM PLE
▁"spiders "
▁Mosa ic
▁CLA USE
▁deliber ately
▁(ind ividual
▁Deutsch land
C ustomer
P UBL
T ECA
k y
o ption
r ush
s '
u an
z i
â €
▁s light
▁d anger
▁O UP
▁dis reg
▁M D
▁M ust
cept ion
▁1 st
▁des ired
▁regard .
▁against ,
▁Product );
▁Re lease
▁EVENT S
▁charges ).
▁ra pe,
▁4 .1
▁7 2
▁Ent rata
▁prices ;
▁Post er
▁princ iple
▁total ly
▁(E U
▁GENER ATED
▁Ident ity
▁EUL A.
▁LOC ATED
▁20 %
▁assess ment
▁BO ARD
.4 ,
▁couri er,
▁discussion );
▁"I ndemnified
▁lawsuit s,
▁COMPLETE LY
▁insur er,
▁exhib it,
▁successor 's)
▁Expl ore
▁Ran ch
▁94 10
▁intermedi ary
▁Liqu id
▁demonstr ations.
▁FAULT S,
▁Ori gin
▁Alch emy
▁unregister ed,
R ent
Z A
b omb
c amp
f air
i e.
m ag
n e
t imes
▁a .
▁a X
es ;
▁b id
us .
ab et
▁Y ear
▁your s.
▁ac adem
ud u
▁B orrow
▁F aith
▁E lements
IS E,
▁we ar
ich e
▁H S
▁damag ed,
▁" d
▁mod ified.
▁liable .
▁(b oth
▁ST OCK
▁(“ In
▁2 25
▁except ional
▁item (s)
▁compet ing
▁When ever
▁VIR T
▁specif ically,
▁Link ing
▁deal ing,
▁Subscription ,
ie .com
▁19 80
▁attribut ions
▁PL AC
▁COMM UNITY
▁Market er
▁reven ues
▁“A p
▁vend ors.
.in fo
▁forward ed
▁Department .
▁repair s
▁Log o
▁job s
▁DES CRIPTIONS
▁CHAR G
▁Represent ations
▁Sex vid
▁Dav id
▁PROMIS ED
▁degrad es,
▁declar atory
▁pattern s
▁NBC UNIVERSAL
▁REPUT ATION,
▁Sett ings
▁Jap an
▁param et
▁Sexvid .xxx
C AST
Y a
b d
r ink
▁c yber
ing ton
▁T om
▁m edic
ri x
▁C S
im iz
▁su c
▁D ER
▁v oting
▁M ULT
▁N UMB
ad ata
com fort
ub mitted
▁R ide
▁party )
▁H ospital
rad e
▁RE V
▁contain ,
▁r ata
▁prior ,
▁Sub mit
▁spec ul
▁te ch
▁AS PECT
▁Ad dendu
▁assign ed,
▁sim ul
▁Act s
▁invalid ate
▁pract ice,
▁Copyright s,
▁conflict ing
▁exclude :
▁Res ort
▁re- s
▁Provid ing
▁enh anced
▁“us ,”
▁cach es
▁minimum ,
▁renewal .
▁execut ion,
▁City Realty
▁Restrict ions.
▁character istics
-cl ient
▁Advertisement s
▁COMPAT IBILITY
▁Alternative ly,
▁Templ ate
▁Mumb ai
▁(VI I)
iec es
▁Heav y
▁anoth er,
- sc
F M
K ,
M ART
Y ello
q .
s n
v d
on -
re ative
▁c ases.
▁W indow
▁L an
▁L AT
▁M AND
iv en
▁H d
▁own .
▁reason ;
▁FOR UM
▁respect .
▁SU M
▁spec ified.
▁violation .
▁means :
ous ing
▁2 .1
▁promot ions.
▁compet itor
con nect
▁membership s
▁init ially
▁12 ,
▁12 .2
▁System ,
▁non-transfer r
▁“P ersonal
▁signature .
▁resident s,
▁INTERNET ,
▁“Service ”)
▁Lab or
yn ium
▁air time
▁drive .
▁Ed ge
▁tell s
▁non-assign able
▁fall s
▁East ern
▁John son
▁Gre ynium
▁MANUFACTUR ER
▁Por nd
/ T
B AL
B est
B oard
Y LE
f us
n ab
▁p et
▁s om
▁s ports
▁in n
▁S and
le .com,
▁C ross
▁be :
▁P IN
▁D at
▁D BA
▁g ave
▁R o
▁LI GH
▁inter state
▁rem ind
▁claim ant
▁RE PRO
▁Comp rehensive
▁def acing
▁publish es
▁regarding :
▁(“ E
▁Party 's
▁list en
▁(or ,
▁transact ing
▁del inqu
▁check ,
s.com 's
▁stor ms,
▁ann ivers
▁treat ies,
▁click s
▁transmitt al
▁install ation,
▁PERFORMANCE .
Cl oser
▁Plan .
▁Merchant s.
/s ub
For All
▁execut ive
▁Docu ments
▁(“S ite
▁PayPal .
▁Gam es.
▁“B lack
▁“Your ”
▁Saf e
▁art ific
▁Star b
/m obile
▁CANCE LL
ceiv ed
▁Know ledge
▁remark s,
▁ATTEM P
▁Colorad o
▁Dut ch
▁rect ify
▁AZ TECA
iF i
▁Fus ebill
▁relinquish ment
▁Wis cons
▁TELECOMMUNIC ATIONS
▁Inaccur ate,
▁Sed o
▁KEE P
▁Ox ford
▁reck less
4 9
D ec
M o
l it
’ .
in fringement
ou st
▁any ).
▁S RL
▁A CE
▁P V
clud able
▁M C
▁M ix
▁E B
▁E g
▁E lement
▁shall :
▁material (s)
▁H uman
▁cons pic
EM ARK
▁form ing
ob ot
▁elect ric
comm end
▁AD E
ANT AGE
▁sur charge
▁TRANS FER
up ees
▁Arbitration .
▁6 .
▁commit s
▁FE E
▁PL AN
▁identity .
▁Own er,
▁Trademark ,
.blogspot .com's
▁backup ,
▁non-refund able,
▁convent ions
cell ane
▁CHAR GES
MOV IES
▁Point s
▁TRAD EMARK
** **
▁ACTIVITIES .
▁Pear l
▁speak ing
▁auto- renewal
▁U. N.
▁illustr ative
▁Never theless,
▁CONSULTANT S,
▁FURTHERM ORE,
▁annivers ary
- comp
- employ
3 65
I Q
I AS
P oint
S ou
T ree
b b
r l
▁T at
▁y ο
▁A y
em e
st one
st atement
▁D ash
▁L ik
ag a
os ystem
▁material 's
▁non performance
▁SH IP
ax es
▁Wh eel
▁Ex cluded
▁one .
▁mat ters.
▁ACCESS ING,
▁entity 's
▁additional ly
▁Cl inic
▁custom ized
▁report ,
▁guid eline
▁$ 5
▁member 's
▁standard s,
▁https://www. m
▁Program s,
▁tw ice
▁value -add
▁“C opyright
▁deactiv ated
Us ers
▁“T erm
▁CAN AD
▁counsel ,
▁invent ory
/p erm
▁warn ings
27 .7
▁Ireland ,
▁CORRUPTION ,
ij ack
▁crack ing
▁regist ers
▁PRODUC ING,
▁(direct ly
▁UA E
iscl osing
éb ec
▁(“HIPAA ”).
3 00
F in
c ase
is ure
▁l ul
st a
▁D eep
▁L iv
▁st ory
▁site )
▁H ob
▁ag ed
▁rem it
▁comm encing
▁per t
▁non- disclosure
CH AN
▁rev ise,
ram e
▁Customer ;
▁illegal .
▁maintain ,
▁year ,
▁irre vers
▁Am end
▁hyper -link
ik id
▁Cal cul
▁Q atar
▁ut most
sh elf
▁assist ing
▁https://www. s
▁contest ,
▁reproduc ing
▁value .
equ e
▁waiv ed.
▁stock .
▁MOD IFY
▁CONST RU
▁Ver ification
▁invent ions
▁Next media
▁instru ments
▁BLACKBOARD ,
▁Di amond
▁associate ”
____ ____
▁Rew ards
▁Mad ness
▁Ann ual
▁efficient ly
▁Tal ent
▁compos ition
▁Far Closer
▁Ell i
▁Edit or
▁HUB PAGES
▁decis ion,
▁citiz ens
▁Shar p
▁JAM S,
▁remun eration
▁ENFORC EMENT
▁“Black board
7 6
A VE
C art.com
I m
M P
W ave
e R
g ame
w or
▁ ii)
▁t orrent
al ter
▁T utorial
▁A ce
▁W edding
im ent
▁P anda
▁( O
▁D V
▁L ank
▁M ENT
▁OF :
▁information al,
▁de le
ac es,
▁R ay
▁G L
▁Un ile
▁inv itation
▁Any one
▁who ,
▁court es
▁unl imited,
▁EXPRESS ED,
▁limitations .
ATE G
▁Ch ang
▁Sh ared
▁disclosure ;
▁ra ised
▁interruption ;
▁investig ating
▁Claim .
▁SYSTEM S,
▁EQU ITY,
▁(th ese
▁plugin s,
▁superv ise
▁div is
▁bod ily
▁Mot ion
▁“Agreement ”)
▁Hot els
▁TELE PH
▁tri gg
▁ML B
▁(https:// www.
▁persistent ly
Trademark s")
▁Syri a,
▁Final ly,
▁AsianV ote
▁aX celerate
▁CONSTRU ED
2 .com
M ountain
R es
U CE
W ,
c an
c raft
l es.
▁a ircraft
es c
▁p ush
is an
▁f ast
ar .
▁us :
ervic es.
▁OR NOT
▁D est
▁F our
▁L y
▁L ou
et ,
▁E th
ter ious
IS S
ub e,
▁G r
ist rant
▁order ed,
▁CONTENT S,
▁indemn ities
▁Pl ans
▁(a) :
▁assign ment,
▁assign ees
▁monitor ing,
▁guarantee .
comp ass
▁government .
▁controll ing
▁Sp ain
▁/ or
▁CORRECT ,
▁duplic ation,
eop le,
▁val ue,
▁complaint s,
▁health ,
te am
▁controvers ies,
▁shared ,
Ch arge
Sh ift
▁EMAIL ,
▁DISTRIBUT ION
▁GENERAL ,
▁schemes, ”
▁charg ed,
▁claus e.
▁counter-not ices
▁interface ,
▁Bet ter
▁supplement ed,
▁non-s ub
▁OPIN IONS,
▁Trust ed
▁TECHNOLOG Y,
▁remov ed.
▁fax ,
▁algorith ms,
▁refus al
▁Netherland s,
▁food p
▁CONTINU ED
▁lawy er
▁Stan ley
@g mail
fortun ate
▁́ s
▁DI Y
▁Haw ai
▁Exposit ions
▁FURN ISH
▁disreg ard
▁dele terious
( d
E K
▁m ap
▁S enior
▁pro ducing
im i
im m
ly .com
pl ant
▁L ifestyle
▁g ate
am an
▁E le
▁it iner
out s
ib terms
▁site :
▁G um
▁account s)
▁viol ations.
▁express ion,
▁" m
▁rev ers
▁V ac
▁UN L
▁credit .
go vernment
ell ow
▁Users ;
▁min us
▁jud icious
▁PROF USE
AD EM
▁ver bal
▁Store .
Th ese
▁9 11
▁Des k
▁gain ing
▁database .
▁Vis iting
▁hand held
▁Suppli er,
▁Sc ript
▁Hub s
.00 ),
▁Govern ment,
Pro ject
▁Sw ed
▁PROHIBIT IONS
porn o
▁Complain ts
Pay ment
tra il
▁hereto ,
▁disruption ,
▁symbol s
▁Lib ya,
▁analy se
▁RESTR ICTED
▁“Agreement ”).
▁Netherland s
▁VAL UE
s.com/ ibterms
▁Travell o
▁acquis ition,
▁ACCRU ES.
▁Partn ers,
▁www.internetbrand s.com/ibterms
▁energ y,
▁cell ular
▁Lesson s.com
▁re-en act
▁NASDA Q,
▁hurric an
▁RELEV ANT
& M
' ).
- 6
7 4
9 0
A ’s
D rive
E CH
T alk
n ing,
▁ ?
▁ rad
in em
▁th orough
ic om
ent ionally
an ish
▁A udio
▁con ven
ud d
▁dis e
AT O
▁M ET
ail ored
▁N .
com ing
▁R ug
▁G K
▁al cohol
▁RE ADING
▁" a
force ment
▁IS SU
▁indemn ification,
▁rest ored
▁qu arter
▁permission s,
▁assign ees,
▁arbitration ;
▁ro ll
▁waiver ,
log y
▁writing s,
▁Cl ips
▁sett ings,
▁irre levant
con n
▁invol ved.
▁ENT ITLED
▁NEG ATION
▁document ation.
▁format .
▁9 .1
▁http:// k
▁Gen erator
▁(h ow
▁$ 500
▁professional .
-b omb
▁DOWNLOAD .
▁incur s
▁countries ).
In vest
te chn
.co. nz
▁End -
▁reject ,
▁prefer ence
▁Organ ic
▁up-to-d ate,
▁16 ,
▁confus ingly
CO IN
▁misconduct .
▁“Site ”
▁Repro duction
▁Inv oice
▁superv is
▁hon ored
▁Park ,
▁aim ed
▁art ist
▁Save From
▁"E mail
▁experi enced
▁candid ates
▁Ce leb
▁“Trademark s”)
▁Toront o,
▁“as-is ”
▁ou ght
▁pert inent
P G
R S
T ext
V P
d esign
m ate
s ").
t )
in cluding
▁s abot
or ’s
▁to l
▁S EM
▁A ug
▁l od
▁O BS
▁C BD
▁e gg
ran k
▁D ar
▁dis aster
▁F ive
▁L C
▁Terms :
▁H OS
▁G h
▁G REEN
▁Pro gress
▁inc ites
▁J am
▁view able
▁amount s.
▁typ e.
▁support "
▁Sh ell
▁code ),
apt er
▁sent ence,
▁confirm ed,
▁publicity ;
sh ow
▁GU IDE
▁identity ;
▁COMM ON
▁14 ,
▁Upload s
▁Method .
▁cash ,
-m ain
(c )
▁Team Work
▁"spam ming
▁JUD GE
market ing
▁templ ate
▁La unch
▁"M aterial
▁exhib ition
▁pop -up
▁remark s
▁credential s.
▁Prom o
▁CRIM INAL
/ ,
I s
L og
U .S.
V ING
k u
m en
m ca
t e.
u a
at ial
▁s ample
▁w all
▁l ines
ot em
▁C y
▁P G
▁P eak
ervic e.
▁D IV
▁L ot
▁M AR
RE AM
ac le
OU D
▁Site ).
ENT S
por nt
▁RE IMB
PL ACE
▁loss )
▁Un i
▁public ly,
▁computer 's
ner .
▁submit s,
▁To S
▁conduct ;
▁Submissions :
▁arbitr ate,
▁e-mail ing
▁Data ")
▁3 1
▁mail ”,
▁https:// t
▁(v ideo
▁ins ure
ativ es,
▁Sp ice
▁compens ation.
▁red ress
▁disrupt s,
▁CH EQUEPOOL.COM
▁mult imedia
▁invas ion,
▁SUBSIDI ARY
▁COMMUNIC ATE
▁legisl ative
▁“C lient
▁($ 5
▁21 ,
▁Domain Tools
mo oth
▁SC OPE
▁Ob tain
Porn o
▁bann ers,
▁Tour ism
▁CONFIDENTIAL ITY
▁“Customer ”
▁Fed Ex
▁nontransfer able,
▁Drive ,
▁REPLAC EMENT
▁(l )
▁inadequ ate
▁1-800-778-7879 .
▁weapon s,
▁twenty-f our
▁Hef iced
▁REIMB UR
C EN
D o
D ate
m usic
x .com
it ude
▁re jection
ar an
▁A X
ri eved
▁W ol
ite ,
▁h ijack
▁M ic
▁N AM
ter ror
ig s
▁ap plies.
IS P
▁ad ware
▁rights :
oc urrenc
▁non infringement
▁Use "
▁conf ers
▁Int uit
▁3 4
▁edit ed,
▁ins ured
ik t
▁disrupt ions
▁guid es,
▁commit ments
▁endors ing
St ack
▁International ,
▁Provid ers.
▁Qu ant
▁Qu ébec
▁Me ans
▁SE X
▁“C ont
▁improper ly
▁stock ,
▁LIKE ),
▁Offer ings,
▁Sk in
/privacy -main
-w ide
▁Fan pop
▁specify ing
▁AC M
▁insur ance,
▁syndic ate,
▁Arbitrator .
▁homep age,
▁desktop ,
▁RELE ASED
▁Hom es
▁HOST ING
▁www.internetbrand s.com/privacy
▁ORIG INATION
▁REGISTER ED
/privacy-main .html
▁www.internetbrands.com/privacy /privacy-main.html
G G
S ystem
i en
j oy
▁th ousand
▁b rief
▁any t
▁T ab
▁S owards
ar ium
as .
▁B 2
▁M ent
OU S,
ad ers
ad der
▁st age
▁H OME
▁G ain
▁“ mail
▁inter change
▁V iz
▁K L
▁end ,
▁regul atory,
▁gu ess
▁AS -IS
▁2 )
▁cancel .
▁confidential ;
▁registration s,
▁occ up
▁company 's
▁tele vision
▁ra il
▁communication ),
▁both .
▁investig ated,
▁taken ,
▁blog 's
▁Des cription
▁arrangement s,
▁client ,
VEN IENCE
▁contractual ,
▁“A s
▁bec ame
▁fault ,
▁defamatory ;
▁Maj or
▁arch iv
▁derog ating
▁HOW SOEVER
▁replac es
.4 .
▁Flo Sports
isp utes
▁SC REEN
▁PARTICIP ANT
.blogspot.com/ 's
▁AC ADEM
▁adjust ed
▁Met a
▁Lib rary
▁Video Porno
▁cent er
▁Reserv ed.
▁Pal m
▁Victor ia,
Pass ForAll
▁Pak istan
▁princip als,
edoph il
▁unres olved
PassForAll Sites.com
A F
D iary
V ISION
f lix
▁ «
in es.
▁re duction
▁O PT
▁e C
un a
ol ution,
▁D rug
▁L as
ib ly
IC O
▁do ct
▁law ),
ub a
▁access ible,
▁rel ies
▁Services ),
s. in
▁Com cast
▁non payment
▁ref raining
▁email s.
▁effect s,
▁again ;
▁sus pic
▁LIMITATION S,
▁transfer .
▁obligation .
▁disclos ed,
ory .com
▁licensors ;
▁authoriz ations
▁resol ution,
▁COMPANY 'S
▁ENT ERTAIN
▁“S ubmission
eop ard
▁maj eure,
▁Co Star
▁AFFILIATES .
▁screen ing
▁Inst itution
▁ill ic
▁AAA 's
▁CUSTOM ,
▁exam ine
▁ear l
,000 ,
▁Care Guide
▁$100 .00
▁"P riority
▁"us ",
▁“Services ”)
▁"Service "
▁FAULTS ”
▁RESTR ICTION
▁RESOUR CE
▁Quest ex
▁FRAUD UL
▁Cop ac
▁exped itiously
▁redeem ed
▁franch ise
▁LESS ER
▁Offic er
▁Wil son
▁nonrefund able
▁(“Agreement ”)
▁"Priority "
4 u
5 12
B X
G uru
Q L
S ervice
i e,
n i
ou ncil
is claim
ed itor
▁T ort
▁S NS
th at
▁C ab
▁not ed.
▁I ce
un iary
ol utions
▁B uff
▁N ATIONS
ig o
ig nt
▁ar ise,
▁time )
ant ic
▁user (s)
one .com
▁display s
▁Policy :
▁Int entionally
▁jurisdiction ).
▁publish ers
▁unlawful .
▁Account s.
▁pos itive
▁month ly,
AD ER
▁AM END
▁saf e.
▁financial ly
▁ACT S,
▁PR ES
▁blog gers
▁INTERRUPTION )
▁supply .
▁digital ly
▁book ing,
▁DISC OVER
▁System s,
▁“P l
.co. za
public ly
▁NATURE ,
▁UK ,
▁management ,
▁INTERNET .
▁Organ iser
▁Project s
Sp ring
▁libelous ;
▁prob ing
▁skill .
▁(“P rivacy
▁Earn ed
ubscription (s)
▁PO INT
▁Fram e
▁Wall paper
▁EDIT OR
/de lete
▁SYMPTOM S
▁DELIV ERED
▁Ionic ware
▁academ ic
/perm its
▁FRAUDUL ENT
. P
. me
a ap
e ing
h ab
p a.
re l
▁p a
ic arious
▁b .
▁S &
▁S yn
▁A I
▁A ge
▁O ct
▁C over
▁C LEAR
ay lor
▁h tml
ers ”)
▁U G
pl it
▁B D
▁B V
▁un ity,
▁L ayer
▁M ANN
am ic
ag g
OU SE
▁content ).
▁R h
▁In clude
▁H al
▁H AND
RA N
s. co.
▁User (s)
▁“ Registration
▁“ Communication
▁Com ponent
▁Pro :
▁express es
▁" The
▁non- perform
▁email ;
▁agent .
▁damages )
▁log s,
▁DO W
▁password s.
▁addition s,
comm on
▁one 's
▁TRA FFIC
▁merchant ;
▁indic ations
▁5 00
▁OWN ED
▁Q MI
▁saf e,
▁SUPPLI ER
▁PROPERT IES,
▁8 0
▁allows /permits
▁Cod es
▁Inst itut
▁money -back
▁Do or
▁Smart er
▁sy n
▁layout /design
▁($ 10
▁Gam es,
▁repeated ly.
▁extend s
▁("Content ").
▁CHAR GE
▁contam ination
▁Virgin ia
▁inactiv ity
/b /a
▁malfunct ions
▁meanings :
▁royalt ies,
▁Counter -
▁pro- rated
▁COMPAT IBLE
▁DUT Y
▁Result s
▁we' ll
▁phr ases
▁Corn er
▁trou b
▁Suspens ion
▁1Shopping Cart.com
▁delinqu ent
- 2
B ird
G U
H elp
P h
f eed
on der
is ing,
▁d omic
▁l ess,
▁us ual
▁with .
ut ical
AT CH
ub scriber
▁We ight
▁H ello
s. co
▁property )
CLU B
▁mis under
▁2 27.7
▁PRODUCT .
UN I
▁correct ions
▁Platform s,
wh ite
ick s
▁anyone ;
▁https:// p
▁lib r
▁need s,
▁sent .
▁Order ;
▁foregoing ).
▁benefit .
▁9 .
▁SECURE ;
▁Post s
▁X press
▁administr ation,
▁Co aching
▁aggreg ators
▁201 5
▁TRANSMISSION S,
Pro prietary
▁Rest aurant
▁CONTRO LL
▁excessive ly
char ged
▁ant i
▁therefrom ,
▁NETWORK ,
▁Inf in
▁move ,
/S ervices
▁FIL ES,
▁SAF E
▁ur ge
▁www.t rack
▁Writ ers
▁Pix el
▁“Us ”,
idd le
▁IMAG ES,
▁Ul t
▁repost ,
▁sovere ignt
▁Pearl Mountain
▁DOW NT
- en
/ w
C OR
S ocial
k n
m at
r ust
z o
it ution,
▁s ays
is ed.
▁re vert
▁any way
ot es
▁be ts
ce iving
▁( spam
ES H
ra ffic
▁B B
▁B ub
▁B arn
ag o
▁N ur
▁rel ative
▁H orse
▁G C
▁G rand
TH OUGH
and trail
ult aneous
▁Pro pos
▁NOT IFY
▁" Company
lo ader
UL A
▁V ap
▁1 PassForAllSites.com
▁connection ,
▁transfer r
▁view er
▁illegal ity
▁Re leased
▁costs ),
(s) ”
▁del ib
▁(" B
▁(1 7
▁authoriz ed,
▁protect ed,
▁technolog ies,
up ply
▁fund s.
▁extract ion,
▁Oper ators
▁carri er,
tra ffic
▁Inf otech
▁Read y
▁Consult ants
▁Mot or
▁occurred .
-R elated
▁insurrect ions,
▁PASS IVE
▁PROT ECTED
▁mo ving
▁Jewel ry
▁prec ise
▁Alb ert
▁Unile ver
- TO
D O
a du
b ase
b and
e )
h ow
i M
k id
p ace
▁t ender
▁p ec
▁T un
▁T AM
▁S AN
▁S .L.
▁h alf
as p
▁D il
▁D ial
▁L end
ac ity
▁ad option
▁R UN
▁j eopard
▁St itch
ind ia.com
op ian
▁unlawful ;
▁(“ G
▁further ance
▁amount s,
▁assum e,
ock s
▁(" we
▁(" AAA
▁partn er,
▁custom ization
▁Media ’s
▁tra ined
▁transl ations
▁Sp y
▁ver b
land s
▁AM G
▁AL THOUGH
▁MON ETARY
▁DEL AY,
▁Suppli er.
▁conform ance
▁JURISDICTION ,
▁Man ufact
▁racial .
▁elsewhere .
▁jo ining
aut iful
▁hereto .
▁Upd ate
▁Mis cellane
▁bod y,
▁libell ous
▁(COLLECTIVE LY
▁Record ings
▁"Website "
▁EFFECT IVE,
▁ALLOC ATE
▁FEATURES .
▁BT N
▁exchanges ;
▁("Mark s"),
▁LOCATION ;
▁(2 4)
▁Philipp ines
▁disqual ify
▁Relations hip
▁Boot strap
ocu ment
▁appreci ate
▁Tup alo.com
▁AUTOM AT
▁mir r
▁bett ing
▁suc ceeding
▁lul ule
aders hom
▁sovereignt y
- 10
5 4
C IT
R ef
c od
i Path
r il
▁o vert
ed it
▁in sec
▁any ),
▁T ribe
▁A vi
▁pro x
▁P T
▁acc umul
ra se
ra int
ra ping
▁B ost
▁B inding
▁D HL
▁D hak
▁our s,
ff ick
▁rights ),
▁H ol
▁Com ments.
UR AL
▁cons ign
▁V udu
▁work ;
ern ame
▁action ;
▁publish ers,
▁WEBSITE 'S
▁above -
▁policies ;
▁3 )
▁Comm unities
▁(" ICANN
▁U.S. ,
▁min im
▁Pay p
▁qual ification,
con om
▁confirm ,
▁let ters.
ev ice
▁benefit s,
▁UNA VAIL
▁i OS
▁educ ation,
▁OPER ATORS
▁"S ubmissions
▁At tention
uss y
▁facilit ation
▁retri eved
▁"A d
▁sub-contract ors
▁“our ”).
▁problem s.
▁“Service ”).
▁Sim pl
▁GREATER .
▁OFFER ING
▁Anal ytic
Tra il
▁Activ ities
▁"Services "
ham ster
▁chang ed.
▁RET URN
▁(‘ Comments
▁enroll ment
▁Circ um
▁Cra zy
▁DEMAND S,
▁“sc rap
▁Gro ve
▁“Our ”
▁Pennsylvan ia,
▁("T OS
▁Blo om
▁Vouch er
&apos; s
icens ed
▁agg rieved
▁(UK )
▁TEM POR
▁("ICANN "),
. mobi
K I
M ot
S ource
m ore
z ap
 s
er b
in f
in ar
ic ra
▁C ell
▁C amb
▁C IMB
▁C ycle,
▁P ub
▁( like
un ivers
▁U XP
as m
▁F at
▁M itra
▁de ploy
▁access ories
ak ing
▁H ire
▁G ame,
▁“ stalk
▁applic ant
ind i
▁consent s.
▁indemn ifies
▁action )
ace utical
▁Pl ot
▁refund able.
▁network ;
▁protected .
▁sim ultaneous
▁Re peat
▁sur charges
▁www. a
▁Cl ara
▁company ;
▁files )
▁' Blog
▁arise .
AK E
▁10 .
▁10 times
WE LL
▁PL AY
▁System .
▁Sc ott
▁principl es,
▁forward ing
▁Merchant ’s
▁STORE ,
▁board ,
▁UK .
▁Rel ief
▁De posit
▁discount ed
▁16 .
▁Ren der
▁inqu iries,
uct ions
▁TRIAL .
▁Track ing
▁sol ve
▁Will iams
▁EFFECT IVE
▁$10,000 ,
▁ATTORNEYS '
▁discrep ancy
▁Cert ific
▁inquir y
▁DEFEND ,
▁TOOL S
▁Severability .
▁THEREFROM .
▁Require ments
▁PHOT OGRAPH
▁CRY PT
▁Lik ew
▁gate ways
aran ty
terror ist
▁CONTROLL ED
▁www.track andtrail
▁(‘Comments ’)
C LE
M .
Y N
b ird
f un
h i
y th
▁d ashboard
▁T P
▁T arget
▁A UST
▁W R
s, "
▁( FOR
▁U iPath
▁B rid
▁dis miss
all ow
▁In struct
▁H or
▁H air
▁G aij
▁ag es
▁r ates,
▁" s
▁mod ules
AN C
AN K
▁1 )
▁1 000
ili a
▁LIMIT .
▁affili ate,
▁consent s;
▁public ation.
▁am ic
▁WILL FUL
▁means )
▁above ),
▁IND IA
▁detail ing
▁dev ised,
▁(" D
▁special ist
▁Bl vd
▁fin ance
erc ock
▁CLAIM ED
▁whole .
▁unenforceable .
mb er
▁ce ases,
▁feature .
▁' visitor
▁Tra il
▁AMOUNT ,
▁click -through
▁Buyer 's
▁Prot ect
Cl ose
▁“Content ”).
▁ENDORSE MENT
▁pre- a
ux e
▁PAY BACK
▁channel s,
▁Licensee ’s
▁Ab s
▁intercept ion
adem y
▁Lear ner
▁sum mar
▁reliable ;
▁insol vency
▁APPEAR S
▁mag netic
▁re-p ost
▁Compare TV
▁ADEQU ACY,
▁divul ge
▁"In appropriate
▁Transport ation
DELIVER Y
▁512(f ),
▁Brill iant
▁INCORPOR ATED
▁s. r.
▁foodp anda
@ s
F ,
S ty
T ruck
e o
▁S ent
le vel
ot yp
ur day
▁C ALL
▁C CS
▁P ages
▁P oker
st ant
▁B id
▁our selv
▁L ak
▁M erchand
▁M atter
▁Con version
▁Terms ”).
▁int rus
▁G ar
▁Pro spect
EN ESS
▁" w
EM O
▁follow s
PPL IC
▁card holder
URE ,
▁Ch att
▁Cl ark
▁reference )
▁Te aching
▁Applic ations.
.com/ ,
▁ver ify,
ICAL LY,
▁' member
▁servers ;
▁Publish er,
▁X t
▁procedures .
▁Sc al
▁clear ance
▁top ics
▁don ations
▁“C ontact
▁key words
