{"<unk>":0,"\u0003":1,"!":2,"\"":3,"#":4,"$":5,"%":6,"&":7,"'":8,"(":9,")":10,"*":11,"+":12,",":13,"-":14,".":15,"/":16,"0":17,"1":18,"2":19,"3":20,"4":21,"5":22,"6":23,"7":24,"8":25,"9":26,":":27,";":28,"<":29,"=":30,">":31,"?":32,"@":33,"A":34,"B":35,"C":36,"D":37,"E":38,"F":39,"G":40,"H":41,"I":42,"J":43,"K":44,"L":45,"M":46,"N":47,"O":48,"P":49,"Q":50,"R":51,"S":52,"T":53,"U":54,"V":55,"W":56,"X":57,"Y":58,"Z":59,"[":60,"\\":61,"]":62,"_":63,"a":64,"b":65,"c":66,"d":67,"e":68,"f":69,"g":70,"h":71,"i":72,"j":73,"k":74,"l":75,"m":76,"n":77,"o":78,"p":79,"q":80,"r":81,"s":82,"t":83,"u":84,"v":85,"w":86,"x":87,"y":88,"z":89,"{":90,"|":91,"}":92,"":93,"":94,"":95,"£":96,"§":97,"©":98,"«":99,"®":100,"·":101,"»":102,"Ü":103,"â":104,"ä":105,"é":106,"́":107,"ο":108,"က":109,"င":110,"မ":111,"ာ":112,"း":113,"္":114,"‎":115,"‐":116,"–":117,"—":118,"‘":119,"’":120,"‚":121,"“":122,"”":123,"„":124,"•":125,"€":126,"▁":127,"▁a":128,"▁t":129,"▁o":130,"er":131,"in":132,"▁th":133,"on":134,"re":135,"it":136,"▁an":137,"at":138,"▁the":139,"es":140,"ou":141,"en":142,"▁or":143,"▁p":144,"▁c":145,"▁s":146,"or":147,"is":148,"ion":149,"▁w":150,"▁of":151,"ed":152,"ic":153,"▁to":154,"▁in":155,"▁and":156,"▁b":157,"al":158,"ent":159,"▁re":160,"ing":161,"▁any":162,"▁f":163,"▁d":164,"ro":165,"▁T":166,"▁m":167,"us":168,"▁y":169,"▁S":170,"le":171,"▁you":172,"ar":173,"an":174,"▁A":175,"ct":176,"▁n":177,"ation":178,"▁l":179,"il":180,"▁O":181,"ot":182,"▁con":183,"ri":184,"th":185,"▁us":186,"ur":187,"se":188,"▁pro":189,"▁C":190,"om":191,"▁W":192,"ite":193,"▁not":194,"▁e":195,"s,":196,"erv":197,"▁I":198,"▁be":199,"im":200,"ay":201,"ther":202,"ith":203,"▁for":204,"▁P":205,"ab":206,"ervic":207,"erm":208,"▁that":209,"ly":210,"gh":211,"eb":212,"▁with":213,"id":214,"ce":215,"▁h":216,"ve":217,"▁su":218,"ch":219,"▁other":220,"em":221,"▁(":222,"▁Y":223,"▁your":224,"st":225,"▁by":226,"▁on":227,"ll":228,"un":229,"ER":230,"▁TH":231,"▁ac":232,"ES":233,"▁use":234,"▁cont":235,"ght":236,"ut":237,"for":238,"ers":239,"ebs":240,"▁is":241,"▁U":242,"ate":243,"art":244,"right":245,"cl":246,"IT":247,"ess":248,"able":249,"ol":250,"ON":251,"pl":252,"ity":253,"ect":254,"as":255,"gre":256,"es,":257,"▁res":258,"▁You":259,"▁may":260,"ial":261,"ir":262,"▁OR":263,"▁acc":264,"ebsite":265,"▁Servic":266,"▁AN":267,"▁are":268,"form":269,"ra":270,"▁ex":271,"ud":272,"if":273,"erms":274,"▁as":275,"ill":276,"▁this":277,"NT":278,"▁B":279,"▁right":280,"ran":281,"▁THE":282,"▁un":283,"▁D":284,"▁dis":285,"▁our":286,"ain":287,"▁prov":288,"▁part":289,"▁F":290,"▁L":291,"AT":292,"ul":293,"▁v":294,"▁com":295,"▁Th":296,"ions":297,"▁will":298,"▁sh":299,"et":300,"▁wh":301,"clud":302,"formation":303,"res":304,"▁M":305,"RE":306,"▁g":307,"nt":308,"e,":309,"am":310,"▁OF":311,"▁all":312,"▁agre":313,"ive":314,"ver":315,"ag":316,"rom":317,"ail":318,"▁information":319,"▁at":320,"IN":321,"ow":322,"▁such":323,"pt":324,"▁from":325,"▁N":326,"▁E":327,"der":328,"ment":329,"▁it":330,"OR":331,"out":332,"▁de":333,"ED":334,"ies":335,"▁co":336,"▁servic":337,"all":338,"ement":339,"▁these":340,"ib":341,"ac":342,"ter":343,"▁Con":344,"aw":345,"cluding":346,"ater":347,"▁provid":348,"OU":349,"ig":350,"du":351,"ION":352,"tent":353,"aterial":354,"▁shall":355,"ated":356,"os":357,"▁Terms":358,"dit":359,"▁ap":360,"pon":361,"ad":362,"ility":363,"▁IN":364,"imit":365,"qu":366,"IC":367,"▁Site":368,"▁do":369,"▁so":370,"▁material":371,"▁content":372,"▁ANY":373,"▁without":374,"AR":375,"IS":376,"▁ad":377,"▁limit":378,"ENT":379,"▁sub":380,"▁website":381,"▁law":382,"per":383,"▁agree":384,"ird":385,"▁Website":386,"ire":387,"ount":388,"▁The":389,"▁we":390,"od":391,"duct":392,"com":393,"▁Service":394,"ec":395,"ub":396,"IL":397,"▁R":398,"▁li":399,"end":400,"ations":401,"ere":402,"lect":403,"▁its":404,"ise":405,"rant":406,"iv":407,"pres":408,"▁third":409,"AL":410,"▁access":411,"▁ch":412,"ance":413,"▁including":414,"▁We":415,"are":416,"▁AND":417,"▁comp":418,"erson":419,"▁ha":420,"ust":421,"▁tim":422,"▁st":423,"sib":424,"▁TO":425,"el":426,"▁Content":427,"est":428,"ak":429,"▁site":430,"ost":431,"CT":432,"y,":433,"▁have":434,"ink":435,"ff":436,"ING":437,"▁rel":438,"▁cop":439,"▁under":440,"▁person":441,"▁vi":442,"▁respon":443,"ure":444,"ability":445,"▁In":446,"▁im":447,"ens":448,"RO":449,"rans":450,"▁pur":451,"itt":452,"▁rights":453,"▁otherw":454,"ard":455,"ual":456,"▁YOU":457,"▁responsib":458,"▁reg":459,"ice":460,"▁term":461,"rou":462,"▁Services":463,"ge":464,"plic":465,"tw":466,"SE":467,"▁party":468,"▁Us":469,"fer":470,"▁ar":471,"▁cl":472,"▁time":473,"ich":474,"ase":475,"AB":476,"ore":477,"▁trans":478,"ark":479,"▁H":480,"▁ob":481,"wn":482,"▁otherwise":483,"▁which":484,"▁link":485,"aim":486,"tion":487,"▁terms":488,"▁act":489,"oc":490,"um":491,"LE":492,"▁pri":493,"RA":494,"iss":495,"▁u":496,"▁own":497,"ose":498,"▁war":499,"olic":500,"▁If":501,"▁copy":502,"▁ind":503,"og":504,"s.":505,"▁CON":506,"ites":507,"our":508,"▁int":509,"ty":510,"▁services":511,"rad":512,"▁warrant":513,"▁G":514,"▁no":515,"vail":516,"amag":517,"iz":518,"▁damag":519,"▁LI":520,"ip":521,"▁product":522,"▁and/":523,"ATION":524,"▁NO":525,"▁post":526,"▁and/or":527,"S,":528,"leg":529,"uth":530,"ed,":531,"ditions":532,"ew":533,"▁User":534,"ist":535,"▁“":536,"greement":537,"▁applic":538,"▁termin":539,"ach":540,"acy":541,"rough":542,"▁avail":543,"▁Com":544,"▁lic":545,"por":546,"rib":547,"’s":548,"ant":549,"▁Agreement":550,"pro":551,"ERV":552,"▁account":553,"tain":554,"▁sole":555,"▁em":556,".com":557,"▁through":558,"uthor":559,"▁fe":560,"ation,":561,"ubl":562,"TH":563,"▁SERV":564,"and":565,"ection":566,"cept":567,"ord":568,"▁trad":569,"act":570,"▁provided":571,"ITE":572,"ata":573,"▁proper":574,"▁inter":575,"irect":576,"▁service":577,"ake":578,"▁ag":579,"▁SERVIC":580,"▁if":581,"ing,":582,"▁rem":583,"▁en":584,"▁requ":585,"▁provis":586,"ru":587,"▁claim":588,"▁ab":589,"▁viol":590,"▁available":591,"▁responsible":592,"ITY":593,"▁copyright":594,"UR":595,"ense":596,"ld":597,"ason":598,"▁applicable":599,"▁comm":600,"plo":601,"▁perm":602,"▁PRO":603,"▁al":604,"▁RE":605,"▁disc":606,"vacy":607,"▁cons":608,"PL":609,"ftw":610,"ftware":611,"▁reason":612,"▁los":613,"ical":614,"▁go":615,"ident":616,"ult":617,"pect":618,"▁FOR":619,"▁chan":620,"▁Pro":621,"ork":622,"legal":623,"▁EX":624,"ary":625,"present":626,"▁ent":627,"press":628,"▁reserv":629,"ify":630,"pli":631,"any":632,"▁contain":633,"ESS":634,"▁liability":635,"▁materials":636,"▁ass":637,"▁purp":638,"ring":639,"▁per":640,"ates":641,"CL":642,"▁property":643,"ign":644,"THER":645,"ful":646,"▁me":647,"▁using":648,"miss":649,"▁wr":650,"ex":651,"ject":652,"▁express":653,"▁publ":654,"▁personal":655,"let":656,"ence":657,"▁but":658,"ILITY":659,"▁NOT":660,"▁user":661,"ish":662,"▁loss":663,"lig":664,"▁BE":665,"ric":666,"ising":667,"MIT":668,"▁data":669,"ract":670,"pri":671,"▁does":672,"▁must":673,"ES,":674,"ribut":675,"EN":676,"dition":677,"▁non":678,"▁notice":679,"▁cre":680,"i)":681,"▁represent":682,"▁pay":683,"▁sp":684,"▁Comp":685,"ors":686,"edi":687,"vent":688,"arty":689,"▁conditions":690,"▁Use":691,"▁limited":692,"MA":693,"ue":694,"▁aff":695,"▁out":696,"now":697,"▁har":698,"emark":699,"ph":700,"li":701,"fring":702,"ers,":703,"▁provide":704,"▁def":705,"know":706,"uthoriz":707,"▁USE":708,"ited":709,"less":710,"ies,":711,"aus":712,"ustom":713,"▁agreement":714,"▁r":715,"ITH":716,"ellect":717,"ellectual":718,"ass":719,"ould":720,"▁j":721,"▁\"":722,"),":723,"so":724,"▁WAR":725,"RANT":726,"▁CONT":727,"▁WARRANT":728,"port":729,"led":730,"ine":731,"▁WE":732,"ID":733,"▁(in":734,"▁trademark":735,"ating":736,"▁conn":737,"▁se":738,"▁inc":739,"OM":740,"▁St":741,"cc":742,"▁direct":743,"▁off":744,"▁mod":745,"clus":746,"age":747,"ide":748,"▁SITE":749,"▁Your":750,"▁their":751,"ific":752,"▁respect":753,"sc":754,"ges":755,"▁non-":756,"▁prior":757,"lo":758,"cial":759,"ments":760,"OS":761,"▁has":762,"▁intellectual":763,"ABLE":764,"CH":765,"▁sup":766,"▁rev":767,"AS":768,"UL":769,"▁subject":770,"▁app":771,"▁att":772,"nd":773,"▁make":774,"▁V":775,"IAL":776,"▁const":777,"▁legal":778,"▁Company":779,"▁there":780,"AN":781,"▁accur":782,"▁provision":783,"▁arising":784,"mit":785,"▁1":786,"ABILITY":787,"CLU":788,"itted":789,"▁only":790,"'s":791,"▁liable":792,"ade":793,"▁can":794,"ove":795,"ili":796,"▁discre":797,"itten":798,"olicy":799,"▁DA":800,"▁OTHER":801,"▁bre":802,"▁written":803,"▁(including":804,"MAG":805,"ration":806,"▁laws":807,"▁infring":808,"▁THAT":809,"▁result":810,"lease":811,"▁DAMAG":812,"urre":813,"▁breach":814,"ile":815,"▁discretion":816,"▁Sub":817,"▁WITH":818,"▁LIMIT":819,"-p":820,"▁oblig":821,"ors,":822,"▁made":823,"ute":824,"▁up":825,"▁discl":826,"▁YOUR":827,").":828,"ind":829,"▁harm":830,"uthorized":831,"▁SU":832,"raph":833,"▁add":834,"ate,":835,"ART":836,"bit":837,"▁order":838,"ollect":839,"▁products":840,"unic":841,"▁dist":842,"▁MA":843,"ether":844,"▁software":845,"IES":846,"ack":847,"ption":848,"▁grant":849,"▁web":850,"▁license":851,"▁An":852,"VE":853,"▁spec":854,"▁ref":855,"▁des":856,"ustomer":857,"UT":858,"▁contro":859,"IM":860,"▁way":861,"▁Un":862,"▁related":863,"▁This":864,"▁sec":865,"▁conf":866,"force":867,"ear":868,"▁here":869,"▁require":870,"▁distribut":871,"PR":872,"▁nam":873,"vern":874,"ities":875,"▁All":876,"▁connection":877,"ebsites":878,"op":879,"▁mean":880,"one":881,"▁third-p":882,"es.":883,"▁email":884,"DING":885,"ifi":886,"LL":887,"▁accept":888,"▁inv":889,"▁PART":890,"▁purpose":891,"▁RES":892,"▁By":893,"een":894,"▁affili":895,"oth":896,"▁caus":897,"CC":898,"▁addres":899,"ever":900,"▁pre":901,"▁includ":902,"▁parties":903,"knowled":904,"▁consent":905,"emn":906,"eg":907,"▁ON":908,"▁BY":909,"ator":910,"oll":911,"▁licens":912,"own":913,"▁public":914,"IR":915,"BS":916,"▁Any":917,"ly,":918,"ploy":919,"▁govern":920,"rict":921,"▁terminate":922,"hip":923,"play":924,"▁SERVICES":925,"▁whether":926,"▁man":927,"dic":928,"▁te":929,"▁k":930,"▁IS":931,"▁acknowled":932,"▁jur":933,"▁Pri":934,"▁event":935,"clusive":936,"▁exp":937,"EM":938,"usin":939,"ercial":940,"▁regard":941,"isdic":942,"▁purch":943,"▁employ":944,"▁display":945,"ound":946,"▁loc":947,"FOR":948,"▁cour":949,"▁prot":950,"▁proc":951,"ffect":952,"ILL":953,"▁jurisdic":954,"▁set":955,"ollow":956,"LY":957,"▁sites":958,"▁pl":959,"▁third-party":960,"ii)":961,"▁CONTENT":962,"▁betw":963,"▁between":964,"ion,":965,"ese":966,"ok":967,"▁responsibility":968,"▁rece":969,"▁follow":970,"TS":971,"▁users":972,"▁indemn":973,"old":974,"vert":975,"▁arbit":976,"▁payment":977,"▁am":978,"▁Privacy":979,"▁information,":980,"▁AG":981,"▁K":982,"▁form":983,"▁det":984,"▁expressly":985,"▁effect":986,"▁to,":987,"of":988,"▁also":989,"▁fail":990,"▁These":991,"▁ALL":992,"ative":993,"GH":994,"▁privacy":995,"emb":996,"er,":997,"▁changes":998,"▁constit":999,"▁reserve":1000,"▁char":1001,"hib":1002,"▁end":1003,"▁cost":1004,"▁ACC":1005,"▁agent":1006,"▁regul":1007,"ee":1008,"▁work":1009,"IRE":1010,"▁WH":1011,"▁contained":1012,"▁communic":1013,"missions":1014,"▁again":1015,"▁contract":1016,"usiness":1017,"err":1018,"stand":1019,"▁websites":1020,"▁pass":1021,"ected":1022,"load":1023,"▁WILL":1024,"▁appro":1025,"▁extent":1026,"▁down":1027,"▁control":1028,"▁used":1029,"▁complet":1030,"CE":1031,"▁Site,":1032,"CLUDING":1033,"OSS":1034,"▁accord":1035,"▁comput":1036,"ROM":1037,"▁request":1038,"ext":1039,"und":1040,"orn":1041,"ically":1042,"▁prom":1043,"▁bas":1044,"▁oper":1045,"ERS":1046,"ww":1047,"▁against":1048,"▁acknowledge":1049,"ome":1050,"▁FROM":1051,"ern":1052,"ures":1053,"▁who":1054,"▁adv":1055,"▁COM":1056,"▁disp":1057,"IB":1058,"▁partic":1059,"▁court":1060,"ional":1061,"▁mark":1062,"ECT":1063,"▁Policy":1064,"▁been":1065,"▁limitation,":1066,"▁J":1067,"▁violation":1068,"▁damages":1069,"word":1070,"▁download":1071,"MPL":1072,"▁Acc":1073,"ister":1074,"▁means":1075,"PPL":1076,"ational":1077,"▁perform":1078,"etary":1079,"▁content,":1080,"▁Int":1081,"▁Web":1082,"▁imm":1083,"▁within":1084,"▁Product":1085,"ob":1086,"▁good":1087,"▁reasonable":1088,"▁collect":1089,"▁rest":1090,"▁permitted":1091,"▁Service,":1092,"▁WEBS":1093,"ous":1094,"▁upon":1095,"FORM":1096,"▁THIS":1097,"▁offer":1098,"▁cance":1099,"▁prohib":1100,"fter":1101,"▁links":1102,"ed.":1103,"▁should":1104,"ram":1105,"▁contact":1106,"▁imp":1107,"ree":1108,"prietary":1109,"ither":1110,"▁Customer":1111,"▁damage":1112,"▁fees":1113,"▁gu":1114,"▁log":1115,"▁those":1116,"▁DO":1117,"▁refer":1118,"iew":1119,"▁use,":1120,"▁SERVICE":1121,"▁mis":1122,"▁following":1123,"▁sus":1124,"ately":1125,"▁password":1126,"ertain":1127,"▁employe":1128,"ap":1129,"ces":1130,"▁curre":1131,"ified":1132,"▁including,":1133,"▁upd":1134,"▁immedi":1135,"▁advert":1136,"▁jurisdiction":1137,"▁pr":1138,"▁activ":1139,"line":1140,"eral":1141,"ity,":1142,"▁reserves":1143,"▁una":1144,"▁PROV":1145,"▁address":1146,"ast":1147,"▁err":1148,"▁action":1149,"▁than":1150,"QU":1151,"ull":1152,"ices":1153,"▁computer":1154,"ages":1155,"▁Conditions":1156,"▁DIS":1157,"▁reli":1158,"▁warranties":1159,"▁solely":1160,"mission":1161,"▁ph":1162,"ron":1163,"▁LIMITATION":1164,"▁business":1165,"chn":1166,"ays":1167,"▁apply":1168,"idential":1169,"▁repro":1170,"▁permiss":1171,"▁mon":1172,"▁UN":1173,"▁termination":1174,"▁US":1175,"▁impli":1176,"▁purpos":1177,"▁transfer":1178,"able,":1179,"▁limitation":1180,"▁proprietary":1181,"urther":1182,"▁remove":1183,"▁DAMAGES":1184,"▁publish":1185,"▁remain":1186,"▁accordance":1187,"▁(c":1188,"sequ":1189,"ner":1190,"ription":1191,"▁provisions":1192,"oftware":1193,"ven":1194,"▁INFORM":1195,"work":1196,"▁WEBSITE":1197,"▁obtain":1198,"ef":1199,"very":1200,"ential":1201,"alid":1202,"▁relating":1203,"IRECT":1204,"▁current":1205,"▁website,":1206,"IONS":1207,"▁her":1208,"▁Services,":1209,"▁addition":1210,"▁qu":1211,"ERR":1212,"ification":1213,"▁WARRANTIES":1214,"▁unl":1215,"EC":1216,"▁INFORMATION":1217,"▁Website,":1218,"AIL":1219,"▁Software":1220,"isk":1221,"etwork":1222,"UCT":1223,"ame":1224,"▁change":1225,"▁vis":1226,"▁COMP":1227,"IED":1228,"▁LIABILITY":1229,"AIM":1230,"raphic":1231,"▁review":1232,"▁deli":1233,"▁SH":1234,"▁full":1235,"awful":1236,"▁PROVID":1237,"▁stat":1238,"eby":1239,"▁via":1240,"▁trade":1241,"pend":1242,"▁unlawful":1243,"ort":1244,"ROU":1245,"oci":1246,"TED":1247,"▁Ap":1248,"▁enforce":1249,"pload":1250,"REE":1251,"▁risk":1252,"su":1253,"▁allow":1254,"itor":1255,"▁Our":1256,"▁register":1257,"▁wa":1258,"ia":1259,"other":1260,"▁AS":1261,"ings":1262,"▁transmit":1263,"fore":1264,"▁cor":1265,"US":1266,"ey":1267,"▁process":1268,"▁feat":1269,"ace":1270,"▁elect":1271,"▁understand":1272,"▁offic":1273,"▁APPL":1274,"int":1275,"▁SO":1276,"comm":1277,"empt":1278,"DUCT":1279,"▁reprodu":1280,"ates,":1281,"▁permission":1282,"▁deem":1283,"▁date":1284,"▁hold":1285,"▁ident":1286,"ont":1287,"edia":1288,"aid":1289,"▁about":1290,"AIN":1291,"ROUGH":1292,"▁failure":1293,"min":1294,"IVE":1295,"▁techn":1296,"▁credit":1297,"ations,":1298,"utes":1299,"ry":1300,"▁INCLUDING":1301,"▁law,":1302,"ax":1303,"▁prof":1304,"▁posted":1305,"▁send":1306,"▁hereby":1307,"▁linked":1308,"lic":1309,"▁herein":1310,"▁OUR":1311,"ised":1312,"ify,":1313,"ider":1314,"▁vir":1315,"▁IMPL":1316,"▁LOSS":1317,"▁contin":1318,"▁prohibited":1319,"ership":1320,"unct":1321,"▁exclusive":1322,"▁immediately":1323,"▁THROUGH":1324,"▁rights,":1325,"▁condition":1326,"▁SUCH":1327,"▁submit":1328,"ecess":1329,"▁IMPLIED":1330,"▁ARE":1331,"yst":1332,"▁consequ":1333,"▁when":1334,"▁another":1335,"▁upload":1336,"▁over":1337,"ular":1338,"▁secur":1339,"▁Wh":1340,"▁certain":1341,"▁kind":1342,"▁them":1343,"▁commercial":1344,"ALL":1345,"▁regarding":1346,"▁necess":1347,"▁EXPR":1348,"▁Account":1349,"▁authorized":1350,"▁attempt":1351,"ystem":1352,"▁(b":1353,"▁To":1354,"S.":1355,"OUT":1356,"priate":1357,"▁For":1358,"▁polic":1359,"▁pos":1360,"Y,":1361,"▁website.":1362,"▁site.":1363,"▁card":1364,"s)":1365,"ive,":1366,"▁restrict":1367,"▁virus":1368,"▁indirect":1369,"▁Service.":1370,"iod":1371,"▁United":1372,"▁fore":1373,"▁suppli":1374,"umb":1375,"ess,":1376,"▁mak":1377,"▁AD":1378,"▁Please":1379,"▁Pl":1380,"▁of,":1381,"▁ST":1382,"▁unauthorized":1383,"▁REL":1384,"ong":1385,"▁(“":1386,"▁create":1387,"▁thereof":1388,"▁intern":1389,"▁after":1390,"▁Ex":1391,"▁author":1392,"▁due":1393,"▁Site.":1394,"tt":1395,"▁(i)":1396,"▁2":1397,"not":1398,"▁particular":1399,"▁Term":1400,"▁electron":1401,"▁promot":1402,"▁right,":1403,"use":1404,"▁store":1405,"▁manner":1406,"▁design":1407,"▁SHALL":1408,"▁damages,":1409,"▁posting":1410,"▁required":1411,"iting":1412,"▁rec":1413,"▁take":1414,"▁one":1415,"▁violate":1416,"▁purchase":1417,"▁comply":1418,"▁refund":1419,"▁associ":1420,"gan":1421,"▁each":1422,"▁EXPRESS":1423,"▁Intern":1424,"▁disclaim":1425,"AW":1426,"▁INC":1427,"▁except":1428,"▁MAY":1429,"▁unless":1430,"▁text":1431,"ce,":1432,"▁obligation":1433,"▁into":1434,"▁main":1435,"EMENT":1436,"▁period":1437,"orse":1438,"▁nor":1439,"▁desc":1440,"▁LAW":1441,"▁either":1442,"▁discretion,":1443,"reat":1444,"▁network":1445,"obile":1446,"▁gen":1447,"▁(ii)":1448,"le,":1449,"ever,":1450,"▁(a":1451,"▁protected":1452,"▁eng":1453,"▁WITHOUT":1454,"scription":1455,"arant":1456,"ious":1457,"▁claims":1458,"▁Website.":1459,"E,":1460,"ps":1461,"▁cod":1462,"▁mat":1463,"▁security":1464,"▁op":1465,"MS":1466,"00":1467,"idual":1468,"▁officers,":1469,"▁inst":1470,"▁include":1471,"mail":1472,"▁view":1473,"▁MAT":1474,"▁conduct":1475,"▁AR":1476,"▁PRODUCT":1477,"VAIL":1478,"▁Information":1479,"▁il":1480,"▁expens":1481,"▁harmless":1482,"ividual":1483,"UN":1484,"▁EV":1485,"rupt":1486,"▁further":1487,"”)":1488,"utom":1489,"▁PER":1490,"▁employees,":1491,"▁governed":1492,"▁DE":1493,"orney":1494,"▁deemed":1495,"ight":1496,"▁Content,":1497,"▁PUR":1498,"c.":1499,"▁illegal":1500,"▁guarant":1501,"▁consequential":1502,"▁purposes":1503,"ware":1504,"▁neg":1505,"▁ed":1506,"▁Party":1507,"▁cancel":1508,"▁ITS":1509,"▁site,":1510,"▁attorney":1511,"▁AVAIL":1512,"go":1513,"▁Ad":1514,"▁(a)":1515,"irc":1516,"atform":1517,"ined":1518,"ceed":1519,"▁endorse":1520,"ites,":1521,"▁you,":1522,"▁(b)":1523,"▁Sites":1524,"▁where":1525,"▁case":1526,"▁modify":1527,"▁le":1528,"▁they":1529,"▁assign":1530,"OW":1531,"▁determ":1532,"▁Services.":1533,"▁arbitration":1534,"istration":1535,"av":1536,"rect":1537,"ANT":1538,"▁services,":1539,"▁constitute":1540,"▁confidential":1541,"▁numb":1542,"▁amount":1543,"▁what":1544,"▁you.":1545,"▁individual":1546,"ERE":1547,"▁organ":1548,"▁above":1549,"▁directors,":1550,"▁advertis":1551,"▁serv":1552,"iver":1553,"eed":1554,"urn":1555,"▁necessary":1556,"▁system":1557,"▁memb":1558,"▁notify":1559,"▁bound":1560,"IRD":1561,"e.":1562,"▁wor":1563,"▁RESP":1564,"al,":1565,"▁cannot":1566,"ret":1567,"ced":1568,"▁THIRD":1569,"▁count":1570,"▁accessing":1571,"//":1572,"▁obligations":1573,"▁days":1574,"://":1575,"▁entire":1576,"▁autom":1577,"▁circ":1578,"▁then":1579,"ENTIAL":1580,"▁RESUL":1581,"▁SP":1582,"▁unen":1583,"▁limitations":1584,"▁some":1585,"▁As":1586,"▁please":1587,"ERIAL":1588,"erch":1589,"▁sim":1590,"▁IF":1591,"▁MATERIAL":1592,"▁features":1593,"▁e-":1594,"mitted":1595,"▁ret":1596,"▁list":1597,"▁time,":1598,"▁giv":1599,"▁Su":1600,"▁time.":1601,"ital":1602,"ook":1603,"▁trademarks":1604,"▁circum":1605,"▁ADV":1606,"▁rul":1607,"▁(or":1608,"▁free":1609,"▁warranty":1610,"io":1611,"ET":1612,"ient":1613,"▁basis":1614,"gram":1615,"▁suspend":1616,"▁AVAILABLE":1617,"▁owner":1618,"▁Internet":1619,"red":1620,"▁fil":1621,"▁Submissions":1622,"▁maintain":1623,"▁read":1624,"acy,":1625,"▁agents,":1626,"▁Re":1627,"▁incor":1628,"▁indemnify":1629,"ature":1630,"▁communications":1631,"ruct":1632,"▁appear":1633,"▁assum":1634,"▁htt":1635,"▁funct":1636,"▁der":1637,"▁arbitr":1638,"▁caused":1639,"▁appropriate":1640,"▁implied":1641,"▁page":1642,"▁bel":1643,"▁ACCESS":1644,"▁online":1645,"▁possib":1646,"▁IND":1647,"▁Go":1648,"▁AT":1649,"▁new":1650,"▁purchas":1651,"▁beli":1652,"▁disclos":1653,"IV":1654,"▁rep":1655,"URE":1656,"ETHER":1657,"▁unenforce":1658,"▁PROVIDED":1659,"▁paid":1660,"▁LIMITED":1661,"ATE":1662,"yp":1663,"▁equ":1664,"▁owned":1665,"▁INT":1666,"▁e-mail":1667,"IRECT,":1668,"▁ens":1669,"▁affiliates,":1670,"▁sell":1671,"▁LIABLE":1672,"▁DISCL":1673,"▁know":1674,"▁No":1675,"▁receiv":1676,"▁graphic":1677,"▁entity":1678,"▁policy":1679,"▁organiz":1680,"▁others":1681,"▁obsc":1682,"▁granted":1683,"▁copyright,":1684,"▁before":1685,"▁policies":1686,"▁more":1687,"ended":1688,"MENT":1689,"TION":1690,"▁DISCLAIM":1691,"▁hel":1692,"igin":1693,"▁origin":1694,"▁sur":1695,"ortion":1696,"▁transact":1697,"owever,":1698,"ell":1699,"▁delet":1700,"▁electronic":1701,"▁resour":1702,"▁consider":1703,"▁ARIS":1704,"ts":1705,"igital":1706,"▁portion":1707,"▁sc":1708,"SEQU":1709,"IND":1710,"cu":1711,"▁costs":1712,"▁mess":1713,"▁respective":1714,"▁States":1715,"erchant":1716,"▁CONSEQU":1717,"ions,":1718,"▁defend":1719,"OSE":1720,"▁same":1721,"ause":1722,"▁goods":1723,"▁www":1724,"▁Data":1725,"▁infringement":1726,"▁Not":1727,"▁ro":1728,"▁www.":1729,"▁Terms,":1730,"ilar":1731,"▁WHETHER":1732,"▁3":1733,"▁reproduce,":1734,"▁beh":1735,"ESENT":1736,"▁docu":1737,"ARE":1738,"ERROR":1739,"▁obscen":1740,"▁(i":1741,"▁error":1742,"▁name":1743,"▁complete":1744,"▁works":1745,"▁ERROR":1746,"abil":1747,"alf":1748,"▁Ar":1749,"▁detail":1750,"ages,":1751,"ice,":1752,"▁SPEC":1753,"ness":1754,"▁CONSEQUENTIAL":1755,"ities,":1756,"▁similar":1757,"▁would":1758,"▁TRA":1759,"▁modify,":1760,"(s)":1761,"▁resulting":1762,"▁Inc.":1763,"PRESENT":1764,"▁defam":1765,"▁us.":1766,"▁Material":1767,"acc":1768,"rued":1769,"IDENT":1770,"eve":1771,"▁interest":1772,"▁delivery":1773,"val":1774,"▁correct":1775,"▁based":1776,"▁Act":1777,"▁EXT":1778,"▁registered":1779,"▁waiver":1780,"IG":1781,"▁dispute":1782,"▁notices":1783,"▁deriv":1784,"WIS":1785,"▁PARTY":1786,"ved":1787,"ATED":1788,"▁REPRESENT":1789,"LC":1790,"raud":1791,"▁representations":1792,"▁EXCLU":1793,"NS":1794,"▁proceed":1795,"▁forth":1796,"ideo":1797,"AINED":1798,"▁whatso":1799,"▁DAT":1800,"▁liabil":1801,"SION":1802,"▁typ":1803,"▁KIND":1804,"ability,":1805,"▁OTHERWIS":1806,"MITTED":1807,"▁incident":1808,"▁directly":1809,"ory":1810,"▁TER":1811,"▁dev":1812,"ers.":1813,"olog":1814,"▁cause":1815,"▁forego":1816,"▁INCIDENT":1817,"FF":1818,"IBILITY":1819,"ograph":1820,"▁affect":1821,"▁valid":1822,"ably":1823,"▁harmful":1824,"log":1825,"ible":1826,"▁enter":1827,"ollective":1828,"uring":1829,"▁Memb":1830,"▁INCIDENTAL":1831,"▁associated":1832,"▁PURP":1833,"▁ARISING":1834,"▁obtained":1835,"▁age":1836,"ERS,":1837,"▁threat":1838,"mitt":1839,"▁Agreement,":1840,"-f":1841,"▁CL":1842,"▁monitor":1843,"▁It":1844,"▁DATA":1845,"▁visit":1846,"▁LLC":1847,"▁bro":1848,"irm":1849,"▁claims,":1850,"▁inj":1851,"▁trademarks,":1852,"▁Ch":1853,"▁Third":1854,"▁construed":1855,"ock":1856,"ontin":1857,"▁tit":1858,"▁matter":1859,"▁EXTENT":1860,"▁notice.":1861,"▁App":1862,"▁additional":1863,"▁regulations":1864,"▁text,":1865,"▁year":1866,"MIS":1867,"▁AND/":1868,"▁ensure":1869,"▁software,":1870,"▁discontin":1871,"▁constitutes":1872,"urred":1873,"▁fit":1874,"▁inacc":1875,"sel":1876,"UP":1877,"▁Products":1878,"▁neglig":1879,"▁makes":1880,"▁statement":1881,"▁AND/OR":1882,"▁exclud":1883,"▁Comm":1884,"ience":1885,"▁stated":1886,"▁fal":1887,"▁accurate":1888,"commercial":1889,"▁activities":1890,"OD":1891,"▁fraud":1892,"eck":1893,"exclusive":1894,"▁continu":1895,"▁behalf":1896,"▁us,":1897,"▁(collective":1898,"▁UND":1899,"ERT":1900,"CTION":1901,"▁support":1902,"▁PARTIC":1903,"▁interf":1904,"▁writing":1905,"▁MAK":1906,"▁vers":1907,"▁ord":1908,"▁logo":1909,"EG":1910,"▁(c)":1911,"▁share":1912,"▁del":1913,"▁inaccur":1914,"▁general":1915,"▁guarantee":1916,"▁incorpor":1917,"▁(\"":1918,"▁offens":1919,"ke":1920,"▁below":1921,"▁AGREE":1922,"▁pat":1923,"▁receive":1924,"▁accuracy":1925,"▁pric":1926,"▁(iii)":1927,"the":1928,"▁sign":1929,"▁surv":1930,"▁(1":1931,"▁derivative":1932,"▁false":1933,"▁OFF":1934,"▁Cont":1935,"▁registration":1936,"item":1937,"▁partn":1938,"▁update":1939,"clusion":1940,"▁phot":1941,"▁PURPOSE":1942,"▁distribute,":1943,"ent,":1944,"▁item":1945,"▁Platform":1946,"▁On":1947,"▁Content.":1948,"▁contents":1949,"▁conditions,":1950,"▁alter":1951,"▁Or":1952,"▁copy,":1953,"oard":1954,"▁merchant":1955,"▁incurred":1956,"ONS":1957,"▁pres":1958,"▁linking":1959,"▁subscription":1960,"▁customer":1961,"▁dem":1962,"▁dest":1963,"UM":1964,"IES,":1965,"wh":1966,"▁becom":1967,"▁services.":1968,"▁invalid":1969,"▁ful":1970,"ath":1971,"▁survive":1972,"▁expenses":1973,"▁RESULT":1974,"▁tak":1975,"▁performance":1976,"\")":1977,"▁special":1978,"▁program":1979,"▁information.":1980,"▁edit":1981,"ULAR":1982,"▁video":1983,"ST":1984,"▁losses,":1985,"▁Part":1986,"▁threaten":1987,"▁Bl":1988,"▁PARTICULAR":1989,"▁dec":1990,"▁data,":1991,"ping":1992,"▁rele":1993,"ORE":1994,"▁Ind":1995,"▁he":1996,"ick":1997,"▁SITE,":1998,"ward":1999,"▁attorneys":2000,"ation.":2001,"▁print":2002,"▁automat":2003,"▁TRANS":2004,"▁cook":2005,"▁RIS":2006,"▁nature":2007,".S.":2008,"EST":2009,"▁alleg":2010,"▁priv":2011,"OL":2012,"▁MER":2013,"▁Cl":2014,"▁Section":2015,"▁accurate,":2016,"FT":2017,"▁occ":2018,"▁sal":2019,"▁anyone":2020,"▁warranties,":2021,"▁subs":2022,"ian":2023,"▁international":2024,"▁Agreement.":2025,"▁negligence":2026,"▁Sh":2027,"▁APPLIC":2028,"▁return":2029,"▁OB":2030,"iar":2031,"▁company":2032,"▁licensors":2033,"▁held":2034,"er.":2035,"▁Users":2036,"▁MERCH":2037,"ment,":2038,"▁bind":2039,"with":2040,"▁acceptance":2041,"▁BUT":2042,"▁technical":2043,"▁circumst":2044,"▁affiliates":2045,"▁Terms.":2046,"enc":2047,"”).":2048,"▁products,":2049,"▁defamator":2050,"▁rules":2051,"▁profit":2052,"▁non-exclusive":2053,"▁fees,":2054,"AY":2055,"ise,":2056,"▁fin":2057,"ESE":2058,"▁reference":2059,"NESS":2060,"▁compli":2061,"▁specific":2062,"▁state":2063,"ABILITY,":2064,"ments,":2065,"▁Prov":2066,"WN":2067,"▁found":2068,"▁subsid":2069,"ederal":2070,"▁mail":2071,"▁being":2072,"roup":2073,"▁offered":2074,"▁U.S.":2075,"ances":2076,"ond":2077,"▁activity":2078,"▁check":2079,"uy":2080,"▁RESPONS":2081,"▁providing":2082,"IBLE":2083,"▁enc":2084,"▁functional":2085,"▁month":2086,"▁(including,":2087,"▁opin":2088,"▁local":2089,"RING":2090,"▁strict":2091,"▁CA":2092,"▁APPLY":2093,"▁post,":2094,"▁distribute":2095,"vered":2096,"▁min":2097,"▁ship":2098,"▁well":2099,"▁law.":2100,"▁relation":2101,"▁MERCHANT":2102,"▁FIT":2103,"amp":2104,"▁price":2105,"▁authoriz":2106,"▁Pay":2107,"▁world":2108,"▁BAS":2109,"▁Cli":2110,"▁remed":2111,"▁Dis":2112,"ERRUP":2113,"thod":2114,"▁trademark,":2115,"▁demand":2116,"co":2117,"▁see":2118,"▁even":2119,"alty":2120,"ps://":2121,"scrib":2122,"opy":2123,"▁refuse":2124,"URA":2125,"▁AB":2126,"▁protect":2127,"▁name,":2128,"▁HA":2129,"▁effective":2130,"▁RISK":2131,"▁describ":2132,"▁custom":2133,"plain":2134,"▁located":2135,"ITES":2136,"VER":2137,"ous,":2138,"▁compet":2139,"ECTION":2140,"ruption":2141,"▁FITNESS":2142,"▁abus":2143,"▁tele":2144,"sp":2145,"vant":2146,"▁pract":2147,"▁purpose,":2148,"▁SERVICES,":2149,"▁EVENT":2150,"▁interfere":2151,"▁care":2152,"▁bill":2153,"▁give":2154,"▁WARRANTY":2155,"▁imply":2156,"▁graphics,":2157,"jection":2158,"ng":2159,"▁code":2160,"▁violates":2161,"▁media":2162,"ert":2163,"lead":2164,"▁resol":2165,"▁SPECIAL":2166,"▁AFF":2167,"ily":2168,"▁COMPAN":2169,"▁cho":2170,"rimin":2171,"▁arbitrator":2172,"▁laws,":2173,"WARE":2174,"▁conflic":2175,"▁solic":2176,"▁Client":2177,"ATIONS":2178,"SO":2179,"▁sour":2180,"URAC":2181,"s;":2182,"▁assume":2183,"▁sett":2184,"oid":2185,"▁unlawful,":2186,"▁https://":2187,"FRING":2188,"▁OUT":2189,"▁conc":2190,"chan":2191,"▁Digital":2192,"▁NON":2193,"▁When":2194,"▁subsidiar":2195,"▁particip":2196,"▁APPLICABLE":2197,"▁accuracy,":2198,"erc":2199,"▁With":2200,"▁tort":2201,"▁DAMAGES,":2202,"▁relevant":2203,"▁objection":2204,"▁lib":2205,"ublish":2206,"▁compliance":2207,"▁intended":2208,"▁THESE":2209,"▁ir":2210,"▁Submission":2211,"▁delay":2212,"▁repl":2213,"imum":2214,"eep":2215,"arent":2216,"▁non-commercial":2217,"▁PERMITTED":2218,"▁HAVE":2219,"▁fully":2220,"▁cancell":2221,"IP":2222,"▁TERMS":2223,"▁number":2224,"air":2225,"▁(the":2226,"ged":2227,"▁OBT":2228,"▁binding":2229,"▁qual":2230,"▁suff":2231,"▁contains":2232,"▁(v":2233,"back":2234,"▁comments":2235,"▁Except":2236,"▁alleged":2237,"▁risk.":2238,"▁(collectively,":2239,");":2240,"▁Media":2241,"▁INDIRECT,":2242,"ving":2243,"▁terms,":2244,"DIT":2245,"ebsites,":2246,"RACT":2247,"▁“AS":2248,"▁charges":2249,"▁laws.":2250,"▁entit":2251,"▁concern":2252,"s.com":2253,"udio":2254,"▁orders":2255,"▁endorsement":2256,"▁materials,":2257,"▁whatsoever":2258,"ISED":2259,"self":2260,"▁&":2261,"▁submitted":2262,"▁OTHERWISE":2263,"ution":2264,"▁display,":2265,"▁CLAIM":2266,"▁18":2267,"▁version":2268,"▁explo":2269,"IGH":2270,"▁fitness":2271,"▁includes":2272,"apt":2273,"omain":2274,"▁courts":2275,"comp":2276,"ORS,":2277,"▁New":2278,"▁whole":2279,"▁how":2280,"▁uns":2281,"td":2282,"opyright":2283,"▁(d":2284,"▁SOLE":2285,"▁jud":2286,"▁disclose":2287,"▁given":2288,"▁suppliers":2289,"▁However,":2290,"▁tax":2291,"OST":2292,"▁publish,":2293,"▁Te":2294,"▁functionality":2295,"▁need":2296,"▁Arbit":2297,"▁like":2298,"▁secure":2299,"▁transmit,":2300,"FRINGEMENT":2301,"▁agrees":2302,"▁tra":2303,"▁irre":2304,"▁otherwise,":2305,"▁account,":2306,"▁actions":2307,"▁continue":2308,"IF":2309,"▁rights.":2310,"lement":2311,"af":2312,"ys":2313,"uture":2314,"▁defamatory,":2315,"ser":2316,"▁believe":2317,"▁INCLUDING,":2318,"▁INCIDENTAL,":2319,"ORT":2320,"▁ownership":2321,"▁secret":2322,"▁could":2323,"▁Ltd":2324,"ILI":2325,"▁indirect,":2326,"▁Mobile":2327,"ographic":2328,"fully":2329,"▁publicly":2330,"▁cookies":2331,"▁marks":2332,"▁long":2333,"▁mislead":2334,"▁CONN":2335,"▁agents":2336,"▁service,":2337,"▁operation":2338,"▁Comments":2339,"link":2340,"lish":2341,"▁during":2342,"▁INFORMATION,":2343,"▁details":2344,"board":2345,"▁solicit":2346,"▁connected":2347,"CK":2348,"▁parent":2349,"▁Use,":2350,"▁retain":2351,"▁method":2352,"▁charge":2353,"▁reason,":2354,"▁ins":2355,"▁OBTAINED":2356,"verse":2357,"▁inability":2358,"▁exerc":2359,"▁Unless":2360,"▁reasonably":2361,"▁costs,":2362,"▁unt":2363,"▁POSS":2364,"▁may,":2365,"▁EXPRESSLY":2366,"▁UNDER":2367,"▁place":2368,"▁IMPLIED,":2369,"▁CONTRACT":2370,"fringement":2371,"▁implied,":2372,"▁reliance":2373,"▁AFFILI":2374,"▁received":2375,"▁brow":2376,"▁(IN":2377,"ank":2378,"▁TO,":2379,"yper":2380,"appro":2381,"ersed":2382,"▁restrictions":2383,"▁terminated":2384,"fidential":2385,"ash":2386,"▁liability,":2387,"ENS":2388,"▁years":2389,"▁LAW,":2390,"▁libel":2391,"empor":2392,"DE":2393,"▁unenforceable":2394,"▁injur":2395,"▁automatically":2396,"▁Am":2397,"under":2398,"▁plac":2399,"▁host":2400,"▁compan":2401,"▁infringe":2402,"GE":2403,"▁mobile":2404,"▁PROF":2405,"venience":2406,"▁RELI":2407,"▁wish":2408,"age,":2409,"▁displayed":2410,"iv)":2411,"▁supersed":2412,"OY":2413,"▁record":2414,"▁(INCLUDING":2415,"▁section":2416,"con":2417,"ESS,":2418,"▁fraudul":2419,"▁areas":2420,"ft":2421,"▁employees":2422,"▁determined":2423,"▁federal":2424,"INFRINGEMENT":2425,"▁technolog":2426,"▁Black":2427,"▁entitled":2428,"▁indic":2429,"▁ext":2430,"▁Al":2431,"ENCE":2432,"up":2433,"▁remaining":2434,"▁provides":2435,"▁VIR":2436,"▁SPECIAL,":2437,"▁replace":2438,".com.":2439,"▁sent":2440,"▁POSSIBILITY":2441,"▁DOES":2442,"OME":2443,"▁kind,":2444,"”),":2445,"▁account.":2446,"▁errors":2447,"▁audio":2448,"▁day":2449,"▁specif":2450,"either":2451,"ings,":2452,"▁discontinue":2453,"▁advice":2454,"▁STAT":2455,"ang":2456,"ck":2457,"▁delete":2458,"eal":2459,"▁el":2460,"▁address,":2461,"▁issu":2462,"ICT":2463,"▁Copyright":2464,"▁JUR":2465,"▁SOFT":2466,"voc":2467,"▁remo":2468,"▁(iv)":2469,"mitting":2470,"▁exploit":2471,"▁images,":2472,"▁force":2473,"a,":2474,"▁Proper":2475,"AD":2476,"▁only.":2477,"▁COMPANY":2478,"▁Polic":2479,"▁that:":2480,"▁SOFTWARE":2481,"▁TIM":2482,"▁select":2483,"▁considered":2484,"▁Arbitration":2485,"▁discretion.":2486,"▁\"AS":2487,"▁licensors,":2488,"▁party’s":2489,"ript":2490,"oint":2491,"▁viruses":2492,"▁described":2493,"irst":2494,"▁adapt":2495,"▁Websites":2496,"▁HERE":2497,"▁hyper":2498,"w.":2499,"▁to:":2500,"▁NON-":2501,"▁future":2502,"▁permit":2503,"▁irrevoc":2504,"▁Link":2505,"▁liabilities,":2506,"atis":2507,"▁specifically":2508,"represent":2509,"▁PRODUCTS":2510,"▁original":2511,"ces,":2512,"▁DIRECT":2513,"▁Limit":2514,"ge,":2515,"▁material,":2516,"▁relations":2517,"▁(wh":2518,"▁become":2519,"LIG":2520,"▁party.":2521,"www.":2522,"arily":2523,"”,":2524,"gg":2525,"▁ren":2526,"▁operated":2527,"▁incorporated":2528,"▁market":2529,"▁confirm":2530,"▁SITES":2531,"▁availability":2532,"▁disclosure":2533,"enef":2534,"▁Sup":2535,"▁Policy.":2536,"atisf":2537,"tic":2538,"▁Without":2539,"EVER":2540,"ense,":2541,"ply":2542,"inter":2543,"▁AGRE":2544,"▁files":2545,"▁Blackboard":2546,"▁CONTENT,":2547,"▁Further":2548,"COM":2549,"▁inform":2550,"▁PERS":2551,"▁var":2552,"pons":2553,"▁organizations":2554,"▁est":2555,"▁websites,":2556,"▁AFFILIAT":2557,"▁misrepresent":2558,"ARD":2559,"▁invol":2560,"INT":2561,"▁ENT":2562,"▁ADVISED":2563,"▁personal,":2564,"SIONS":2565,"▁amend":2566,"▁logos":2567,"ees":2568,"standing":2569,"▁export":2570,"▁VIRUS":2571,"ision":2572,"ISD":2573,"▁requirements":2574,"▁Applic":2575,"▁present":2576,"▁equip":2577,"▁occur":2578,"▁Lic":2579,"▁DAMAGE":2580,"▁completen":2581,"▁therein":2582,"▁deal":2583,"▁invest":2584,"▁EXCLUSION":2585,"▁country":2586,"▁possibility":2587,".com,":2588,"ences":2589,"tions":2590,"ild":2591,"INK":2592,"▁government":2593,"▁convenience":2594,"▁5":2595,"▁aware":2596,"▁Reg":2597,"elin":2598,"▁(3":2599,"▁exercise":2600,"▁benef":2601,"▁relationship":2602,"side":2603,"▁upload,":2604,"ix":2605,"olicited":2606,"▁MATERIALS":2607,"▁SOME":2608,"▁party,":2609,"ccess":2610,"ffor":2611,"▁specified":2612,"▁engine":2613,"▁RIGH":2614,"lop":2615,"▁conflict":2616,"UNIT":2617,"▁content.":2618,"▁LIMITATION,":2619,"▁contract,":2620,"▁advertising":2621,"▁agreements":2622,"▁State":2623,"oura":2624,"▁least":2625,"▁roy":2626,"▁keep":2627,"▁fa":2628,"▁subsidiaries,":2629,"▁PERSON":2630,"▁non-in":2631,"▁AGREEMENT":2632,"ing.":2633,"AM":2634,"▁reverse":2635,"ORS":2636,"▁prompt":2637,"▁was":2638,"▁pages":2639,"▁obscene,":2640,"▁prevent":2641,"▁REG":2642,"▁quest":2643,"▁parties.":2644,"▁circumstances":2645,"ICH":2646,"▁PROFIT":2647,"to":2648,"▁EMPL":2649,"▁AGENT":2650,"▁identifi":2651,"▁EMPLOY":2652,"▁(1)":2653,"mb":2654,"▁Mark":2655,"▁crimin":2656,"▁let":2657,"▁indemnify,":2658,"thing":2659,"▁USE,":2660,"raw":2661,"▁GO":2662,"▁(d)":2663,"ree,":2664,"▁complain":2665,"CA":2666,"▁transl":2667,"▁mal":2668,"▁Eng":2669,"IZ":2670,"▁WHICH":2671,"▁exclude":2672,"▁making":2673,"Con":2674,"▁exist":2675,"▁controll":2676,"▁advertisement":2677,"▁notice,":2678,"▁JURISD":2679,"▁ce":2680,"-P":2681,"▁competent":2682,"-S":2683,"▁porn":2684,"▁BEEN":2685,"▁PUNIT":2686,"▁infringing":2687,"▁encoura":2688,"▁PUNITIVE":2689,"▁modific":2690,"▁NON-INFRINGEMENT":2691,"▁with,":2692,"▁purchased":2693,"▁results":2694,"▁ACTION":2695,"suant":2696,"othing":2697,"▁non-infringement":2698,"▁jurisdictions":2699,"▁Upon":2700,"▁uses":2701,"▁MERCHANTABILITY,":2702,"ING,":2703,"▁Materials":2704,"▁else":2705,"▁FUL":2706,"▁EMPLOYE":2707,"▁defend,":2708,"▁sell,":2709,"▁(and":2710,"▁billing":2711,"▁copyrighted":2712,"phone":2713,"▁hereunder":2714,"▁IT":2715,"▁CONNECTION":2716,"▁hyperlink":2717,"▁deve":2718,"oy":2719,"▁tool":2720,"▁disputes":2721,"▁Order":2722,"▁examp":2723,"ICE":2724,"▁effor":2725,"▁names,":2726,"▁omissions":2727,"LO":2728,"▁ra":2729,"▁SEC":2730,"▁inf":2731,"ies.":2732,"▁advised":2733,"▁Communic":2734,"OUNT":2735,"▁harass":2736,"ivil":2737,"IA":2738,"ev":2739,"▁confidentiality":2740,"▁fac":2741,"▁TIME":2742,"▁fullest":2743,"▁use.":2744,"istr":2745,"▁royalty":2746,"▁lost":2747,"▁worldw":2748,"▁disclaims":2749,"▁offensive,":2750,"aximum":2751,"▁admin":2752,"▁Nothing":2753,"▁marks,":2754,"▁DEF":2755,"▁unsolicited":2756,"▁interact":2757,"▁communication":2758,"▁defense":2759,"FUL":2760,"▁ACCURAC":2761,"▁engage":2762,"▁CONDIT":2763,"▁authority":2764,"▁outside":2765,"▁approval":2766,"▁foregoing":2767,"▁interruption":2768,"▁yourself":2769,"▁FULL":2770,"▁Z":2771,"▁viruses,":2772,"ggest":2773,"▁maximum":2774,"▁USER":2775,"▁RESULTING":2776,"▁LIMITATIONS":2777,"▁THERE":2778,"▁EVEN":2779,"ativ":2780,"▁providers":2781,"▁RELATED":2782,"▁TORT":2783,"▁MAKE":2784,"TAN":2785,"▁WARRANTIES,":2786,"▁success":2787,"▁agreed":2788,"▁NEG":2789,"istribut":2790,"▁Sp":2791,"▁fraudulent":2792,".com/":2793,"▁BASIS":2794,"▁judg":2795,"▁seek":2796,"▁incidental":2797,"▁feature":2798,"▁KIND,":2799,"▁ID":2800,"▁provider":2801,"▁non-exclusive,":2802,"ditional":2803,"▁threatening,":2804,"▁names":2805,"▁until":2806,"▁infringes":2807,"pret":2808,"▁every":2809,"▁meet":2810,"▁domain":2811,"▁logos,":2812,"▁included":2813,"ination":2814,"ik":2815,"▁suggest":2816,"▁COR":2817,"▁spons":2818,"▁national":2819,"2)":2820,"par":2821,"▁first":2822,"▁ver":2823,"▁compens":2824,"unity":2825,"pos":2826,"▁defect":2827,"▁objectionable":2828,"▁description":2829,"▁choose":2830,"▁fram":2831,"▁known":2832,"▁/":2833,"▁strictly":2834,"▁publicity":2835,"▁special,":2836,"▁attorneys’":2837,"arch":2838,"▁pursuant":2839,"interrupt":2840,"▁Policy,":2841,"▁develop":2842,"▁“S":2843,"▁that,":2844,"▁sub-":2845,"▁injury":2846,"\").":2847,"▁interpret":2848,"▁continued":2849,"▁uninterrupt":2850,"▁loss,":2851,"▁4":2852,"ublic":2853,"▁INABILITY":2854,"▁(e":2855,"▁Store":2856,"▁HAR":2857,"cont":2858,"▁dif":2859,"▁requests":2860,"land":2861,"umer":2862,"OVE":2863,"▁du":2864,"▁not:":2865,"PER":2866,"▁void":2867,"▁amounts":2868,"NOW":2869,"oper":2870,"▁NEGLIG":2871,"▁merchantability,":2872,"yond":2873,"▁libelous,":2874,"▁acts":2875,"▁addition,":2876,"▁statut":2877,"▁ALLOW":2878,"AA":2879,"after":2880,"▁representative":2881,"▁suit":2882,"▁Sell":2883,"▁transaction":2884,"▁(as":2885,"▁red":2886,"▁beyond":2887,"▁WEBSITE,":2888,"▁PARTIES":2889,"▁title":2890,"▁HARM":2891,"▁intent":2892,"▁exclusion":2893,"▁award":2894,"▁undert":2895,"aj":2896,"▁termination,":2897,"▁practices":2898,"▁effect.":2899,"withstanding":2900,"jan":2901,"▁AM":2902,"▁NEGLIGENCE":2903,"▁actual":2904,"▁possible":2905,"rand":2906,"ARY":2907,"▁membership":2908,"ITHER":2909,"▁bl":2910,"▁CONTRACT,":2911,"▁and,":2912,"tern":2913,"▁stored":2914,"GO":2915,"▁items":2916,"▁messages":2917,"▁submitting":2918,"▁criminal":2919,"▁royalty-f":2920,"▁Good":2921,"▁documents":2922,"ox":2923,"▁referred":2924,"SOEVER":2925,"▁claim,":2926,"▁networks":2927,"ral":2928,"pens":2929,"andard":2930,"uc":2931,"▁listed":2932,"ancial":2933,"▁abs":2934,"▁websites.":2935,"p://":2936,"▁Compan":2937,"▁civil":2938,"ffili":2939,"▁patent":2940,"▁sending":2941,"▁source":2942,"▁expenses,":2943,"▁consent.":2944,"▁(I":2945,"▁rese":2946,"▁AP":2947,"▁transactions":2948,"▁WHAT":2949,"UTH":2950,"▁worm":2951,"▁cease":2952,"rojan":2953,"▁damage,":2954,"▁obscene":2955,"▁fee":2956,"▁unenforceable,":2957,"▁ask":2958,"▁Subscription":2959,"plies":2960,"▁ABOVE":2961,"▁license,":2962,"empl":2963,"▁Cal":2964,"▁LINK":2965,"▁phys":2966,"▁document":2967,"▁RESPONSIBLE":2968,"▁carefully":2969,"▁LIC":2970,"▁incidental,":2971,"▁controlled":2972,"▁WEB":2973,"▁perform,":2974,"vel":2975,"▁Some":2976,"▁WHATSOEVER":2977,"▁suspect":2978,"eric":2979,"▁proced":2980,"▁FORE":2981,"▁ASS":2982,"▁GOOD":2983,"▁waive":2984,"erated":2985,"▁satisf":2986,"▁FULLEST":2987,"▁RESPECT":2988,"ood":2989,"▁Person":2990,"▁transmitted":2991,"▁copies":2992,"▁30":2993,"▁AL":2994,"▁OWN":2995,"▁foregoing,":2996,"Th":2997,"▁Parties":2998,"▁photograph":2999,"▁Q":3000,"▁personally":3001,"▁report":3002,"▁SUPPL":3003,"▁notification":3004,"ie":3005,"▁shipping":3006,"itive":3007,"▁saf":3008,"atab":3009,"▁ide":3010,"▁promotional":3011,"▁den":3012,"▁oral":3013,"contract":3014,"▁‘":3015,"▁back":3016,"▁format":3017,"▁benefit":3018,"▁Property":3019,"USE":3020,"▁OFFIC":3021,"eto":3022,"▁prohibit":3023,"▁hard":3024,"▁tempor":3025,"ave":3026,"▁par":3027,"ICAL":3028,"▁FREE":3029,"▁(whether":3030,"▁9":3031,"▁transmission":3032,"▁Service;":3033,"▁Right":3034,"▁concerning":3035,"▁published":3036,"▁EMPLOYEES,":3037,"▁able":3038,"▁agreeing":3039,"▁PURPOSE,":3040,"▁device":3041,"ries":3042,"▁Contract":3043,"▁http://":3044,"▁sex":3045,"▁most":3046,"▁Confidential":3047,"▁remedy":3048,"UTHOR":3049,"▁FOREGO":3050,"ipt":3051,"▁'":3052,"▁losses":3053,"▁Group":3054,"▁representativ":3055,"as,":3056,"▁parties,":3057,"▁inappro":3058,"▁ther":3059,"LET":3060,"org":3061,"▁FAIL":3062,"▁differ":3063,"▁Provider":3064,"▁“as":3065,"▁unre":3066,"▁sublic":3067,"▁changes.":3068,"plicit":3069,"▁licensed":3070,"ered":3071,"▁respond":3072,"▁promptly":3073,"ied":3074,"ERRUPTED":3075,"ND":3076,"▁SUBS":3077,"▁disrupt":3078,"▁Americ":3079,".COM":3080,"bot":3081,"01":3082,"▁Use.":3083,"ors.":3084,"▁consult":3085,"▁EXCE":3086,"▁port":3087,"▁from,":3088,"▁DIRECT,":3089,"ium":3090,"▁UNINT":3091,"net":3092,"ices,":3093,"▁inaccurac":3094,"▁equipment":3095,"▁Gen":3096,"▁both":3097,"▁suppliers,":3098,"enue":3099,"▁identifiable":3100,"▁deliver":3101,"vious":3102,"▁allowed":3103,"▁UNINTERRUPTED":3104,"▁might":3105,"▁affiliated":3106,"▁email,":3107,"▁updated":3108,"ug":3109,"ters":3110,"▁placed":3111,"▁appearing":3112,"▁renew":3113,"▁CORRE":3114,"▁application":3115,"▁code,":3116,"▁SUPPLI":3117,"nia":3118,"▁contribut":3119,"ourced":3120,"▁usern":3121,"▁propert":3122,"▁receipt":3123,"▁6":3124,"▁accessible":3125,"▁liabilities":3126,"rue,":3127,"▁contractors,":3128,"ough":3129,"▁direct,":3130,"▁Such":3131,"▁Online":3132,"▁pun":3133,"▁plan":3134,"reen":3135,"▁telephone":3136,"-F":3137,"▁7":3138,"IZED":3139,"RL":3140,"TER":3141,"▁Ag":3142,"▁physical":3143,"ifor":3144,"ifornia":3145,"▁destro":3146,"▁Buy":3147,"▁REPRESENTATIONS":3148,"▁herein,":3149,"▁cooper":3150,"▁regulations,":3151,"▁suspens":3152,"▁facil":3153,"▁collection":3154,"-Sourced":3155,"ton":3156,"▁California":3157,"▁offensive":3158,"▁investig":3159,"such":3160,"▁block":3161,"▁Affili":3162,"▁purposes.":3163,"▁pornographic":3164,"▁DAMAGES.":3165,"▁deb":3166,"▁enable":3167,"▁NE":3168,"▁release":3169,"▁arran":3170,"▁submission":3171,"ervice":3172,"▁class":3173,"▁defined":3174,"▁MAKES":3175,"▁find":3176,"▁platform":3177,"inc":3178,"▁OFFICERS,":3179,"▁(such":3180,"▁forum":3181,"will":3182,"▁financial":3183,"agraph":3184,"gement":3185,"▁instruct":3186,"ACH":3187,"pet":3188,"▁init":3189,"▁giving":3190,"▁Res":3191,"\"),":3192,"▁recomm":3193,"▁datab":3194,"OUR":3195,"MED":3196,"▁prohibited.":3197,"▁DISCLAIMS":3198,"LD":3199,"▁clause":3200,"▁explicit":3201,"▁profits,":3202,"▁Payment":3203,"ue,":3204,"▁guid":3205,"▁impro":3206,"▁however,":3207,"ED,":3208,"▁immediate":3209,"arn":3210,"▁HAS":3211,"a.":3212,"▁title,":3213,"ide,":3214,"▁previous":3215,"Content":3216,"▁times":3217,"▁LICENS":3218,"▁accounts":3219,"ographical":3220,"▁PERSONAL":3221,"▁abusive,":3222,"ations.":3223,"MISSION":3224,"Terms":3225,"▁(h":3226,"ress":3227,"▁enforcement":3228,"iqu":3229,"▁reflect":3230,"▁party;":3231,"▁entered":3232,"▁DIRECTORS,":3233,"MISSIONS":3234,"ways":3235,"▁separ":3236,"▁invo":3237,"PT":3238,"ep":3239,"isions":3240,"▁destruct":3241,"redit":3242,"0)":3243,"▁viewing":3244,"essional":3245,"▁sch":3246,"▁legally":3247,"▁[":3248,"▁access,":3249,"▁expressed":3250,"▁representation":3251,"▁inclusion":3252,"UTHORIZED":3253,"▁ACT":3254,"▁Communication":3255,"▁PR":3256,"ogle":3257,"▁copyrights,":3258,"▁privacy,":3259,"▁Additional":3260,"▁subst":3261,"▁protection":3262,"▁servers":3263,"older":3264,"▁assumes":3265,"ASE":3266,"round":3267,"▁payments":3268,"▁Network":3269,"▁PA":3270,"ety":3271,"▁person,":3272,"▁patent,":3273,"change":3274,"pe":3275,"▁Subject":3276,"▁circumvent":3277,"nc":3278,"▁RISK.":3279,"▁PROFITS,":3280,"▁COMPLET":3281,"ORY":3282,"▁proceeding":3283,"▁partners,":3284,"▁completeness":3285,"▁internet":3286,"▁opinions":3287,"▁(2)":3288,"▁service.":3289,"▁basis.":3290,"▁complete,":3291,"▁meas":3292,"▁downloaded":3293,"▁Limited":3294,"▁electronically":3295,"▁delivered":3296,"▁context":3297,"▁revised":3298,"▁Other":3299,"▁images":3300,"icient":3301,"▁goodwill":3302,"▁sale":3303,"▁decomp":3304,"pendent":3305,"▁car":3306,"UST":3307,"▁dut":3308,"▁cancellation":3309,"ize":3310,"▁Member":3311,"▁taken":3312,"▁PRODUCTS,":3313,"▁relief":3314,"▁sexual":3315,"oral":3316,"▁part,":3317,"ternal":3318,"▁Company,":3319,"▁URL":3320,"▁Publish":3321,"▁rent":3322,"▁proceedings":3323,"▁automated":3324,"▁blog":3325,"▁arise":3326,"▁DATA,":3327,"▁designed":3328,"▁CORRECT":3329,"▁anything":3330,"▁cap":3331,"scriber":3332,"▁agenc":3333,"LED":3334,"▁paragraph":3335,"▁note":3336,"’S":3337,"▁modified":3338,"▁spam":3339,"▁ut":3340,"▁persons":3341,"▁systems":3342,"▁third-part":3343,"▁example,":3344,"▁Ent":3345,"▁according":3346,"▁faith":3347,"▁partners":3348,"▁imperson":3349,"▁THEIR":3350,"▁ME":3351,"sue":3352,"▁file":3353,"vers":3354,"▁redistribut":3355,"den":3356,"▁$":3357,"ime":3358,"-FREE":3359,"▁accessed":3360,"▁13":3361,"▁expir":3362,"▁-":3363,"ablish":3364,"usic":3365,"▁–":3366,"▁CH":3367,"eedback":3368,"▁perpet":3369,"▁marketing":3370,"ren":3371,"idence":3372,"LY,":3373,"▁charged":3374,"▁recommend":3375,"▁state,":3376,"▁SERVICE,":3377,"▁opport":3378,"▁various":3379,"ation;":3380,"▁Disp":3381,"▁RESULTS":3382,"▁INTERRUP":3383,"▁License":3384,"semb":3385,"▁member":3386,"▁duplic":3387,"ICTIONS":3388,"ealth":3389,"mission,":3390,"▁therefore":3391,"▁regular":3392,"▁Trad":3393,"OT":3394,"▁DOWN":3395,"ACT":3396,"▁having":3397,"▁participate":3398,"▁adapt,":3399,"▁sing":3400,"▁SITE.":3401,"▁Can":3402,"we":3403,"▁stor":3404,"▁Notwithstanding":3405,"▁destroy":3406,"▁cooperate":3407,"▁thereof,":3408,"▁instit":3409,"▁Each":3410,"▁limiting":3411,"User":3412,"▁illegal,":3413,"▁Personal":3414,"PERT":3415,"▁decompile":3416,"AK":3417,"▁opt":3418,"▁DOWNLO":3419,"▁Services;":3420,"▁Tra":3421,"grad":3422,"▁indirectly,":3423,"utions":3424,".,":3425,"MAN":3426,"EMPL":3427,"▁resources":3428,"▁MADE":3429,"ANCE":3430,"▁COMPUT":3431,"icious":3432,"▁import":3433,"▁Website;":3434,"arm":3435,"▁feed":3436,"▁server":3437,"▁ann":3438,"ours":3439,"▁grants":3440,"rought":3441,"▁Ass":3442,"▁treat":3443,"▁(v)":3444,"▁home":3445,"-d":3446,"RED":3447,"able.":3448,"▁determine":3449,"ition":3450,"▁IS”":3451,"ATING":3452,"▁Further,":3453,"▁Cons":3454,"▁updates":3455,"▁Rul":3456,"▁sites,":3457,"ependent":3458,"bur":3459,"▁LOST":3460,"sh":3461,"▁SECURE":3462,"▁COMPUTER":3463,"▁LEG":3464,"▁conditions.":3465,"▁his":3466,"JUR":3467,"▁QU":3468,"ism":3469,"▁typographical":3470,"▁authorize":3471,"▁assist":3472,"▁maintaining":3473,"▁brought":3474,"▁programs":3475,"ble":3476,"NOWLED":3477,"▁RESPONSIBILITY":3478,"▁establish":3479,"▁EXEMPL":3480,"▁resell":3481,"▁sites.":3482,"\",":3483,"▁periodically":3484,"▁course":3485,"▁created":3486,"▁not,":3487,"▁Des":3488,"▁Condition":3489,"ool":3490,"▁CONDITIONS":3491,"▁submissions":3492,"▁pen":3493,"▁abide":3494,"▁UNA":3495,"▁Trojan":3496,"▁prices":3497,"sess":3498,"ges,":3499,"▁stop":3500,"▁brows":3501,"az":3502,"▁revise":3503,"▁acqu":3504,"▁pack":3505,"▁19":3506,"▁transfer,":3507,"▁error-f":3508,"▁purpose.":3509,"▁indemnification":3510,"▁India":3511,"gether":3512,"cast":3513,"letion":3514,"▁likely":3515,"▁Site;":3516,"▁ERROR-FREE":3517,"▁Goods":3518,"▁INTERRUPTION":3519,"▁downloading":3520,"▁LEGAL":3521,"▁usage":3522,"▁reliability":3523,"ale":3524,"▁providers,":3525,"▁Linked":3526,"▁worms,":3527,"▁causes":3528,"▁ACK":3529,"LESS":3530,"▁Trans":3531,"ORY,":3532,"▁thereto":3533,"▁ACKNOWLED":3534,"▁CONTAINED":3535,"ionally":3536,"osed":3537,"▁misuse":3538,"▁Google":3539,"les":3540,"der,":3541,"▁resolve":3542,"ass,":3543,"▁distribution":3544,"▁them.":3545,"▁sold":3546,"▁receiving":3547,"▁Certain":3548,"ERED":3549,"▁arrangement":3550,"▁photographs,":3551,"CU":3552,"MCA":3553,"atch":3554,"▁validity":3555,"▁medi":3556,"▁always":3557,"ary,":3558,"▁PROPERT":3559,"▁suspension":3560,"▁indec":3561,"▁10":3562,"▁possess":3563,"eop":3564,"▁Access":3565,"▁reproduce":3566,"▁letter":3567,"▁SUB":3568,"t,":3569,"▁irrevocable,":3570,"▁et":3571,"▁disput":3572,"▁licenses":3573,"▁transferred":3574,"▁search":3575,"▁Off":3576,"▁manag":3577,"▁Post":3578,"▁errors,":3579,"▁advertising,":3580,".co":3581,"▁X":3582,"ons":3583,"▁notified":3584,"▁8":3585,"▁re-":3586,"▁commit":3587,"▁compensation":3588,"▁fees)":3589,"anent":3590,"ict":3591,"▁FAILURE":3592,"▁client":3593,"▁AMOUNT":3594,"ower":3595,"ponent":3596,"▁click":3597,"▁quality":3598,"▁AFFILIATES,":3599,"▁supply":3600,"WE":3601,"▁perpetual":3602,"over":3603,"ance,":3604,"IMUM":3605,"urch":3606,"▁now":3607,"UAL":3608,"▁i":3609,"▁INTER":3610,"rial":3611,"▁ASSUM":3612,"▁JURISDICTIONS":3613,"ITLE":3614,"▁child":3615,"▁malicious":3616,"▁PAID":3617,"▁it.":3618,"▁independent":3619,"▁type":3620,"▁FE":3621,"▁emb":3622,"▁regardless":3623,"PH":3624,"▁pricing":3625,"▁single":3626,"AC":3627,"▁royalty-free,":3628,"▁transmitt":3629,"▁administr":3630,"▁inaccuracies":3631,"▁others.":3632,"rypt":3633,"▁edit,":3634,"▁it,":3635,"▁VIRUSES":3636,"▁Del":3637,"▁longer":3638,"▁sound":3639,"▁misleading":3640,"▁digital":3641,"▁exper":3642,"▁MAX":3643,"▁gain":3644,"ments.":3645,"▁supersede":3646,"▁rise":3647,"▁standard":3648,"▁policies,":3649,"▁bank":3650,"▁(3)":3651,"IST":3652,"▁\"as":3653,"ecause":3654,"▁UNAUTHORIZED":3655,"ANG":3656,"▁private":3657,"▁DEFECT":3658,"ases":3659,"▁guidelin":3660,"▁harassing,":3661,"▁Company’s":3662,"istered":3663,"ane":3664,"ines":3665,"▁advertisements":3666,"blog":3667,"▁permanent":3668,"▁technology":3669,"▁Im":3670,"▁AGENTS,":3671,"▁TITLE":3672,"ling":3673,"▁USING":3674,"▁Rights":3675,"istent":3676,"▁INJUR":3677,"▁util":3678,"▁external":3679,"▁Because":3680,"▁Business":3681,"▁enforceable":3682,"▁exclusively":3683,"riction":3684,"▁professional":3685,"▁Conditions,":3686,"▁expect":3687,"▁Law":3688,"oney":3689,"▁MAXIMUM":3690,"▁action,":3691,"▁(e)":3692,"▁Ret":3693,"▁processing":3694,"▁Intellectual":3695,"I)":3696,"▁princ":3697,"▁attorneys'":3698,"igh":3699,"▁restriction":3700,"eat":3701,"▁hardware":3702,"▁enj":3703,"▁ERRORS":3704,"▁val":3705,"▁YOU.":3706,"UTE":3707,"▁IS\"":3708,"▁Notice":3709,"▁component":3710,"▁worldwide,":3711,"▁remedies":3712,"▁hors":3713,"ces.":3714,"vest":3715,"▁visiting":3716,"▁sufficient":3717,"▁Count":3718,"▁CONDUCT":3719,"▁true,":3720,"▁removed":3721,"▁modification":3722,"sequent":3723,"▁were":3724,"▁whatsoever,":3725,"▁ability":3726,"▁fund":3727,"▁GU":3728,"▁attribut":3729,"▁OTHERWISE,":3730,"▁HARMFUL":3731,"▁offers":3732,"▁Software,":3733,"▁ACKNOWLEDGE":3734,"▁bring":3735,"▁omission":3736,"▁RIGHTS":3737,"▁authorities":3738,"▁Buyer":3739,"▁sponsors":3740,"▁pornographic,":3741,"▁change,":3742,"▁Seller":3743,"▁customers":3744,"▁username":3745,"▁assert":3746,"-b":3747,"eople":3748,"▁SUPPLIERS":3749,"trans":3750,"▁12":3751,"▁tools":3752,"▁mult":3753,"▁advance":3754,"▁book":3755,"▁invas":3756,"ALITY":3757,"▁thereof)":3758,"ov":3759,"ining":3760,"▁death":3761,"▁REMED":3762,"▁PL":3763,"▁engineer":3764,"▁SERVICES.":3765,"▁order.":3766,"LIN":3767,"Com":3768,"▁NOR":3769,"▁call":3770,"▁https://www.":3771,"▁different":3772,"▁feedback":3773,"▁buy":3774,"▁distributed":3775,"▁There":3776,"ms":3777,"▁Program":3778,"EE":3779,"▁questions":3780,"▁law;":3781,"▁lawful":3782,"▁neither":3783,"▁SPECIF":3784,"▁ideas,":3785,"▁final":3786,"▁venue":3787,"▁TOU":3788,"▁RELATING":3789,"▁issue":3790,"▁Membership":3791,"▁sub-lic":3792,"▁undertake":3793,"olute":3794,"▁hate":3795,"▁educ":3796,"▁IP":3797,"▁MON":3798,"▁posted,":3799,"▁install":3800,"▁PUNITIVE,":3801,"▁for,":3802,"▁vul":3803,"▁Conditions.":3804,"▁Canad":3805,"▁Neither":3806,"▁TOS":3807,"▁profile":3808,"though":3809,"▁measures":3810,"GRA":3811,"▁thir":3812,"▁database":3813,"▁efforts":3814,"▁MEET":3815,"▁exceed":3816,"▁(ex":3817,"ames":3818,"ging":3819,"▁identity":3820,"ibility":3821,"▁compil":3822,"usiness,":3823,"uf":3824,"▁WAY":3825,"atory":3826,"▁propos":3827,"▁OF,":3828,"▁entirely":3829,"▁enjoy":3830,"▁USA":3831,"ated,":3832,"▁option":3833,"▁publication":3834,"▁temporarily":3835,"▁companies":3836,"▁DEL":3837,"BY":3838,"▁leg":3839,"▁disable":3840,"▁phone":3841,"▁robot":3842,"▁website;":3843,"▁rules,":3844,"UE":3845,"▁PURCH":3846,"▁taxes":3847,"END":3848,"see":3849,"▁CONSEQUENTIAL,":3850,"▁COMM":3851,"▁York":3852,"▁extract":3853,"▁while":3854,"▁My":3855,"▁applies":3856,"urance":3857,"▁sales":3858,"▁Feedback":3859,"▁EITHER":3860,"ivers":3861,"▁matters":3862,"ather":3863,"▁fact":3864,"ises":3865,"▁above,":3866,"▁taking":3867,"▁agreements,":3868,"▁absolute":3869,"ioned":3870,"▁music":3871,"ections":3872,"▁business,":3873,"▁English":3874,"cess":3875,"▁demand,":3876,"▁inappropriate":3877,"jud":3878,"▁OPER":3879,"▁republish":3880,"e.g":3881,"▁DISC":3882,"▁printed":3883,".org":3884,"▁separate":3885,"▁sav":3886,"▁CAUS":3887,"ANN":3888,"▁SOFTWARE,":3889,"▁attack":3890,"▁copying":3891,"▁obtaining":3892,"▁BUS":3893,"▁Techn":3894,"ired":3895,"▁control,":3896,"▁graphics":3897,"▁TE":3898,"▁conducted":3899,"▁hereof":3900,"ied,":3901,"iple":3902,"▁FOREGOING":3903,"▁identify":3904,"▁Subscriber":3905,"▁provided,":3906,"▁BUSIN":3907,"▁user’s":3908,"▁\"S":3909,"▁TERM":3910,"FORMAN":3911,"▁(e.g":3912,"▁services;":3913,"▁REQU":3914,"▁expiration":3915,"▁portions":3916,"FORMANCE":3917,"nel":3918,"▁LINKED":3919,"▁aspect":3920,"▁perpetual,":3921,"▁Fees":3922,"▁ACCURACY,":3923,"▁interrupt":3924,"▁accepted":3925,"▁requested":3926,"VEN":3927,"▁group":3928,"▁statutory":3929,"▁encourage":3930,"ufact":3931,"▁parts":3932,"▁entity,":3933,"▁foreign":3934,"▁best":3935,"▁expense,":3936,"▁Market":3937,"▁endors":3938,"▁BASED":3939,"▁is”":3940,"▁impersonate":3941,"spot":3942,"▁purpose;":3943,"▁(C":3944,"riptions":3945,"▁designated":3946,"▁number,":3947,"lear":3948,"OULD":3949,"▁initi":3950,"ss":3951,"▁someone":3952,"hold":3953,"▁contr":3954,"▁communicate":3955,"▁maj":3956,".1":3957,"▁entities":3958,"her":3959,"ly.":3960,"▁states":3961,"▁social":3962,"▁collected":3963,"▁exchange":3964,"▁organization":3965,"▁maintained":3966,"or,":3967,"▁Co":3968,"udent":3969,"▁eth":3970,"▁browser":3971,"transfer":3972,"▁contacting":3973,"ARANT":3974,"▁governmental":3975,"▁GUARANT":3976,"enn":3977,"▁ADVICE":3978,"MENTS":3979,"assemb":3980,"▁contest":3981,"▁subsequent":3982,"eav":3983,"ural":3984,"AP":3985,"▁Advert":3986,"▁harmful,":3987,"▁applications":3988,"▁broad":3989,"iary":3990,"tal":3991,"▁instructions":3992,"▁page.":3993,"▁proble":3994,"▁resources,":3995,"▁DOWNLOAD":3996,"TR":3997,"▁discontinu":3998,"ion.":3999,"pp":4000,"▁Own":4001,"unk":4002,"ances,":4003,"▁property,":4004,"▁mail,":4005,"▁Vis":4006,"▁etc.":4007,"▁System":4008,"communic":4009,"▁settlement":4010,"▁av":4011,"▁aggre":4012,"ipl":4013,"▁UNDERS":4014,"ed;":4015,"▁contractual":4016,"ERTAIN":4017,"ouse":4018,"ased":4019,"icro":4020,"▁copied,":4021,"▁herein.":4022,"▁EXCEED":4023,"▁destructive":4024,"▁Inter":4025,"▁disassemb":4026,"LECT":4027,"▁suffered":4028,"▁agreement,":4029,"▁reven":4030,"▁Where":4031,"▁location":4032,"▁collective":4033,"▁translate,":4034,"▁incorrect":4035,"▁transmitted,":4036,"▁COMPLETEN":4037,"arge":4038,"▁otherwise.":4039,"▁jurisdiction.":4040,"ardian":4041,"▁integ":4042,"▁licensors.":4043,"▁ADVERT":4044,"▁prep":4045,"blogspot":4046,"▁regulations.":4047,"▁identification":4048,"▁Sites,":4049,"duc":4050,"▁Company.":4051,"OP":4052,"▁manufact":4053,"▁spid":4054,"▁notices,":4055,"▁PERFORMANCE":4056,"orld":4057,"▁message":4058,"▁UP":4059,"▁Discl":4060,"▁quality,":4061,"(s":4062,"ten":4063,"▁continuing":4064,"▁video,":4065,"▁terr":4066,"▁scra":4067,"▁dep":4068,"▁RIGHT":4069,"▁withd":4070,"ine,":4071,"▁Claim":4072,"ful,":4073,"▁available,":4074,"▁provisions.":4075,"▁ethn":4076,"▁password,":4077,"▁promote":4078,"▁ment":4079,"▁CLAIMS":4080,"▁UNDERSTAN":4081,"▁reproduct":4082,"▁CRE":4083,"▁COUR":4084,"ure,":4085,"lob":4086,"▁indirectly":4087,"▁individuals":4088,"▁operating":4089,"▁order,":4090,"▁satisfy":4091,"▁INA":4092,"▁REGARD":4093,"St":4094,"▁HEREBY":4095,"▁SY":4096,"▁owners":4097,"▁International":4098,"▁Associ":4099,"▁ic":4100,"ONE":4101,"uthorised":4102,"▁APP":4103,"ized":4104,"▁interruption,":4105,"▁sponsorship":4106,"ONENT":4107,"▁files,":4108,"▁decide":4109,"▁COMPONENT":4110,"▁amended":4111,"▁tw":4112,"▁telecommunic":4113,"▁Design":4114,"▁enforceability":4115,"ITIES":4116,"ATURE":4117,"▁download,":4118,"valu":4119,"als,":4120,"▁script":4121,"▁defects":4122,"▁hand":4123,"▁injunct":4124,"▁modifications":4125,"▁REMEDY":4126,"▁uninterrupted,":4127,"enced":4128,"▁resource":4129,"▁Purch":4130,"-of":4131,"▁educational":4132,"▁operate":4133,"▁involve":4134,"▁AFFILIATES":4135,"▁(A":4136,"▁purchases":4137,"▁TRANSMITTED":4138,"▁people":4139,"alth":4140,"▁CERTAIN":4141,"read":4142,"▁thirty":4143,"▁TORT,":4144,"▁moral":4145,"omb":4146,"▁User’s":4147,"▁UNDERSTAND":4148,"ek":4149,"-c":4150,"UND":4151,"▁together":4152,"▁endeav":4153,"▁incorporate":4154,"▁password.":4155,"▁judgment":4156,"▁procedures":4157,"ices.":4158,"▁demands,":4159,"▁members":4160,"▁multiple":4161,"▁Suppli":4162,"▁reserved.":4163,"▁(f":4164,"▁prejud":4165,"▁disclosed":4166,"oad":4167,"▁total":4168,"▁HEREIN":4169,"▁incur":4170,"ffic":4171,"▁provisions,":4172,"▁consumer":4173,"▁At":4174,"▁PROPERTY":4175,"ATION,":4176,"▁head":4177,"edical":4178,"come":4179,"ence,":4180,"▁conform":4181,"▁modification,":4182,"gar":4183,"▁medium":4184,"▁supplied":4185,"priate,":4186,"▁on,":4187,"▁materials;":4188,"▁complaint":4189,"▁While":4190,"▁monthly":4191,"▁disab":4192,"▁allows":4193,"▁Sc":4194,"▁Gu":4195,"-to":4196,"▁news":4197,"▁invoice":4198,"▁INACC":4199,"ators":4200,"▁Cor":4201,"▁way,":4202,"▁Application":4203,"▁ACCURACY":4204,"otential":4205,"▁belong":4206,"▁product,":4207,"▁STATUT":4208,"▁Rules":4209,"▁working":4210,"▁Cod":4211,"ream":4212,"▁Provid":4213,".2":4214,"▁EN":4215,"▁guardian":4216,"▁current.":4217,"gin":4218,"▁restricted":4219,"▁belief":4220,"▁American":4221,"▁party's":4222,"▁evalu":4223,"AND":4224,"▁reproduc":4225,"▁webp":4226,"mart":4227,"▁(if":4228,"▁(30)":4229,"▁Customer’s":4230,"▁transmissions":4231,"▁corpor":4232,"▁damages.":4233,"eng":4234,"ault":4235,"▁lab":4236,"▁refunds":4237,"semin":4238,"uro":4239,"▁LIABILITY,":4240,"▁error-free":4241,"▁Cook":4242,"▁falsely":4243,"▁local,":4244,"▁once":4245,"▁terms.":4246,"ures,":4247,"▁affiliation":4248,"▁aggreg":4249,"▁(for":4250,"▁ACCUR":4251,"▁avoid":4252,"▁Aust":4253,"▁Trademark":4254,"▁principl":4255,"You":4256,"▁Health":4257,"▁MED":4258,"▁inaccurate":4259,"▁Card":4260,"▁Qu":4261,"▁Micro":4262,"▁“A":4263,"struct":4264,"▁vend":4265,"▁warranty,":4266,"ports":4267,"▁help":4268,"▁bar":4269,"▁visitor":4270,"▁exec":4271,"▁withdraw":4272,"▁Hub":4273,"▁quant":4274,"-s":4275,"soft":4276,"▁REQUIRE":4277,"▁Oper":4278,"▁MATERIALS,":4279,"▁representatives":4280,"ission":4281,"▁potential":4282,"ingly":4283,"▁violations":4284,"▁store,":4285,"ning":4286,"▁photo":4287,"▁negligence,":4288,"ires":4289,"▁broadcast":4290,"▁STR":4291,"▁Ltd.":4292,"ICTION":4293,"▁liable,":4294,"▁REPRESENTAT":4295,"▁QUALITY":4296,"▁licence":4297,"▁useful":4298,"▁federal,":4299,"▁errors.":4300,"ca":4301,"▁INCUR":4302,"its":4303,"-Party":4304,"▁want":4305,"alt":4306,"▁non-transfer":4307,"▁statements":4308,"▁written,":4309,"▁effort":4310,"▁Agent":4311,"-PART":4312,"▁user,":4313,"▁“P":4314,"▁Prot":4315,"▁Be":4316,"▁subcontract":4317,"▁(collectively":4318,"aneous":4319,"▁INACCURAC":4320,"▁Play":4321,"▁track":4322,"▁Id":4323,"▁CAUSE":4324,"▁EXP":4325,"▁indicated":4326,"alk":4327,"sible":4328,"▁States,":4329,"▁registering":4330,"▁containing":4331,"CI":4332,"xx":4333,"▁IM":4334,"▁SOLELY":4335,"▁others;":4336,"▁AVAILABLE”":4337,"'S":4338,"▁thereof.":4339,"way":4340,"▁carri":4341,"▁Dispute":4342,"itable":4343,"▁INCLU":4344,"▁signature":4345,"uss":4346,"▁Fl":4347,"▁unavail":4348,"rong":4349,"als":4350,"atever":4351,"▁users,":4352,"▁Technolog":4353,"respon":4354,"LEASE":4355,"▁information;":4356,"▁update,":4357,"▁indemnity":4358,"▁suggestions,":4359,"▁health":4360,"▁interpreted":4361,"▁Ac":4362,"▁cou":4363,"▁dissemin":4364,"▁value":4365,"ially":4366,"▁whatever":4367,"▁Inc":4368,"CES":4369,"▁permission.":4370,"▁screen":4371,"TM":4372,"▁provision.":4373,"STEM":4374,"▁decision":4375,"▁others,":4376,"▁control.":4377,"▁deletion":4378,"▁processed":4379,"▁object":4380,"▁visitors":4381,"▁integr":4382,"BIT":4383,"▁Sec":4384,"▁WARRANTY,":4385,"▁unauthorised":4386,"▁inaccurate,":4387,"▁prejudice":4388,"CIAL":4389,"▁purchasing":4390,"▁possession":4391,"▁Under":4392,"▁interactive":4393,"ICALLY":4394,"▁improve":4395,"▁comments,":4396,"▁existing":4397,"▁views":4398,"▁goodwill,":4399,"▁last":4400,"▁lit":4401,"▁countries":4402,"▁liability.":4403,"▁NON-INFRINGEMENT.":4404,"▁BRE":4405,"▁201":4406,"▁connect":4407,"▁approve":4408,"ept":4409,"hing":4410,".in":4411,"s:":4412,"▁cal":4413,"ore,":4414,"▁revoc":4415,"▁11":4416,"a.com":4417,"▁SET":4418,"▁AGENTS":4419,"▁vulgar":4420,"▁INJURY":4421,"▁SYSTEM":4422,"▁THIRD-PART":4423,"▁BET":4424,"▁revenue,":4425,"ead":4426,"▁common":4427,"▁music,":4428,"▁design,":4429,"ves":4430,"▁reput":4431,"ans":4432,"▁(B":4433,"▁only,":4434,"▁messages,":4435,"where":4436,"ency":4437,"▁nothing":4438,"▁resources.":4439,"me":4440,"REG":4441,"▁appli":4442,".blogspot":4443,"RIT":4444,"▁REAS":4445,"▁JURISDICTION":4446,"▁facilit":4447,"▁Cour":4448,"ored":4449,"duce":4450,"▁respects":4451,"row":4452,"▁incomp":4453,"ars":4454,"▁later":4455,"osing":4456,"▁UNINTERRUPTED,":4457,"aster":4458,"▁REASON":4459,"rit":4460,"▁Credit":4461,"▁POS":4462,"ions.":4463,"▁ASSUME":4464,"au":4465,"▁Sol":4466,"▁actions,":4467,"▁issues":4468,"▁creating":4469,"AG":4470,"▁Submissions.":4471,"▁worldwide":4472,"▁claimed":4473,"▁subscrib":4474,"▁deny":4475,"▁Return":4476,"▁accom":4477,"▁retri":4478,"OC":4479,"▁interfer":4480,"ope":4481,"▁notifying":4482,"ai":4483,"▁stri":4484,"▁Registration":4485,"vis":4486,"▁TRANSMISSION":4487,"ivery":4488,"▁allegedly":4489,"▁secret,":4490,"aging":4491,"romot":4492,"▁device,":4493,"BITR":4494,"▁BREACH":4495,"▁users.":4496,"▁purposes,":4497,"▁horses,":4498,"angu":4499,"▁administrative":4500,"▁Austral":4501,"ACTION":4502,"ah":4503,"▁current,":4504,"icket":4505,"spam":4506,"▁unable":4507,"itive,":4508,"▁data.":4509,"▁software.":4510,"▁procure":4511,"ervices":4512,"▁disclaimers,":4513,"anc":4514,"▁MERCHANTABILITY":4515,"▁15":4516,"▁LICENSORS":4517,".net":4518,"12":4519,"▁Man":4520,"▁guarante":4521,"▁guidelines":4522,"▁Cent":4523,"▁BUSINESS":4524,"▁reproduced,":4525,"NET":4526,"▁brand":4527,"▁DEFECTS":4528,"▁THIRD-PARTY":4529,"▁14":4530,"▁previously":4531,"lobal":4532,"ASS":4533,"▁opportunity":4534,"WEEN":4535,"▁ARBITR":4536,"respond":4537,"ror":4538,"▁believ":4539,"▁BETWEEN":4540,"EAR":4541,"▁chat":4542,"▁col":4543,"▁obligations,":4544,"▁types":4545,"▁OFFERED":4546,"▁DMCA":4547,"▁USERS":4548,"▁LOSSES":4549,"▁automatic":4550,"▁WA":4551,"▁Store-Sourced":4552,"▁NEGLIGENCE,":4553,"▁Inst":4554,"▁resolved":4555,"ware,":4556,"▁General":4557,"▁non-infringement.":4558,"▁Port":4559,"▁Host":4560,"ARDING":4561,"equ":4562,"▁Products,":4563,"▁experience":4564,"▁MEM":4565,"EL":4566,"▁shop":4567,"clusions":4568,"▁disclaimer":4569,"▁REGARDING":4570,"DED":4571,"▁bec":4572,"▁CIR":4573,"Cl":4574,"▁ERRORS,":4575,"▁settle":4576,"ader":4577,"artment":4578,"▁INCURRED":4579,"▁clear":4580,"▁schem":4581,"ually":4582,"action":4583,"▁children":4584,"▁elig":4585,"▁excluded":4586,"person":4587,"▁correspond":4588,"▁STRICT":4589,"edu":4590,"▁punitive,":4591,"▁Members":4592,"▁ENTIRE":4593,"▁Col":4594,"▁tr":4595,"TAL":4596,"▁,":4597,"▁SECTION":4598,"▁addresses":4599,"▁impair":4600,"isl":4601,"▁COST":4602,"▁cover":4603,"▁(f)":4604,"▁request,":4605,"▁presented":4606,"▁Publisher":4607,"▁Dep":4608,"▁remove,":4609,"OF":4610,"▁VIRUSES,":4611,"▁payable":4612,"▁uploaded":4613,"▁spam,":4614,"▁Porn":4615,"▁Indemn":4616,"ics":4617,"▁exempl":4618,"pany":4619,"▁Form":4620,"In":4621,"▁OMISSIONS":4622,"▁Content;":4623,"itute":4624,"▁TITLE,":4625,"▁ill":4626,"▁POSTED":4627,"▁kept":4628,"▁Microsoft":4629,"▁CIRCU":4630,"▁videos,":4631,"▁button":4632,"▁CIRCUMS":4633,"te":4634,"▁businesses":4635,"▁http://www.":4636,"▁records":4637,"▁CIRCUMSTAN":4638,"▁sure":4639,"▁ordin":4640,"▁Me":4641,"privacy":4642,"▁Pric":4643,"▁try":4644,"▁Euro":4645,"▁identified":4646,"▁abuse,":4647,"▁enh":4648,"▁equitable":4649,"▁PURPOSE.":4650,"▁dur":4651,"▁contrary":4652,"activ":4653,"▁prevail":4654,"▁publishing":4655,"▁MEMB":4656,"▁proposals,":4657,"▁money":4658,"▁terminating":4659,"▁Shop":4660,"LEG":4661,"atural":4662,"▁$1":4663,"▁cert":4664,"▁violating":4665,"▁reviewed":4666,"▁Account,":4667,"▁material.":4668,"▁dispar":4669,"olid":4670,"▁harass,":4671,"▁following:":4672,"000":4673,"▁Support":4674,"▁by,":4675,"▁affiliate":4676,"▁understanding":4677,"▁resident":4678,"▁done":4679,"iving":4680,"▁refers":4681,"▁representations,":4682,"▁REPRESENTATION":4683,"▁participation":4684,"ince":4685,"▁revisions":4686,"▁generated":4687,"ipient":4688,"▁irrevocably":4689,"▁incomplet":4690,"▁authorization":4691,"4)":4692,"▁requirement":4693,"mal":4694,"▁reason.":4695,"▁Event":4696,"▁Att":4697,"▁goods,":4698,"▁EXEMPLARY":4699,"▁contempor":4700,"▁is\"":4701,"▁get":4702,"▁acknowledges":4703,"▁“us":4704,"▁login":4705,"▁hateful,":4706,"▁AAA":4707,"▁knowingly":4708,"▁punitive":4709,"▁Mill":4710,"▁upgrad":4711,"▁Mod":4712,"▁regulation":4713,"▁Rec":4714,"▁(INCLUDING,":4715,"rypted":4716,"▁whom":4717,"▁TOTAL":4718,"▁copyrights":4719,"▁duplicate,":4720,"▁applied":4721,"▁(vi)":4722,"ACK":4723,"ording":4724,"▁any,":4725,"▁generally":4726,"▁Should":4727,"▁regularly":4728,"▁contemporaneous":4729,"you":4730,"▁open":4731,"▁Furtherm":4732,"UD":4733,"WILL":4734,"▁card,":4735,"▁conflicts":4736,"▁less":4737,"▁SUBSID":4738,"erce":4739,"▁telecommunications":4740,"▁(except":4741,"▁Supplier":4742,"ift":4743,"amb":4744,"▁invasive":4745,"ube":4746,"▁major":4747,"▁owner,":4748,"▁Third-Party":4749,"▁WHATSOEVER,":4750,"▁SUBSIDI":4751,"▁PROVIDERS":4752,"▁strong":4753,"▁icon":4754,"▁medical":4755,"▁penalty":4756,".co.":4757,"▁because":4758,"▁limited,":4759,"▁person.":4760,"▁Ph":4761,"▁Custom":4762,"▁INACCURACIES":4763,"▁power":4764,"▁dress":4765,"▁entity;":4766,"▁completeness,":4767,"▁invalid,":4768,"▁WRIT":4769,"▁hours":4770,"▁age,":4771,"▁Plan":4772,"▁explicitly":4773,"▁(A)":4774,"▁(B)":4775,"issible":4776,"▁hosted":4777,"▁controvers":4778,"▁BASIS.":4779,"▁debit":4780,"od,":4781,"▁relig":4782,"ipated":4783,"▁sources":4784,"ases,":4785,"▁THEREIN":4786,"▁RECE":4787,"ia,":4788,"UNIC":4789,"▁injunctive":4790,"▁indicate":4791,"▁Account.":4792,"▁SE":4793,"▁EQU":4794,"▁vol":4795,"▁believes":4796,"▁applicable,":4797,"▁mechan":4798,"oud":4799,"▁directory":4800,"-re":4801,"▁BU":4802,"irror":4803,"▁pret":4804,"▁consequences":4805,"▁patents,":4806,"▁Wal":4807,"▁signed":4808,"▁Pre":4809,"▁Furthermore,":4810,"holder":4811,"▁Tw":4812,"▁directed":4813,"▁Per":4814,"CR":4815,"UB":4816,"▁bomb":4817,"▁default":4818,"▁jurisdiction,":4819,"▁Free":4820,"▁techniqu":4821,"▁necessarily":4822,"▁langu":4823,"▁form,":4824,".00":4825,"▁address.":4826,"▁decl":4827,"-h":4828,"email":4829,"aring":4830,"ocial":4831,"▁AGG":4832,"▁entity.":4833,"▁Marks":4834,"▁AGGREG":4835,"▁implement":4836,"▁ONE":4837,"▁PROVIS":4838,"▁spider,":4839,"C.":4840,"▁translate":4841,"▁DELAY":4842,"▁discrimin":4843,"▁Promot":4844,"▁acceptable":4845,"▁remains":4846,"▁commercially":4847,"▁Consumer":4848,"▁Stat":4849,"▁alteration":4850,"▁features,":4851,"burse":4852,"▁tort,":4853,"▁lease":4854,"▁consequential,":4855,"eps":4856,"▁litig":4857,"your":4858,"▁advise":4859,"▁feel":4860,"▁Rev":4861,"▁Although":4862,"▁PLAT":4863,"▁owners.":4864,"▁word":4865,"active":4866,"-t":4867,"ipul":4868,"▁Sites.":4869,"▁function":4870,"▁affected":4871,"▁never":4872,"▁timely,":4873,"▁SERVICE.":4874,"▁WEBSITE.":4875,"▁Protection":4876,"▁According":4877,"▁Apple":4878,"▁NEITHER":4879,"▁AVAILABLE\"":4880,"▁Spec":4881,"ness,":4882,"▁lik":4883,"▁versions":4884,"ival":4885,"▁however":4886,"▁over,":4887,"▁companies,":4888,"istor":4889,"PRI":4890,"▁forward":4891,"uthent":4892,"▁savings,":4893,"▁Operator":4894,"▁cach":4895,"y.":4896,"▁quantities":4897,"uthentic":4898,"▁harvest":4899,"▁undertak":4900,"▁SERVERS":4901,"yram":4902,"▁verify":4903,"▁said":4904,"▁FIN":4905,"WITH":4906,"o,":4907,"▁CONS":4908,"▁WEBSITES":4909,"▁minimum":4910,"▁developed":4911,"▁strongly":4912,"▁PLATFORM":4913,"▁GOODS":4914,"▁antic":4915,"▁accepts":4916,"▁appearance":4917,"▁important":4918,"▁SHOULD":4919,"On":4920,"ATE,":4921,"▁successors":4922,"▁mentioned":4923,"▁User's":4924,"▁means,":4925,"▁case,":4926,"▁indecent,":4927,"▁objectionable,":4928,"▁PRE":4929,"▁none":4930,"▁reside":4931,"▁immediately.":4932,"▁SUBSIDIAR":4933,"yramid":4934,"▁deleted":4935,"▁Affiliate":4936,"▁timelin":4937,"▁mainten":4938,"▁issued":4939,"lan":4940,"▁prepare":4941,"▁court,":4942,"▁Vi":4943,"▁Advertis":4944,"▁YOU,":4945,"▁uninterrupted":4946,"▁sub-license":4947,"▁(here":4948,"▁ACCESSED":4949,"ECTED":4950,"▁process,":4951,"get":4952,"raft":4953,"▁Govern":4954,"▁embar":4955,"▁Ref":4956,"▁intend":4957,"▁icons,":4958,"▁Sch":4959,"ITUTE":4960,"▁chain":4961,"▁audio,":4962,"▁County,":4963,"▁currenc":4964,"▁user's":4965,"▁Accordingly,":4966,"▁letters,":4967,"on,":4968,"rawl":4969,"▁below.":4970,"eness":4971,"▁otherwise)":4972,"ASED":4973,"public":4974,"▁racial":4975,"▁artic":4976,"▁Up":4977,"▁EXCLUSIONS":4978,"▁STATES":4979,"▁photos,":4980,",”":4981,"▁steps":4982,"▁discuss":4983,"▁agreement.":4984,"Website":4985,"▁you;":4986,"lated":4987,"▁point":4988,"▁Perm":4989,"▁returned":4990,"ready":4991,"yc":4992,"▁Federal":4993,"▁assigned":4994,"▁commitment":4995,"▁depend":4996,"▁substant":4997,"▁used,":4998,"▁gre":4999,"jur":5000,"▁takes":5001,"▁Cookies":5002,"▁real":5003,"Your":5004,"▁numbers":5005,"▁stated,":5006,"▁interpretation":5007,"▁authentic":5008,"▁(with":5009,"▁VIA":5010,"▁exclusions":5011,"▁mist":5012,"▁CONDITION":5013,"reet":5014,"▁already":5015,"▁capac":5016,"▁Leg":5017,"▁expense":5018,"▁AGGREGATE":5019,"▁monitor,":5020,"▁vari":5021,"rue":5022,"▁REGARDLESS":5023,"▁Merchant":5024,"▁publicity,":5025,"▁representatives,":5026,"▁consent,":5027,"uk":5028,"▁page,":5029,"USTOM":5030,"▁Vir":5031,"▁misappro":5032,"’t":5033,"▁incons":5034,"▁corruption":5035,"▁reserved":5036,"▁STORE":5037,"▁renewal":5038,"▁immediately,":5039,"Pro":5040,"▁denial":5041,"▁board":5042,"▁high":5043,"▁requirements,":5044,"▁logo,":5045,"▁agent,":5046,"▁sever":5047,"eure":5048,"▁comb":5049,"▁(but":5050,"▁deems":5051,"▁MONTH":5052,"▁COMMUNIC":5053,"ming":5054,"▁virus,":5055,"vey":5056,"▁assign,":5057,"pr":5058,"▁(E":5059,"▁decept":5060,"▁CUSTOM":5061,"▁assigns":5062,"▁CM":5063,"mall":5064,"The":5065,"▁requires":5066,"ITES,":5067,"▁GOODWILL":5068,"▁informed":5069,"▁Europe":5070,"▁authorised":5071,"▁manufactur":5072,"fund":5073,"itch":5074,"▁profit,":5075,"▁hack":5076,"▁reliability,":5077,"A,":5078,"▁bul":5079,"▁false,":5080,"▁RELIABLE":5081,"▁engineer,":5082,"put":5083,"▁Wik":5084,"▁institution":5085,"used":5086,"▁normal":5087,"▁LAW.":5088,"▁RELIANCE":5089,"▁start":5090,"ENER":5091,"icial":5092,"▁World":5093,"ORK":5094,"▁Act,":5095,"▁misrepresentation":5096,"ONT":5097,"▁unf":5098,"▁DAMAGE,":5099,"▁old":5100,"▁render":5101,"▁OPERATION":5102,"▁show":5103,"▁whose":5104,"ITY,":5105,"▁countri":5106,"▁legisl":5107,"▁anal":5108,"▁Bank":5109,"▁vulgar,":5110,"lements":5111,"▁advertisers":5112,"▁circumstances,":5113,"▁LIK":5114,"▁.":5115,"▁shared":5116,"▁disclaimers":5117,"▁intim":5118,"▁decompile,":5119,"▁suspected":5120,"▁severed":5121,"▁SECUR":5122,"▁17":5123,"OG":5124,"▁in,":5125,"▁damage.":5126,"▁limits":5127,"▁insurance":5128,"▁rent,":5129,"▁War":5130,"▁area":5131,"▁profits":5132,"▁anticipated":5133,"▁trial":5134,"▁FUN":5135,"▁NATURE":5136,"▁REVEN":5137,"▁references":5138,"▁DISP":5139,"▁END":5140,"▁clar":5141,"▁added":5142,"▁acquire":5143,"IONAL":5144,"▁(e.g.,":5145,"▁manual":5146,"▁24":5147,"▁nature,":5148,"▁ess":5149,"▁or,":5150,"▁gather":5151,"ARY,":5152,"▁PROC":5153,"▁quot":5154,"▁designs,":5155,"▁sponsorship,":5156,"▁ru":5157,"▁Tax":5158,"▁THEORY":5159,"▁Submissions,":5160,"▁replacement":5161,"▁Contribut":5162,"unt":5163,"▁perjur":5164,"▁forms":5165,"REAT":5166,"▁principles":5167,"▁disable,":5168,"▁Department":5169,"GS,":5170,"▁Propert":5171,"ateg":5172,"▁Book":5173,"▁Red":5174,"▁rate":5175,"▁Corpor":5176,"▁opinion,":5177,"▁infringement,":5178,"▁emails":5179,"▁CAUSED":5180,"ILE":5181,"▁joint":5182,"▁example":5183,"lying":5184,"▁timely":5185,"▁charges,":5186,"▁contempl":5187,"▁Is":5188,"▁links,":5189,"ogn":5190,"▁week":5191,"▁fees.":5192,"▁computer,":5193,"▁arbitration,":5194,"▁illust":5195,"▁Sports":5196,"▁UK":5197,"▁attempting":5198,"▁Millenn":5199,"ified,":5200,"▁Terms;":5201,"oot":5202,"▁charity":5203,"▁referenced":5204,"▁attorney’s":5205,"erg":5206,"▁permission,":5207,"▁enhance":5208,"SIVE":5209,"▁Millennium":5210,"▁Prof":5211,"▁consideration":5212,"▁England":5213,"▁top":5214,"▁fire":5215,"MENT,":5216,"▁confidence":5217,"▁governing":5218,"rid":5219,"▁begin":5220,"MAIL":5221,"▁Additionally,":5222,"▁discontinuance":5223,"We":5224,"▁Prices":5225,"app":5226,"▁subsidiaries":5227,"▁COMPLETENESS":5228,"Ch":5229,"mark":5230,"▁List":5231,"▁End":5232,"▁events":5233,"▁reject":5234,"▁[email":5235,"▁omissions,":5236,"▁Do":5237,"▁community":5238,"▁breaches":5239,"/s":5240,"roups":5241,"▁provide,":5242,"▁advice,":5243,"▁(g":5244,"ideos":5245,"▁race,":5246,"▁learn":5247,"▁ALTER":5248,"▁reim":5249,"earch":5250,"▁Pr":5251,"▁obligated":5252,"▁here.":5253,"▁offers,":5254,"holders,":5255,"▁Nor":5256,"▁Platform,":5257,"▁Licens":5258,"er’s":5259,"▁investigate":5260,"▁customers,":5261,"▁third-parties.":5262,"▁test":5263,"▁negligence),":5264,"▁cause,":5265,"▁ensuring":5266,"▁sublicense":5267,"▁system,":5268,"▁199":5269,"▁Bit":5270,"▁office":5271,"▁GENER":5272,"▁orient":5273,"ED.":5274,"▁SPECIFICALLY":5275,".3":5276,"▁clip":5277,"▁Doc":5278,"▁regulation,":5279,"▁disassemble,":5280,"▁RECEIV":5281,"▁EXCLUSIVE":5282,"VI":5283,"uard":5284,"▁right.":5285,"els":5286,"▁fulf":5287,"istorical":5288,"▁shopping":5289,"an,":5290,"▁exam":5291,"▁Fail":5292,"OUND":5293,"▁play":5294,"thel":5295,"▁so.":5296,"▁(herein":5297,"▁management":5298,"alance":5299,"ants":5300,"rastruct":5301,"▁Li":5302,"ame,":5303,"ATIS":5304,"▁violated":5305,"▁TIMELY,":5306,"▁Em":5307,"▁changes,":5308,"For":5309,"▁HubP":5310,"▁Viol":5311,"refund":5312,"▁Hear":5313,"▁distributors":5314,"▁advoc":5315,"▁safety":5316,"vir":5317,"▁harm,":5318,"▁disclosing":5319,"Third":5320,"▁PURCHASED":5321,"▁ol":5322,"▁PROVIDE":5323,"▁Secur":5324,"ner,":5325,"▁natural":5326,"▁constitut":5327,"▁Code":5328,"▁accounts,":5329,"▁counter":5330,"▁injury,":5331,"angible":5332,"▁therein.":5333,"▁enjoyment":5334,"▁DISCRE":5335,"▁contemplated":5336,"▁writing.":5337,"▁confirmation":5338,"/d":5339,"▁FOREGOING,":5340,"▁fails":5341,"▁misleading,":5342,"itory":5343,"▁PROGRA":5344,"▁consents":5345,"▁them,":5346,"▁Links":5347,"▁reasons":5348,"▁FORTH":5349,"▁made.":5350,"ross":5351,"ATISF":5352,"▁DISTR":5353,"▁SA":5354,"▁acting":5355,"▁\"A":5356,"▁BUGS,":5357,"▁TR":5358,"ensable":5359,"▁infrastruct":5360,"▁DISCRETION":5361,"twork":5362,"▁waiv":5363,"▁elsewhere":5364,"▁ear":5365,"ife":5366,"▁Direct":5367,"IBUT":5368,"▁RELIABILITY,":5369,"rol":5370,"▁materials.":5371,"akes,":5372,"SP":5373,"▁uploading":5374,"▁policy.":5375,"▁News":5376,"▁fault":5377,"▁don":5378,"▁remainder":5379,"▁submit,":5380,"▁FINAN":5381,"▁writ":5382,"▁collect,":5383,"▁defamatory":5384,"▁resolution":5385,"▁execut":5386,"uto":5387,"▁response":5388,"▁below)":5389,"▁Op":5390,"▁MIST":5391,"▁choice":5392,"▁Failure":5393,"▁crawl":5394,"▁AGAIN":5395,"▁RESPECTIVE":5396,"▁MISTAK":5397,"8)":5398,"▁Work":5399,"▁FA":5400,"▁opportun":5401,"▁notific":5402,"▁shareholders,":5403,"▁traffic":5404,"line,":5405,"▁ERROR-FREE,":5406,"▁copying,":5407,"▁selected":5408,"▁therein,":5409,"▁Global":5410,"▁Software.":5411,"▁Upload":5412,"▁among":5413,"▁exposed":5414,"▁person;":5415,"▁visual":5416,"▁large":5417,"izing":5418,"▁travel":5419,"▁Affiliates":5420,"aper":5421,"▁leave":5422,"▁us;":5423,"▁LIMITING":5424,"▁FINANCIAL":5425,"5)":5426,"▁obligation,":5427,"▁internal":5428,"▁Social":5429,"▁equipment,":5430,"▁CIRCUMSTANCES":5431,"▁soon":5432,"▁request.":5433,"ory,":5434,"illing":5435,"mirror":5436,"▁look":5437,"▁delays":5438,"▁intentionally":5439,"▁expl":5440,"▁enfor":5441,"▁preced":5442,"▁minors":5443,"▁ONLY":5444,"▁promotions":5445,"▁indecent":5446,"gu":5447,"▁INV":5448,"▁“Terms":5449,"OLD":5450,"▁royalty-free":5451,"ugin":5452,"▁comments.":5453,"▁rout":5454,"▁basis,":5455,"▁Once":5456,"▁for:":5457,"▁event,":5458,"-up":5459,"▁abusive":5460,"▁(4)":5461,"▁Agreement;":5462,"▁aggregate":5463,"eguard":5464,"▁ABOUT":5465,"▁“we":5466,"▁limit,":5467,"▁site;":5468,"oo":5469,"▁met":5470,"▁lease,":5471,"mium":5472,"▁close":5473,"▁collection,":5474,"▁facilities":5475,"▁religion,":5476,"▁approved":5477,"▁TECH":5478,"▁(hereinafter":5479,"ORSE":5480,"▁postal":5481,"▁months":5482,"▁around":5483,"▁covered":5484,"▁prim":5485,"▁theft":5486,"▁“C":5487,"▁safeguard":5488,"▁SUBST":5489,"▁EXEMPLARY,":5490,"▁(g)":5491,"▁functions":5492,"ony":5493,"▁Smart":5494,"▁person’s":5495,"▁artwork":5496,"▁CLASS":5497,"▁LICENSORS,":5498,"urrent":5499,"▁essential":5500,"▁representation,":5501,"▁GOODWILL,":5502,"EDING":5503,"▁PARTN":5504,"▁Inc.,":5505,"▁hereunder,":5506,"▁knowled":5507,"ity.":5508,"ION,":5509,"ACTIONS":5510,"▁EXCEPT":5511,"ts,":5512,"▁supersedes":5513,"▁sub-contract":5514,"▁COURSE":5515,"▁Media,":5516,"▁reimburse":5517,"▁contracts":5518,"▁holder":5519,"▁“Content":5520,"▁REF":5521,"▁INDIRECT":5522,"▁relate":5523,"▁decisions":5524,"▁next":5525,"▁Chan":5526,"AMS":5527,"sec":5528,"▁fam":5529,"▁(6":5530,"▁(D":5531,"▁imposed":5532,"▁performance,":5533,"▁substitute":5534,"▁European":5535,"▁“our":5536,"▁protected]":5537,"Sh":5538,"▁flo":5539,"▁Purchase":5540,"▁association":5541,"▁Cre":5542,"▁official":5543,"▁LAWS":5544,"▁becomes":5545,"▁Public":5546,"▁relied":5547,"▁descriptions":5548,"▁encourages":5549,"▁AGAINST":5550,"▁foresee":5551,"▁vary":5552,"▁Standard":5553,"▁programs,":5554,"▁Refund":5555,"vention":5556,"▁storage":5557,"NE":5558,"▁techniques":5559,"▁Information,":5560,"▁intimid":5561,"resh":5562,"BO":5563,"▁ADVERTIS":5564,"▁affirm":5565,"▁RECEIVED":5566,"JAN":5567,"▁owners,":5568,"▁SECURE,":5569,"▁duty":5570,"▁pict":5571,"▁solicitation":5572,"ally":5573,"▁ENDORSE":5574,"▁Ins":5575,"▁(I)":5576,"▁inappropriate,":5577,"▁Statement":5578,"actory":5579,"▁prefer":5580,"▁promotions,":5581,"▁TRO":5582,"asy":5583,"▁sharing":5584,"ody":5585,"▁Rel":5586,"▁technical,":5587,"▁PayP":5588,"▁perjury,":5589,"unction":5590,"▁recipient":5591,"▁NON-INFRINGEMENT,":5592,"▁reputation":5593,"▁ground":5594,"▁groups":5595,"▁hereafter":5596,"▁manner,":5597,"▁advis":5598,"▁GUARANTEE":5599,"TEN":5600,"confidential":5601,"eld":5602,"▁repair":5603,"▁terror":5604,"▁indust":5605,"▁small":5606,"▁copied":5607,"▁placing":5608,"ask":5609,"▁ITEM":5610,"▁THEREOF":5611,"vate":5612,"▁guarantees":5613,"▁maintenance":5614,"▁FUR":5615,"▁performed":5616,"▁Internet.":5617,"▁broadcast,":5618,"▁HubPages":5619,"▁Hearst":5620,"▁Student":5621,"▁King":5622,"IVE,":5623,"▁Permission":5624,"▁That":5625,"gistered":5626,"imate":5627,"▁“D":5628,"▁Job":5629,"▁bear":5630,"▁ordered":5631,"▁key":5632,"(s),":5633,"les,":5634,"▁excess":5635,"▁impose":5636,"▁WRITTEN":5637,"▁Sou":5638,"rive":5639,"▁If,":5640,"▁results,":5641,"▁two":5642,"▁Ident":5643,"idden":5644,"▁operator":5645,"plement":5646,"▁HORS":5647,"▁war,":5648,"▁gender,":5649,"▁involved":5650,"imin":5651,"▁permissible":5652,"▁MISTAKES,":5653,"▁unreason":5654,"▁activity.":5655,"▁SUBSTITUTE":5656,"▁IL":5657,"▁below,":5658,"▁REVENU":5659,"▁TROJAN":5660,"▁organis":5661,"▁eight":5662,"▁retrieve":5663,"ott":5664,"▁intro":5665,"▁consistent":5666,"▁works,":5667,"▁Termination":5668,"▁ATT":5669,"▁denial-of":5670,"gree":5671,"dom":5672,"itu":5673,"▁Dist":5674,"▁creative":5675,"▁ACCOUNT":5676,"▁ENTITIES":5677,"▁fre":5678,"▁repeat":5679,"▁Regul":5680,"olution":5681,"▁server.":5682,"▁properly":5683,"▁recogn":5684,"o@":5685,"YP":5686,"▁compat":5687,"▁error-free.":5688,"known":5689,"▁photographic":5690,"▁temporary":5691,"▁exemplary":5692,"▁CUSTOMER":5693,"▁(II)":5694,"▁consulting":5695,"/her":5696,"▁reach":5697,"▁review,":5698,"▁Sections":5699,"▁lay":5700,"▁implied.":5701,"▁correct,":5702,"▁asked":5703,"▁ARBITRATION":5704,"Link":5705,"▁CREATE":5706,"ann":5707,"▁follows:":5708,"▁identifying":5709,"▁majority":5710,"PA":5711,"▁theory":5712,"▁cases":5713,"edd":5714,"▁VAT":5715,"▁sy":5716,"low":5717,"▁Mon":5718,"antly":5719,"▁annual":5720,"▁inconsistent":5721,"▁Fac":5722,"▁governs":5723,"▁passwords":5724,"▁States.":5725,"▁from:":5726,"▁pre-":5727,"▁threatened":5728,"▁penalt":5729,"▁determination":5730,"▁above.":5731,"▁inhib":5732,"▁Sw":5733,"▁De":5734,"ARS":5735,"▁networks;":5736,"▁COMPONENTS.":5737,"▁presentation":5738,".com’s":5739,"▁content;":5740,"▁adequ":5741,"▁products.":5742,"▁paying":5743,"▁accepting":5744,"▁team":5745,"▁breach,":5746,"▁non-pro":5747,"▁same.":5748,"▁elements":5749,"▁implic":5750,"avi":5751,".e.":5752,"MO":5753,"▁OP":5754,"▁successors,":5755,"ique":5756,"▁devices":5757,"▁host,":5758,"▁And":5759,"▁EACH":5760,"▁TIMELIN":5761,"▁corporate":5762,"▁GREAT":5763,"▁Tech":5764,"▁duties":5765,"ampa":5766,"▁REPRESENTATIV":5767,"▁terminates":5768,"▁displayed,":5769,"Ex":5770,"▁itself":5771,"▁preca":5772,"▁risks":5773,"▁support@":5774,"▁clicking":5775,"▁relates":5776,"▁include,":5777,"▁Notices":5778,"▁integrity":5779,"oti":5780,"▁problem":5781,"▁tre":5782,"▁situ":5783,"▁suspended":5784,"▁backup":5785,"▁established":5786,"one,":5787,"▁PLEASE":5788,"▁OMISSION":5789,"▁gives":5790,"▁promise":5791,"50":5792,"▁profan":5793,"avor":5794,"▁arises":5795,"▁impos":5796,"ism,":5797,"LINE":5798,"▁entering":5799,"▁frame":5800,"▁INTERNET":5801,"oun":5802,"▁SUBSIDIARIES,":5803,"ampaign":5804,"▁MIS":5805,"ically,":5806,"▁phish":5807,"▁simply":5808,"▁seeking":5809,"▁ACCURATE,":5810,"▁doing":5811,"▁becoming":5812,"-to-d":5813,"▁(x":5814,"▁Educ":5815,"▁complete.":5816,"ER,":5817,"▁locations":5818,"▁date.":5819,"redited":5820,"▁transmission,":5821,"atory,":5822,"▁language":5823,"▁agencies":5824,"▁Therefore":5825,"▁owns":5826,"ceptable":5827,"▁header":5828,"▁TECHN":5829,"▁form.":5830,"efin":5831,"▁kind.":5832,"▁slan":5833,"ment.":5834,"▁software)":5835,"▁connecting":5836,"▁problems":5837,"endar":5838,"erchand":5839,"▁OFFENS":5840,"▁National":5841,"AST":5842,"▁officers":5843,"▁booking":5844,"▁eligible":5845,"▁Those":5846,"▁THOSE":5847,"▁parent,":5848,"▁promotes":5849,"▁scripts,":5850,"▁Websites,":5851,"▁still":5852,"▁deleted,":5853,"uild":5854,"▁jurisdictions,":5855,"▁occas":5856,"▁Canada":5857,"▁ri":5858,"ry,":5859,"▁secrets,":5860,"▁Los":5861,"▁removal":5862,"▁posting,":5863,"▁user.":5864,"▁funds":5865,"▁older":5866,"▁suffer":5867,"▁TRANSACTION":5868,"▁descriptions,":5869,"ech":5870,"▁“Service":5871,"MS,":5872,"▁improper":5873,"▁infrastructure":5874,"▁material;":5875,"ATORY,":5876,"▁non-confidential":5877,"▁Docu":5878,"▁Out":5879,"ews":5880,"▁security,":5881,"▁Organ":5882,"▁guarantee,":5883,"imes":5884,"▁HE":5885,"-service":5886,"▁HORSES,":5887,"▁short":5888,"▁MUST":5889,"▁Indian":5890,"▁link:":5891,"▁throughout":5892,"▁committed":5893,"▁employer":5894,"enerated":5895,"▁ow":5896,"▁(th":5897,"▁GRA":5898,"▁negoti":5899,"ization":5900,"▁orally":5901,"A.":5902,"▁illustration":5903,"lcome":5904,"▁transmitting":5905,"▁spy":5906,"▁shipp":5907,"LEGAL":5908,"SOCI":5909,"▁appoint":5910,"▁ethnic":5911,"▁clips,":5912,"export":5913,"▁ALTERATION":5914,"▁THEORY,":5915,"▁Owner":5916,"▁:":5917,"▁provin":5918,"▁suspend,":5919,"HIB":5920,"▁dealings":5921,"▁sounds,":5922,"HIBIT":5923,"▁Game":5924,"▁up-to-d":5925,"▁periods":5926,"▁editor":5927,"▁scope":5928,"▁York,":5929,"▁Government":5930,"▁transport":5931,"▁“User":5932,"▁documentation":5933,"▁Customers":5934,"▁ASSOCI":5935,"▁cookies.":5936,"▁typographical,":5937,"fo":5938,"▁downloading,":5939,"▁store.":5940,"▁Delivery":5941,"ISE":5942,"▁non-refund":5943,"MISS":5944,"▁You,":5945,"▁Min":5946,"▁Project":5947,"▁accuracy.":5948,"▁ILLEGAL":5949,"▁Are":5950,"▁whatsoever.":5951,"▁After":5952,"▁wrong":5953,"▁fraudulent,":5954,"▁sexually":5955,"▁EMAIL":5956,"▁addresses,":5957,"▁strik":5958,"-related":5959,"▁company,":5960,"▁vent":5961,"▁discount":5962,"▁fits":5963,"▁District":5964,"ared":5965,"ants,":5966,"▁PERMISS":5967,"▁countries.":5968,"▁meaning":5969,"▁protecting":5970,"▁calendar":5971,"▁bug":5972,"▁framing":5973,"▁California,":5974,"▁firm":5975,"▁Maj":5976,"▁reference.":5977,"▁DEFAM":5978,"▁transaction.":5979,"▁STATUTORY":5980,"▁indemnified":5981,"▁JAMS":5982,"▁Fin":5983,"▁parents,":5984,"▁Providers":5985,"▁PERMISSIBLE":5986,"ux":5987,"▁revok":5988,"▁interests":5989,"▁CHANG":5990,"▁manipul":5991,"-in":5992,"▁DISCLAIMER":5993,"t.":5994,"▁Serv":5995,"▁“M":5996,"▁16":5997,"▁exported":5998,"▁stock":5999,"▁attorney's":6000,"PHIC":6001,"ANGIBLE":6002,"▁facilitate":6003,"▁knowledge":6004,"▁enab":6005,"tual":6006,"rain":6007,"▁electronically.":6008,"▁(C)":6009,"▁precautions":6010,"▁PROHIBIT":6011,"▁deceptive":6012,"▁pyramid":6013,"▁Sim":6014,"▁Pass":6015,"▁Lab":6016,"▁truth":6017,"▁so,":6018,"▁merchantability":6019,"omic":6020,"▁Fee":6021,"▁EXPRESS,":6022,"▁commence":6023,"▁partnership":6024,"opt":6025,"▁adult":6026,"▁FURTHER":6027,"▁ESS":6028,"▁load":6029,"▁FORM":6030,"▁illustrations,":6031,"ebook":6032,"▁methods":6033,"ided":6034,"▁ORAL":6035,"▁mining,":6036,"▁secure,":6037,"▁Interactive":6038,"theless":6039,"ush":6040,"▁(W":6041,"ULT":6042,"▁endorsed":6043,"▁accurately":6044,"▁opinion":6045,"▁reproduction,":6046,"▁Ord":6047,"▁controversy":6048,"▁STORED":6049,"▁Private":6050,"▁action.":6051,"▁confus":6052,"▁non-transferable,":6053,"rack":6054,"▁excluding":6055,"▁informational":6056,"▁doll":6057,"▁view,":6058,"OUS":6059,"▁ANY,":6060,"▁ESSENTIAL":6061,"EP":6062,"▁deactiv":6063,"▁DOLL":6064,"aff":6065,"▁incomplete,":6066,"▁Sal":6067,"▁consum":6068,"▁(h)":6069,"▁Association":6070,"10":6071,"▁e-mail,":6072,"GC":6073,"▁distributed,":6074,"ses":6075,".com's":6076,"▁(other":6077,"▁represents":6078,"▁TRANSACTIONS":6079,"▁agency":6080,"▁headings":6081,"▁Sale":6082,"▁CONTENT.":6083,"▁What":6084,"▁businesses;":6085,"URING":6086,"▁alter,":6087,"▁ITEMS":6088,"time":6089,"▁dispute,":6090,"▁postings":6091,"▁package":6092,"▁Elect":6093,"▁API":6094,"i-":6095,"ier":6096,"▁confidential.":6097,"▁robot,":6098,"▁rights;":6099,"▁availability,":6100,"▁PROVIDERS,":6101,"▁equival":6102,"▁Travel":6103,"▁comprom":6104,"▁re-export":6105,"▁purport":6106,"▁affiliates.":6107,"▁endorses":6108,"ages.":6109,"▁breached":6110,"▁PARTY,":6111,"▁LLC,":6112,"▁Fran":6113,"roll":6114,"▁registr":6115,"▁changed":6116,"IDE":6117,"▁judgment,":6118,"▁Proced":6119,"▁ev":6120,"▁orientation,":6121,"▁grounds":6122,"▁provincial":6123,"▁dou":6124,"▁Rest":6125,"▁billed":6126,"▁toward":6127,"stood":6128,"▁residence":6129,"▁negates":6130,"▁STATEMENT":6131,"uman":6132,"▁Software;":6133,"▁INTERRUPTION,":6134,"Ad":6135,"pass":6136,"▁level":6137,"IVER":6138,"▁QUALITY,":6139,"▁concept":6140,"scriptions":6141,"▁negative":6142,"IV)":6143,"▁advertised":6144,"▁to)":6145,"▁warrants":6146,"▁devices.":6147,"▁cancelled":6148,"▁Therefore,":6149,"▁URLs":6150,"▁prevailing":6151,"▁PROFITS":6152,",000":6153,"▁§":6154,"▁(IV)":6155,"▁ideas":6156,"fit":6157,"▁defame,":6158,"▁altern":6159,"▁Legal":6160,"JECT":6161,"▁PAY":6162,"▁period.":6163,"▁sublicense,":6164,"▁uploaded,":6165,"▁U.S.C.":6166,"▁third-parties":6167,"▁Nations":6168,"ARK":6169,"▁ALSO":6170,"▁equivalent":6171,"▁transferable":6172,"▁Item":6173,"▁Period":6174,"▁fair":6175,"▁EUL":6176,"ending":6177,"STAN":6178,"II)":6179,"▁(V":6180,"▁(5)":6181,"▁term,":6182,"▁Char":6183,"▁includes,":6184,"▁merchand":6185,"▁CANN":6186,"▁PRIV":6187,"▁LIKE":6188,"▁Tr":6189,"▁confer":6190,"ROPRI":6191,"SS":6192,"▁accompany":6193,"▁DEFAMATORY,":6194,"▁(commercial":6195,"▁his/her":6196,"▁eighteen":6197,"opp":6198,"▁layout":6199,"▁Through":6200,"▁another's":6201,"▁policy,":6202,"avig":6203,"▁VI":6204,"▁consent;":6205,"▁MATTER":6206,"▁revision":6207,"▁publications":6208,"▁origin,":6209,"▁contributors":6210,"(s).":6211,"▁ticket":6212,"▁BL":6213,"▁utilize":6214,"▁San":6215,"▁is,":6216,"▁run":6217,"▁jo":6218,"▁FEES":6219,"▁line":6220,"▁convent":6221,"urring":6222,"▁(“Terms":6223,"▁Manag":6224,"▁tag":6225,"▁ge":6226,"▁Rece":6227,"▁standards":6228,"▁permanently":6229,"▁legal,":6230,"▁100":6231,"▁purchase.":6232,"Pl":6233,"▁capacity":6234,"▁rule":6235,"▁writing,":6236,"RUCT":6237,"▁MO":6238,"▁'as":6239,"▁interrupt,":6240,"▁ADVERTISED":6241,"▁reproduction":6242,"man":6243,"▁question":6244,"▁currency":6245,"▁LOC":6246,"▁consist":6247,"▁effective,":6248,"▁times.":6249,"▁understood":6250,"▁abuse":6251,"▁appears":6252,"▁accurate.":6253,"ADING":6254,"cul":6255,"▁0":6256,"enses":6257,"▁provision,":6258,"▁continuous":6259,"▁AGREEMENT,":6260,"▁conditioned":6261,"▁filed":6262,"▁documents,":6263,"▁capable":6264,"STANDING":6265,"App":6266,"▁attribution":6267,"TI":6268,"fe":6269,"▁SERVICE;":6270,"▁mut":6271,"▁notations":6272,"▁GRAPHIC":6273,"▁comment":6274,"▁malware":6275,"▁CANNOT":6276,"▁unique":6277,"▁disability":6278,"▁God,":6279,"▁contractors":6280,"GRAPH":6281,"TD":6282,"▁GIV":6283,"▁usefulness":6284,"rip":6285,"▁through,":6286,"URRE":6287,"▁infringed;":6288,"▁judicial":6289,"atest":6290,"▁failure,":6291,"▁server,":6292,"▁CHANGES":6293,"▁updating":6294,"PORT":6295,"▁unregistered":6296,"ers)":6297,"lick":6298,"▁INTO":6299,"▁junk":6300,"▁THAN":6301,"▁charact":6302,"▁doub":6303,"▁active":6304,"▁shown":6305,"▁(“S":6306,"▁From":6307,"▁up-to-date":6308,"▁save":6309,"▁INTANGIBLE":6310,"▁LINKS":6311,"▁riot":6312,"▁Products.":6313,"▁timeliness,":6314,"▁CONTRO":6315,"▁status":6316,"▁Class":6317,"-how":6318,"Eng":6319,"▁pages,":6320,"▁we,":6321,"▁representing":6322,"ouch":6323,"▁rely":6324,"▁hosting":6325,"-G":6326,"▁newslet":6327,"WITHSTANDING":6328,"ured":6329,"porn":6330,"▁DEAL":6331,"▁taxes,":6332,"▁plans,":6333,"▁Entities":6334,"▁Australia":6335,"efinite":6336,"▁ethnicity,":6337,"▁PayPal":6338,"24":6339,"▁Refer":6340,"▁encrypted":6341,"▁Generated":6342,"▁CORRECTED,":6343,"▁browsing":6344,"ious,":6345,"uck":6346,"▁accident":6347,"▁activity,":6348,"osure":6349,"▁channel":6350,"▁processes":6351,"▁duration":6352,"▁trojan":6353,"▁Log":6354,"▁incre":6355,"▁process.":6356,"▁PERI":6357,"▁error,":6358,"▁LLC.":6359,"▁generality":6360,"-current":6361,"▁claim.":6362,"▁greater":6363,"▁job":6364,"▁authors":6365,"CAUSE":6366,"o.com":6367,"▁Applicable":6368,"▁then-current":6369,"ating,":6370,"▁applications,":6371,"▁notwithstanding":6372,"▁Forum":6373,"▁excludes":6374,"▁Information.":6375,"▁Admin":6376,"▁balance":6377,"rose":6378,"▁NOTWITHSTANDING":6379,"▁denial-of-service":6380,"ently":6381,"▁\"Content":6382,"▁failed":6383,"▁know-how":6384,"ANNER":6385,"▁ethnically":6386,"▁arch":6387,"▁DOWNLOADED":6388,"▁indefinite":6389,"▁data;":6390,"▁employment":6391,"▁reference,":6392,"ashing":6393,"▁BECAUSE":6394,"▁behalf.":6395,"▁info@":6396,"▁ENTIRELY":6397,"▁CESS":6398,"EMN":6399,"▁preserv":6400,"▁Trademarks":6401,"▁explain":6402,"▁Univers":6403,"▁distribution,":6404,"▁detailed":6405,"▁benefic":6406,"▁sold,":6407,"▁sections":6408,"▁Date":6409,"▁COD":6410,"▁statute":6411,"▁CONNECTED":6412,"▁yourself,":6413,"▁(each":6414,"▁(e.g.":6415,"▁South":6416,"YS":6417,"▁asse":6418,"tention":6419,"▁Word":6420,"▁insult":6421,"▁initial":6422,"▁EQUIP":6423,"▁TYP":6424,"riend":6425,"aily":6426,"▁regulatory":6427,"▁disabled":6428,"▁Corporation":6429,"▁Fe":6430,"IGN":6431,"▁Clause":6432,"▁disclosures":6433,"▁actually":6434,"▁dispatch":6435,"▁derog":6436,"▁ADDIT":6437,"▁embargo":6438,"▁depending":6439,"atic":6440,"▁disa":6441,"▁DISTRIBUT":6442,"▁ser":6443,"▁STATED":6444,"▁network,":6445,"▁removing":6446,"▁Marketing":6447,"▁profane,":6448,"▁incom":6449,"▁cookie":6450,"▁PURCHASE":6451,"▁MEDIA":6452,"▁RELIABLE,":6453,"▁treated":6454,"dis":6455,"oice":6456,"▁Wa":6457,"▁opinions,":6458,"Sp":6459,"ITAL":6460,"▁discover":6461,"▁nonexclusive":6462,"▁suggestions":6463,"▁scrape":6464,"oder":6465,"▁sw":6466,"▁CO":6467,"▁applicable.":6468,"▁Solutions":6469,"▁Designated":6470,"▁volunt":6471,"▁gathering":6472,"▁communications,":6473,"▁GENERAL":6474,"▁Care":6475,"▁stalk":6476,"▁GUARANTE":6477,"▁unavailable":6478,"▁particular,":6479,"▁promoting":6480,"▁CESSATION":6481,"ery":6482,"▁Contact":6483,"▁Portal":6484,"▁offer,":6485,"▁20":6486,"▁selection":6487,"ATIONS,":6488,"▁recover":6489,"▁superseding":6490,"▁How":6491,"▁pertain":6492,"▁ordinances":6493,"▁refund.":6494,"▁retains":6495,"▁libelous":6496,"▁feedback,":6497,"▁They":6498,"▁consolid":6499,"▁intangible":6500,"▁arbitration.":6501,"▁disputes,":6502,"▁PERIOD":6503,"▁TAK":6504,"▁Kingdom":6505,"▁plugin":6506,"▁Platform.":6507,"▁termination.":6508,"▁INCLUDED":6509,"▁MONTHS":6510,"▁unreasonable":6511,"▁Product,":6512,"▁(III)":6513,"▁extraction":6514,"▁accompanying":6515,"use,":6516,"▁complies":6517,"▁coven":6518,"▁mechanism":6519,"▁date,":6520,"▁(not":6521,"ORD":6522,"▁Method":6523,"▁Conn":6524,"educt":6525,"▁Security":6526,"▁such,":6527,"▁granting":6528,"▁KNOW":6529,"IFY":6530,"▁SUBJECT":6531,"ISH":6532,"▁availability.":6533,"▁(6)":6534,"▁preceding":6535,"NESS,":6536,"▁(to":6537,"▁offense,":6538,"IPAA":6539,"XX":6540,"▁ASSOCIATED":6541,"▁three":6542,"▁($":6543,"el,":6544,"▁creation":6545,"▁Liability":6546,"▁networks.":6547,"s”)":6548,"▁had":6549,"▁Rem":6550,"ocal":6551,"▁owner.":6552,"junk":6553,"▁hear":6554,"▁struct":6555,"▁Home":6556,"▁accordingly":6557,"▁REQUIREMENTS":6558,"ze":6559,"▁cash":6560,"▁SITES,":6561,"▁manner.":6562,"▁transitory":6563,"▁questions,":6564,"▁materially":6565,"▁DISCONT":6566,"▁TERMIN":6567,"▁Warrant":6568,"zz":6569,"▁“I":6570,"▁Complain":6571,"▁revenue":6572,"ember":6573,"▁risk,":6574,"MENTS,":6575,"▁estopp":6576,"▁Court":6577,"▁DISCONTIN":6578,"▁therewith":6579,"▁Indemnified":6580,"CTIONS":6581,"▁complaints":6582,"▁formats":6583,"▁prohibitions":6584,"▁$100":6585,"THING":6586,"▁alone":6587,"▁involving":6588,"▁(j":6589,"▁Express":6590,"▁EXPECT":6591,"WORK":6592,"▁media.":6593,"▁slander,":6594,"▁Gam":6595,"▁Street":6596,"▁512":6597,"▁vendors,":6598,"IO":6599,"elp":6600,"▁INDEMN":6601,"IGHT":6602,"PS":6603,"▁\"P":6604,"▁very":6605,"▁arose":6606,"▁barred":6607,"Re":6608,"lam":6609,"▁categ":6610,"UBL":6611,"▁DURING":6612,"ated.":6613,"▁(18)":6614,"▁many":6615,"▁way.":6616,"▁displaying":6617,"▁obligation)":6618,"▁behavi":6619,"son":6620,"▁contents,":6621,"▁thereafter":6622,"▁LOSSES,":6623,"ress,":6624,"▁possible,":6625,"▁DOLLARS":6626,"▁SERVER":6627,"▁robots,":6628,"▁Majeure":6629,"do":6630,"ifies":6631,"▁diss":6632,"viron":6633,"▁TIMELINESS,":6634,"▁free,":6635,"▁Mail":6636,"▁directors":6637,"▁promotion":6638,"▁OBLIG":6639,"▁extens":6640,"rivacy":6641,"▁Convention":6642,"▁investigation":6643,"▁ACCURATE":6644,"▁misappropri":6645,"▁Pty":6646,"▁User,":6647,"▁legality,":6648,"▁repe":6649,"▁Cloud":6650,"▁research":6651,"▁Offer":6652,"▁spyware,":6653,"Host":6654,"▁Le":6655,"▁recurring":6656,"ilst":6657,"▁You.":6658,"▁something":6659,"▁Licensee":6660,"▁PROVISION":6661,"▁input":6662,"▁collectively":6663,"▁deduct":6664,"▁untrue,":6665,"▁unrest":6666,"ino":6667,"▁lo":6668,"▁Technology":6669,"▁WAIVE":6670,"▁KIND.":6671,"▁Disclaim":6672,"▁purchase,":6673,"▁completely":6674,"po":6675,"▁EU":6676,"▁incon":6677,"▁constantly":6678,"▁media,":6679,"▁BASIS,":6680,"▁DIG":6681,"ENSE":6682,"▁members,":6683,"▁POSTED,":6684,"▁underlying":6685,"▁COMPLETENESS,":6686,"▁Process":6687,"▁lead":6688,"▁repeated":6689,"SATISF":6690,"▁Sk":6691,"ana":6692,"▁CARE":6693,"▁Pv":6694,"▁HOW":6695,"▁assess":6696,"SU":6697,"▁error-free,":6698,"▁(j)":6699,"▁happ":6700,"Us":6701,"▁Mag":6702,"▁Returns":6703,"▁excessive":6704,"▁Tre":6705,"▁offering":6706,"selves":6707,"-3":6708,"▁Ab":6709,"▁NET":6710,"▁STATE":6711,"▁hyperlinks":6712,"▁schemes,":6713,"▁ca":6714,"ives":6715,"▁transit":6716,"▁DISSATISF":6717,"▁pricing,":6718,"▁minor":6719,"▁along":6720,"▁Force":6721,"▁ACTION,":6722,"▁avoidance":6723,"▁revocable,":6724,"▁WITHIN":6725,"▁interactions":6726,"-m":6727,"uit":6728,"▁house":6729,"char":6730,"▁DES":6731,"▁trading":6732,"▁statute,":6733,"▁expected":6734,"▁MEMBER":6735,"Sc":6736,"▁NOTICE":6737,"▁corrupt":6738,"▁UPON":6739,"▁APPROPRI":6740,"▁advocates":6741,"▁PH":6742,"▁contribute":6743,"▁carry":6744,"▁caching":6745,"▁Facebook":6746,".5":6747,"CO":6748,"omest":6749,"▁online,":6750,"lined":6751,"▁navig":6752,"▁200":6753,"OLLECT":6754,"▁FUNCTIONS":6755,"▁Properties":6756,".io":6757,"▁completion":6758,"▁WHERE":6759,"▁communicating":6760,"▁implication,":6761,"▁ANYONE":6762,"▁Imperson":6763,"IX":6764,"▁Author":6765,"ancell":6766,"pective":6767,"▁room":6768,"▁Disclosing":6769,"▁draft":6770,"▁address;":6771,"ley":6772,"▁SERVICES;":6773,"▁Identification":6774,"ly-":6775,"▁republish,":6776,"▁alternative":6777,"▁live":6778,"▁interested":6779,"▁Autom":6780,"▁cred":6781,"▁non-commercial);":6782,"11":6783,"iring":6784,"▁(information":6785,"▁Get":6786,"▁intercept":6787,"▁environ":6788,"URES":6789,"▁charg":6790,"▁visit.":6791,"▁Contributions":6792,"▁Car":6793,"▁rates":6794,"▁currently":6795,"▁security.":6796,"posit":6797,"▁labor":6798,"elf":6799,"▁SUPPLIERS,":6800,"▁fulfill":6801,"▁TRANSMITTED,":6802,"▁sort":6803,"▁City":6804,"iduc":6805,"adem":6806,"▁MOD":6807,"▁THEREIN,":6808,"20":6809,"▁Most":6810,"▁loss;":6811,"▁technologically":6812,"▁components":6813,"edul":6814,"▁international,":6815,"▁attempts":6816,"▁Receiving":6817,"▁Har":6818,"▁Games":6819,"▁READ":6820,"letin":6821,"iliar":6822,"▁income,":6823,"▁IMPLIED.":6824,"▁“us”":6825,"▁disability;":6826,"/privacy":6827,"portion":6828,"▁Union":6829,"▁NEGLIGENCE),":6830,"▁separately":6831,"burden":6832,"▁costs)":6833,"▁(which":6834,"▁payment.":6835,"ners":6836,"▁permissions":6837,"▁Resour":6838,"▁weeks":6839,"▁GREATER":6840,"▁activities,":6841,"from":6842,"-out":6843,"▁six":6844,"▁Day":6845,"ourse":6846,"conduct":6847,"▁redistribution":6848,"▁sound,":6849,"▁BAR":6850,"▁Dev":6851,"▁overburden":6852,"conomic":6853,"▁enforced":6854,"▁BO":6855,"▁property.":6856,"▁investment":6857,"▁restriction,":6858,"visual":6859,"ycle":6860,"▁fire,":6861,"o.":6862,"▁En":6863,"▁DEST":6864,"▁MS":6865,"▁Art":6866,"▁replac":6867,"▁suit,":6868,"k)":6869,"-based":6870,"▁PROCURE":6871,"off":6872,"▁posts":6873,"▁reliable,":6874,"▁absence":6875,"▁human":6876,"▁Email":6877,"reg":6878,"ators,":6879,"▁LTD":6880,"▁Conduct":6881,",\"":6882,"pay":6883,"unch":6884,"▁offerings":6885,"▁Materials,":6886,"▁(vii)":6887,"IFIC":6888,"▁SPECIFIC":6889,"▁TERMS,":6890,"ting":6891,"▁infringed":6892,"▁technology,":6893,"▁recommendation":6894,"▁revocable":6895,"FORE":6896,"want":6897,"▁fiduc":6898,"▁if,":6899,"light":6900,"▁‘as":6901,"▁“T":6902,"▁“we”,":6903,"▁familiar":6904,"oh":6905,"ilities":6906,"▁prosec":6907,"▁email.":6908,"▁appropriate,":6909,"▁(i.e.":6910,"▁Websites.":6911,"▁destruction":6912,"yn":6913,"▁NB":6914,"▁monitoring":6915,"▁Community":6916,"▁occurs":6917,"▁circumvent,":6918,"▁cases,":6919,"▁POR":6920,"▁it’s":6921,"▁“our”":6922,"▁WRITTEN,":6923,"er.com":6924,"▁engines":6925,"▁confirmed":6926,"TV":6927,"▁proof":6928,"osen":6929,"▁impact":6930,"▁hereof.":6931,"▁Stud":6932,"▁ASSUMES":6933,"aut":6934,"sw":6935,"▁pharm":6936,"▁another’s":6937,"UTES":6938,"▁(k)":6939,"igu":6940,"ips":6941,"▁demands":6942,"▁assistance":6943,"iles":6944,"▁noncommercial":6945,"▁Communications":6946,"▁republished,":6947,"▁SAP":6948,"iff":6949,"▁release,":6950,"iform":6951,"▁·":6952,"▁ant":6953,"▁understandings":6954,"▁SportsEng":6955,"iders":6956,"ext,":6957,"▁procedures,":6958,"▁forums,":6959,"▁(without":6960,"Mark":6961,"▁CURRE":6962,"▁partial":6963,"▁DIGITAL":6964,"▁PROCUREMENT":6965,"akes":6966,"▁ONLINE":6967,"▁contract.":6968,"cel":6969,"▁apply.":6970,"▁assignment":6971,"▁routine":6972,"▁misconduct":6973,"IOR":6974,"UTION":6975,"ensitive":6976,"▁thereto,":6977,"▁interferes":6978,"▁person's":6979,"▁inaccuracies,":6980,"-not":6981,"reak":6982,"▁unused":6983,"ets":6984,"▁TRANSMISSIONS":6985,"ot.com":6986,"▁project":6987,"▁BM":6988,"▁lawfully":6989,"▁chosen":6990,"▁CAUSES":6991,"omestic":6992,"DMCA":6993,"ought":6994,"▁CONST":6995,"-party":6996,"▁subcontractors,":6997,"OLIC":6998,"▁Orders":6999,"▁immoral":7000,"entials":7001,"▁RELIABILITY":7002,"▁days.":7003,"▁objectionable.":7004,"▁doubt,":7005,"▁UGC":7006,"▁\"User":7007,"▁setting":7008,"▁convenience,":7009,"▁corresponding":7010,"▁REPRESENTATIVES":7011,"▁sets":7012,"▁REASONABLE":7013,"ories":7014,"▁pornograph":7015,"-w":7016,"LINK":7017,"▁link.":7018,"▁intimidate,":7019,"antage":7020,"▁clients":7021,"▁litigation":7022,"▁uploading,":7023,"▁engag":7024,"▁communications.":7025,"▁judgments,":7026,"INGS":7027,"▁performing":7028,"▁period,":7029,"▁More":7030,"▁fiduciary":7031,"oom":7032,"s\")":7033,"▁exchan":7034,"▁One":7035,"teen":7036,"ental":7037,"▁endorsement,":7038,"▁tools,":7039,"▁E-":7040,"▁“your":7041,"▁endorse,":7042,"▁“Site":7043,"▁videos":7044,"▁Repro":7045,"▁practice":7046,"▁partnership,":7047,".4":7048,"edic":7049,"▁secrets":7050,"▁frames":7051,"▁therefore,":7052,"Comm":7053,"▁REPRESENTATIVE":7054,"screen":7055,"▁Office":7056,"▁horses":7057,"▁evaluating":7058,"▁things":7059,"or.":7060,"▁contests,":7061,"▁claus":7062,"▁concerns":7063,"▁FOUND":7064,"▁aris":7065,"▁CONTROL":7066,"▁send,":7067,"▁Internet;":7068,"duce,":7069,"▁Ren":7070,"ensable,":7071,"▁NONINFRINGEMENT":7072,"▁P&":7073,"place":7074,"▁assigns,":7075,"▁Internet,":7076,"▁School":7077,"▁User.":7078,"▁compatible":7079,"▁Occ":7080,"▁affects":7081,"▁Commercial":7082,"▁variety":7083,"Pay":7084,"▁Welcome":7085,"▁acquired":7086,"▁Claims":7087,"▁DESTRUCT":7088,"▁carrier":7089,"▁nonetheless":7090,"(c":7091,"▁negligence)":7092,"▁mailing":7093,"▁COMMUNICATIONS":7094,"▁historical":7095,"PRO":7096,"▁Authorized":7097,"▁consultants,":7098,"▁likeness":7099,"▁anytime":7100,"chain":7101,"▁image":7102,"eek":7103,"▁RELEASE":7104,"▁Use;":7105,"▁RESERV":7106,"▁computers":7107,"▁bur":7108,"▁Add":7109,".co.id":7110,"▁CONDITIONS,":7111,"OLLECTIVE":7112,"▁null":7113,"ARENT":7114,"▁corrected":7115,"erate":7116,"▁CAN":7117,"▁adopt":7118,"▁payment,":7119,"▁Blackboard,":7120,"▁Restrict":7121,"ubscrib":7122,"▁Exper":7123,"ashion":7124,"▁Contracts":7125,"▁examining":7126,"WS":7127,"”.":7128,"quest":7129,"▁HY":7130,"▁annoy":7131,"News":7132,"▁locate":7133,"▁sponsored":7134,"▁objectionable;":7135,"▁ACTUAL":7136,"▁non-transferable":7137,"▁words":7138,"▁pertaining":7139,"▁conj":7140,"▁requirements.":7141,"▁arbitrate":7142,"▁debt,":7143,"▁worm,":7144,"▁explan":7145,"OK":7146,"tra":7147,"▁IS,":7148,"▁PUBL":7149,"▁hereunder.":7150,"▁institut":7151,"▁Visitor":7152,"▁SECURITY":7153,"iced":7154,"▁adverse":7155,"▁statements,":7156,"stro":7157,"▁HIPAA":7158,"▁draw":7159,"▁EMPLOYEES":7160,"▁PRIOR":7161,"▁DOWNLOADING":7162,"▁MAN":7163,"▁way;":7164,"▁Republic":7165,".com/privacy":7166,"▁SMS":7167,"▁outstanding":7168,"ndemn":7169,"▁interfac":7170,"▁disparage,":7171,"▁PARENT":7172,"▁SUIT":7173,"att":7174,"▁21":7175,"▁conjunction":7176,"G;":7177,"▁reliable.":7178,"box":7179,"▁Search":7180,"▁stream":7181,"▁therefrom":7182,"▁owed":7183,"-line":7184,"▁Fre":7185,"▁appropri":7186,"▁bulletin":7187,"▁mark,":7188,"▁negligent":7189,"▁SportsEngine":7190,"▁SM":7191,"▁us)":7192,"▁unin":7193,"press,":7194,"▁staff":7195,"▁Company's":7196,"▁distributing":7197,"ffective":7198,"▁DIRECTLY":7199,"▁disassemble":7200,"▁merchandise":7201,"ily,":7202,"▁match":7203,"hic":7204,"▁(un":7205,"▁inqu":7206,"▁complying":7207,"▁clearly":7208,"▁counter-not":7209,"▁crawl,":7210,"▁towards":7211,"▁DISCONTINUE":7212,"▁create,":7213,"▁systems,":7214,"▁disseminate":7215,"▁Violate":7216,"▁POLIC":7217,"▁operators":7218,"▁resell,":7219,"▁utilizing":7220,"▁Non":7221,"elivery":7222,"▁Infringement":7223,"▁SITE;":7224,"▁attach":7225,"oft":7226,"▁SUBMISSIONS":7227,"▁calcul":7228,"CRIP":7229,"▁During":7230,"▁Domain":7231,"▁student":7232,"▁complaining":7233,"▁foreseeable":7234,"ime.":7235,"▁acts;":7236,"▁manipulate":7237,"ytic":7238,"▁Data,":7239,"▁void,":7240,"▁invasion":7241,"▁COURT":7242,"▁as,":7243,"▁Control":7244,"▁presence":7245,"▁Client’s":7246,"eepst":7247,"▁Disputes":7248,"▁household":7249,"ster":7250,"▁FTS":7251,"ATH":7252,"▁depict":7253,"▁dissatisf":7254,"▁disgu":7255,"▁EL":7256,"▁entries":7257,"▁modifications,":7258,"▁shipment":7259,"▁compilation":7260,"'t":7261,"▁slog":7262,"▁Subscrib":7263,"▁amb":7264,"▁Wales":7265,"▁North":7266,"▁Occas":7267,"itness":7268,"▁domestic":7269,"▁MAL":7270,"▁codes":7271,"▁signing":7272,"▁Amaz":7273,"▁Review":7274,"▁sess":7275,"▁read,":7276,"▁notifications":7277,"▁exc":7278,"▁suspending":7279,"▁REPRESENTATIONS,":7280,"▁NETWORK":7281,"▁withhold":7282,"ification,":7283,"▁employee":7284,"▁legality":7285,"ROUP":7286,"▁Appro":7287,"▁authentication":7288,"▁Lear":7289,"inder":7290,"proportion":7291,"ertainment":7292,"▁couri":7293,"▁pretend":7294,"▁discriminate":7295,"▁campaign":7296,"▁disproportion":7297,"▁emailing":7298,"urnish":7299,"▁interface":7300,"▁national,":7301,"▁violence":7302,"▁PREC":7303,"▁REVENUE,":7304,"__":7305,"uzz":7306,"▁lack":7307,"▁\"us":7308,"▁(12)":7309,"▁Team":7310,"▁combination":7311,"▁hereto":7312,"▁Super":7313,"▁administered":7314,"▁phish,":7315,"▁delivery.":7316,"▁University":7317,"Blog":7318,"▁unwant":7319,"▁“spam":7320,"▁advertise":7321,"▁PROVIDER":7322,"▁invalidity":7323,"▁endeavour":7324,"▁provider,":7325,"▁infringing,":7326,"▁advantage":7327,"IVID":7328,"Company":7329,"-pro":7330,"▁anim":7331,"▁sense":7332,"▁cost,":7333,"▁initiative":7334,"▁disabling":7335,"▁newsletter":7336,"▁insult,":7337,"▁service;":7338,"▁failures,":7339,"▁exception":7340,"▁EMAILED,":7341,"ereby":7342,"▁offices":7343,"▁acknowledg":7344,"efined":7345,"▁amendments":7346,"▁rendered":7347,"arget":7348,"▁applicable)":7349,"▁guidelines,":7350,"▁hardware,":7351,"▁disagree":7352,"BLE":7353,"▁Cancell":7354,"ownload":7355,"▁Commerce":7356,"lex":7357,"100":7358,"ITOR":7359,"▁CORRECTED.":7360,"IVIDUAL":7361,"Online":7362,"▁Sur":7363,"▁RISE":7364,"▁sales,":7365,"▁pretext,":7366,"▁ordinances;":7367,"▁of:":7368,"lege":7369,"▁Bet":7370,"▁FO":7371,"▁INDIVIDUAL":7372,"▁fraud,":7373,"istribute":7374,"▁geographic":7375,"▁ambigu":7376,"▁malf":7377,"▁at:":7378,"▁P&G;":7379,"▁Cou":7380,"due":7381,"▁available.":7382,"▁coun":7383,"▁Education":7384,"ic,":7385,"▁gross":7386,"▁charges.":7387,"▁properties":7388,"▁deceptive;":7389,"S)":7390,"▁right;":7391,"coin":7392,"ENC":7393,"▁supplement":7394,"▁Price":7395,"▁editorial":7396,"-IS":7397,"mis":7398,"▁violates,":7399,"▁associations":7400,"▁engaging":7401,"▁numbers,":7402,"▁equity":7403,"▁scrap":7404,"▁procurement":7405,"▁burden":7406,"▁so;":7407,"▁fail,":7408,"▁scrape;":7409,"▁APPROPRIATE":7410,"▁pharm,":7411,"▁Sl":7412,"▁own,":7413,"age.":7414,"▁DELE":7415,"▁INTEL":7416,"TO":7417,"▁Numb":7418,"▁FORESE":7419,"▁forever":7420,"▁Of":7421,"▁unwanted":7422,"▁information),":7423,"▁canceled":7424,"IK":7425,"▁Over":7426,"▁(s":7427,"▁FEATURE":7428,"▁interruptions":7429,"LECTUAL":7430,"▁deleg":7431,"▁“mirror":7432,"▁unenc":7433,"▁age.":7434,"▁procedure":7435,"▁disco":7436,"urren":7437,"-policy":7438,"▁INTELLECTUAL":7439,"onym":7440,"ashington":7441,"▁Ge":7442,"▁authority,":7443,"▁\"spam":7444,"ccount":7445,"▁signify":7446,"▁merchantable":7447,"FTER":7448,"ACY":7449,"▁enjoying":7450,"▁Open":7451,"▁(WH":7452,"▁unrestrict":7453,"CP":7454,"mod":7455,"▁sk":7456,"▁uncon":7457,"▁Users.":7458,"▁“L":7459,"▁accounting":7460,"▁Ver":7461,"▁rac":7462,"▁depic":7463,"▁Technologies":7464,"▁counsel":7465,"▁wire":7466,"▁Ship":7467,"ICI":7468,"▁requesting":7469,"▁waived":7470,"▁meant":7471,"▁recourse":7472,"▁third-party,":7473,"▁determines":7474,"▁DISCLAIMERS":7475,"▁Partic":7476,"▁COS":7477,"▁\"C":7478,"▁JUD":7479,"▁JURISDICTION.":7480,"▁unencrypted":7481,"book":7482,"olit":7483,"▁option,":7484,"OGRAPH":7485,"er's":7486,"▁be,":7487,"▁logic":7488,"▁inhibit":7489,"▁serious":7490,"▁Washington":7491,"▁termination;":7492,"▁refunded":7493,"OLOG":7494,"▁satisfactory":7495,"▁DISPUTE":7496,"▁past":7497,"▁sensitive":7498,"▁invent":7499,"CCESS":7500,"▁possible.":7501,"paid":7502,"ronic":7503,"▁deletion,":7504,"▁Hosting":7505,"▁legislation":7506,"▁disproportionately":7507,"▁my":7508,"▁Se":7509,"▁content:":7510,"▁GROUP":7511,"▁logging":7512,"▁Accounts":7513,"▁Third-party":7514,"▁exists":7515,"▁(unless":7516,"25":7517,"▁think":7518,"CON":7519,"▁criminal,":7520,"▁Attempt":7521,"▁strikes,":7522,"▁truthful":7523,"▁VIOL":7524,"▁ve":7525,"▁courts.":7526,"▁sum":7527,"▁Billing":7528,"perform":7529,"ATELY":7530,"▁identifiers":7531,"▁scripts":7532,"▁GIVING":7533,"▁republic":7534,"▁severable":7535,"▁whereby":7536,"▁webpages":7537,"▁Contents":7538,"PLAY":7539,"▁60":7540,"▁institutions":7541,"▁Transaction":7542,"BOARD":7543,"▁*":7544,"ebit":7545,"▁thereon":7546,"▁duplicate":7547,"▁concepts,":7548,"▁Fore":7549,"▁Master":7550,"▁(\"S":7551,"▁clarify":7552,"▁(D)":7553,"▁onto":7554,"▁sites;":7555,"▁PRECEDING":7556,"rate":7557,"▁territor":7558,"▁DELETION":7559,"yl":7560,"▁modified,":7561,"▁void.":7562,"▁HEREIN,":7563,"▁Changes":7564,"us,":7565,"▁Click":7566,"ade,":7567,"lete":7568,"▁completed":7569,"▁ACCESSING":7570,"uct":7571,"▁true":7572,"▁First":7573,"rick":7574,"▁(defined":7575,"▁confusion":7576,"is,":7577,"▁attention":7578,"▁application,":7579,"▁appropriate.":7580,"▁permanently,":7581,"online":7582,"▁LOS":7583,"▁Customer,":7584,"▁Payments":7585,"▁equipment;":7586,"▁Purchas":7587,"▁moder":7588,"▁bet":7589,"▁Flo":7590,"▁GTI":7591,"▁waive,":7592,"▁Acceptable":7593,"▁Insurance":7594,"▁imit":7595,"▁mach":7596,"▁Service).":7597,"▁PORTION":7598,"▁Occasionally":7599,"firm":7600,"top":7601,"oment":7602,"▁offline":7603,"▁Club":7604,"s.com.":7605,"▁Registered":7606,"arily,":7607,"▁Found":7608,"▁Website/":7609,"▁infringes,":7610,"▁returns":7611,"▁estim":7612,"▁OFFENSIVE,":7613,"▁COSTS":7614,"▁Tex":7615,"▁available”":7616,"▁company.":7617,"ury":7618,"▁horse":7619,"▁(“F":7620,"▁blocking":7621,"▁COMPONENTS":7622,"▁headers":7623,"▁constitute,":7624,"AGE":7625,"▁part.":7626,"▁come":7627,"▁Road":7628,"▁non-s":7629,"▁failed,":7630,"▁needed":7631,"▁days,":7632,"▁INJURY,":7633,"▁(WHETHER":7634,"omet":7635,"▁index":7636,"▁SUCCESS":7637,"▁components.":7638,"▁mutually":7639,"▁“mirror”":7640,"ender":7641,"▁disruption":7642,"▁device.":7643,"▁Premium":7644,"Me":7645,"i.com":7646,"▁game":7647,"▁manage":7648,"▁restricting":7649,"▁OTHERWISE.":7650,"▁registration,":7651,"▁(n":7652,"▁Bro":7653,"amper":7654,"▁INC.":7655,"▁parties;":7656,"▁concerns,":7657,"▁exploited":7658,"Reg":7659,"ray":7660,"itions":7661,"▁aspects":7662,"-of-":7663,"▁shipped":7664,"POR":7665,"▁Air":7666,"▁ORD":7667,"▁refresh":7668,"▁secure.":7669,"▁pre-screen":7670,"▁PROCE":7671,"▁absent":7672,"▁paragraph,":7673,"ha":7674,"▁Proprietary":7675,"▁CONTR":7676,"▁reviews,":7677,"▁permits":7678,"▁country.":7679,"▁verification":7680,"xxx":7681,"▁“Service”":7682,"uri":7683,"▁forfe":7684,"▁credits":7685,"▁Flor":7686,"Net":7687,"s”":7688,"▁Apple,":7689,")(":7690,"ba":7691,"rop":7692,"▁Par":7693,"▁Fair":7694,"▁licensee":7695,"▁confidence;":7696,"ario":7697,"▁noted":7698,"▁subscriber":7699,"▁licenses,":7700,"▁Submission,":7701,"▁reviewed,":7702,"▁advertisers,":7703,"▁correspondence":7704,"▁mistakes,":7705,"less,":7706,"iding":7707,"▁Net":7708,"▁Inv":7709,"▁personality":7710,"▁Whilst":7711,"▁practices,":7712,"▁soliciting":7713,"▁CR":7714,"▁offence":7715,"▁suitable":7716,"▁Procedures":7717,"Web":7718,"soever":7719,"▁occurren":7720,"▁Australian":7721,"▁don’t":7722,"▁OPIN":7723,"▁SUFF":7724,"▁servers,":7725,"▁Transact":7726,"holders":7727,"▁Next":7728,"web":7729,"▁Brand":7730,"▁non-infringement,":7731,"▁duly":7732,"▁Google-Sourced":7733,"▁INCLUDE":7734,"▁drafting":7735,"60":7736,"▁air":7737,"ote":7738,"utor":7739,"▁forms,":7740,"ple":7741,"▁Sing":7742,"▁Indust":7743,"market":7744,"):":7745,"▁ran":7746,"▁furnish":7747,"▁Inf":7748,"▁procured":7749,"eak":7750,"itors":7751,"▁theory,":7752,"▁drive":7753,"-paid":7754,"▁country,":7755,"▁browsers,":7756,"▁Upd":7757,"▁Document":7758,"▁reported":7759,"▁arrangements":7760,"▁LOSS,":7761,"led,":7762,"ores":7763,"▁©":7764,"▁paper":7765,"▁Wix":7766,"ams":7767,"▁Comput":7768,"▁Product.":7769,"▁prompted":7770,"▁buyer":7771,"ield":7772,"▁America":7773,"▁PERFORMANCE,":7774,"▁prob":7775,"▁Best":7776,"INE":7777,"▁damaged":7778,"▁designs":7779,"▁discontinue,":7780,"▁venture,":7781,"care":7782,"itimate":7783,"▁Fan":7784,"ter,":7785,"ewal":7786,"▁Users,":7787,"▁Tool":7788,"▁subscription,":7789,"▁Also":7790,"▁Shopify":7791,"▁GRAPHICS":7792,"▁caution":7793,"EPT":7794,"eval":7795,"isp":7796,"▁expectations,":7797,"▁Columb":7798,"ERC":7799,"▁information:":7800,"▁organizations,":7801,"iii)":7802,"▁superv":7803,"▁specify":7804,"eeping":7805,"▁address)":7806,"▁Suite":7807,"▁Trust":7808,"&C":7809,"▁owned,":7810,"urrenc":7811,"▁corrected.":7812,"▁OFFER":7813,"▁MONITOR":7814,"rov":7815,"▁name;":7816,"▁earn":7817,"▁supplier":7818,"▁Only":7819,"▁belonging":7820,"▁STATUTORY,":7821,"discl":7822,"▁crit":7823,"▁Af":7824,"ides":7825,"▁policies.":7826,"▁school":7827,"▁durability,":7828,"▁racially,":7829,"▁Server":7830,"▁Resources":7831,"▁below),":7832,"▁which,":7833,"UNDRED":7834,"▁sweepst":7835,"pite":7836,"▁hon":7837,"▁Deve":7838,"▁“Website":7839,"▁DEV":7840,"▁rules.":7841,"▁carefully.":7842,"▁PROVISIONS":7843,"▁MS-Sourced":7844,"▁HYPER":7845,"▁ambiguities":7846,"E.":7847,"▁es":7848,"▁Either":7849,"▁interaction":7850,"▁USAGE":7851,"▁Top":7852,"▁ever":7853,"▁Bad":7854,"▁outlined":7855,"▁order).":7856,"▁disguise":7857,"ny":7858,"▁omission,":7859,"ines,":7860,"ero":7861,"▁controls":7862,"▁entirety":7863,"▁programming":7864,"▁PARTNERS":7865,"▁reviews":7866,"▁survey":7867,"▁settled":7868,"▁independently":7869,"▁analys":7870,"▁PROHIBITED":7871,"▁Throughout":7872,"just":7873,"▁needs":7874,"▁future,":7875,"en,":7876,"▁la":7877,"ateway":7878,"▁completing":7879,"▁section.":7880,"MEDI":7881,"▁USA,":7882,"rd":7883,"▁available\"":7884,"▁invade":7885,"▁sale,":7886,"▁endeavor":7887,"99":7888,"▁b)":7889,"▁Active":7890,"▁competitive":7891,"▁settings":7892,"▁REQUIREMENTS,":7893,"▁made,":7894,"▁part)":7895,"▁participating":7896,"▁Amazon":7897,"s’":7898,"▁jury":7899,"▁world.":7900,"she":7901,"▁TRIAL":7902,"▁safeguarding":7903,"/c":7904,"mo":7905,"▁eas":7906,"ay,":7907,"▁Big":7908,"▁address/":7909,"▁filing":7910,"▁handling":7911,"▁pictures,":7912,"by":7913,"erpr":7914,"▁IMMEDI":7915,"▁PRIVACY":7916,"PN":7917,"▁Collect":7918,"▁SUSP":7919,"▁interns":7920,"▁viewed":7921,"▁Pvt.":7922,"ing.com":7923,"irit":7924,"▁WHO":7925,"▁to;":7926,"▁DUE":7927,"▁subscriptions":7928,"▁successfully":7929,"▁resellers":7930,"▁misleading;":7931,"▁earth":7932,"▁him":7933,"▁paid,":7934,"▁mining":7935,"otel":7936,"Confidential":7937,"▁ο":7938,"▁teleph":7939,"▁PROFESS":7940,"▁FORESEE":7941,"urb":7942,"▁assemb":7943,"▁accessing,":7944,"▁privacy.":7945,"▁hereof,":7946,"▁REFER":7947,"▁BLACK":7948,"▁ban":7949,"▁HUNDRED":7950,"FULLY":7951,"ounce":7952,"-1":7953,"m,":7954,"▁TRADE":7955,"▁trust":7956,"▁(see":7957,"rap":7958,"▁Ear":7959,"▁possibility.":7960,"▁relationships":7961,"▁EQUIPMENT":7962,"▁a)":7963,"comments":7964,"▁compr":7965,"▁WARRANT,":7966,"▁electronic,":7967,"▁suitability":7968,"▁asserting":7969,"▁Name":7970,"▁howsoever":7971,"▁advertisements,":7972,"▁interruption,)":7973,"▁SECURITY,":7974,"▁Approved":7975,"▁Equ":7976,"▁downloaded,":7977,"▁attempted":7978,"▁comments;":7979,"▁articles,":7980,"▁tags":7981,"▁earthqu":7982,"▁MORE":7983,"▁ordering":7984,"▁organization,":7985,"▁dealers,":7986,"▁reporting":7987,"▁imposes":7988,"-Generated":7989,"ubscribe":7990,"▁tamper":7991,"▁agree,":7992,"▁“B":7993,"▁work,":7994,"Trad":7995,"i,":7996,"▁SC":7997,"▁AFTER":7998,"ntario":7999,"▁Every":8000,"▁THAT:":8001,"▁Customer.":8002,"▁individual,":8003,"▁Advertiser":8004,"r.":8005,"▁partner":8006,"▁Virtual":8007,"▁headers,":8008,"▁revoke":8009,"▁STATEMENTS":8010,"2,":8011,"78":8012,"▁Ticket":8013,"ape":8014,"▁interns,":8015,"▁details.":8016,"▁extend":8017,"▁eligibility":8018,"▁Sales":8019,"▁Complaints,":8020,"ONG":8021,"▁ED":8022,"▁TOS,":8023,"▁Using":8024,"▁product)":8025,"▁(together":8026,"terms":8027,"▁Opt":8028,"▁bypass":8029,"▁House":8030,"▁reproduced":8031,"ETARY":8032,"▁IMMEDIATELY":8033,"▁Pet":8034,"▁remedi":8035,"▁link,":8036,"▁PROBLE":8037,"▁emails,":8038,"▁e-mails":8039,"▁industry":8040,"▁MOB":8041,"Work":8042,"ES.":8043,"▁vulner":8044,"EF":8045,"eria":8046,"▁moment":8047,"▁link(s)":8048,"▁PARTICIP":8049,"▁infect":8050,"▁Publishing":8051,".blogspot.co.id":8052,"▁horse,":8053,"▁PROFESSIONAL":8054,"▁dates,":8055,"▁Future":8056,"▁None":8057,"▁communicated":8058,"▁EXCLUDED":8059,"▁destination":8060,"▁Licensed":8061,"▁CURRENT":8062,"▁build":8063,"ung":8064,"ume":8065,"ical,":8066,"▁subscribe":8067,"▁(V)":8068,"▁repeatedly":8069,"▁YEAR":8070,"▁belongs":8071,"edule":8072,"▁TECHNOLOG":8073,"▁Reproduce,":8074,"cent":8075,"▁Park":8076,"▁Food":8077,"ICE,":8078,"▁CONTAIN":8079,"▁Data.":8080,"▁HEREIN.":8081,"▁Them":8082,"INGS,":8083,"▁condition,":8084,"▁ARISE":8085,"OLV":8086,"▁embedd":8087,"▁(EVEN":8088,"CES,":8089,"Go":8090,"Gu":8091,"ME":8092,"▁Wide":8093,"▁Artic":8094,"s.com,":8095,"▁selection,":8096,"▁substantially":8097,"▁organisation":8098,"ourn":8099,"▁means.":8100,"▁Read":8101,"▁CLAIMS,":8102,"▁boards,":8103,"▁voluntarily":8104,"▁hour":8105,"▁valid,":8106,"▁matter.":8107,"▁malware,":8108,"▁quoted":8109,"▁response.":8110,"IUM":8111,"uff":8112,"▁latest":8113,"▁(excluding":8114,"▁engaged":8115,"otal":8116,"▁regards":8117,"▁letters":8118,"▁Impersonate":8119,"▁Florid":8120,"▁any:":8121,"▁AUTHORIZED":8122,"▁Ontario":8123,"▁Site’s":8124,"▁obliged":8125,"▁Jav":8126,"▁HYPERLINK":8127,"vision":8128,"▁although":8129,"▁Limitation":8130,"▁“Services":8131,"▁fundra":8132,"▁schemes":8133,"▁address/phone":8134,"my":8135,"ing;":8136,"▁Lo":8137,"▁defenses":8138,"▁USEFUL":8139,"▁distributors.":8140,"▁transferable,":8141,"▁India.":8142,"▁WordP":8143,"▁(U":8144,"▁merchants,":8145,"▁originally":8146,"▁compilation,":8147,"▁ACCEPT":8148,"▁proceeding.":8149,"▁affecting":8150,"▁COMPANY,":8151,"▁18,":8152,"mentioned":8153,"▁RESTS":8154,"▁offer.":8155,"▁dil":8156,"ORDING":8157,"▁terminate,":8158,"▁just":8159,"▁association,":8160,"▁AGREEMENT.":8161,"▁contrary,":8162,"▁time-to":8163,"▁instru":8164,"▁loan,":8165,"▁is'":8166,"▁Blog":8167,"▁BEST":8168,"▁entries)":8169,"▁body":8170,"▁Doll":8171,"▁Money":8172,"ribun":8173,"▁suppliers.":8174,"▁Exchange":8175,"▁evidence":8176,"▁time-to-t":8177,"79":8178,"cell":8179,"▁HOLD":8180,"▁harmless,":8181,"LLOW":8182,"▁failures":8183,"ones":8184,"▁Paid":8185,"▁irrevocable":8186,"▁BLACKBOARD":8187,"ples":8188,"pression":8189,"▁advice.":8190,"▁bombs,":8191,"▁embarr":8192,"EW":8193,"serv":8194,"▁provider.":8195,"ode":8196,"▁CAP":8197,"▁needed.":8198,"ducing":8199,"▁Professional":8200,"pan":8201,"▁auto":8202,"▁Den":8203,"▁INST":8204,"ordin":8205,"▁considers":8206,"▁regulation;":8207,"▁proceedings,":8208,"▁stored,":8209,"▁suspension,":8210,"▁expiry":8211,"▁di":8212,"▁SIM":8213,"▁Ob":8214,"▁represent,":8215,"▁inure":8216,"▁co-b":8217,"▁AFFECT":8218,".blogspot.com/":8219,"▁overburden,":8220,"Ar":8221,"tm":8222,"text":8223,"itting":8224,"▁Partners":8225,"CRIB":8226,"▁primary,":8227,"/p":8228,"fram":8229,"esign":8230,"▁El":8231,"▁deposit":8232,"▁provided.":8233,"▁system.":8234,"▁subsidiary":8235,"▁audio-":8236,"▁disparages":8237,"▁assets":8238,"vi":8239,"▁mere":8240,"▁Sy":8241,"ances.":8242,"clude":8243,"▁lock":8244,"▁racially":8245,"aired":8246,"ITIES,":8247,"ABIL":8248,"▁employee,":8249,"▁amendment":8250,"▁Applications":8251,"-by":8252,"OGRAPHICAL":8253,"house":8254,"fficient":8255,"▁Green":8256,"▁spirit":8257,"▁accuracy;":8258,"▁bombs":8259,"▁flood":8260,"▁TYPOGRAPHICAL":8261,"onst":8262,"▁unintent":8263,"ers;":8264,"ATOR":8265,"▁Enterpr":8266,"▁Systems":8267,"▁hacking,":8268,"▁bulk":8269,"▁ENDORSE,":8270,"▁fl":8271,"▁notices.":8272,"▁Life":8273,"▁entities,":8274,"▁AVAILABILITY":8275,"▁Blue":8276,".com.au":8277,"▁Player":8278,"▁fundraising":8279,"▁express,":8280,"▁“O":8281,"▁ACCORDING":8282,"▁tortious,":8283,"▁ENTERED":8284,"▁Canadian":8285,"▁PARTNERS,":8286,"▁economic":8287,"▁accredited":8288,"ORNE":8289,"▁ads":8290,"hibited":8291,"▁code.":8292,"▁seller":8293,"ocket":8294,"▁Businesses":8295,"▁valu":8296,"▁BUSINESS,":8297,"▁prepaid":8298,"▁Charges":8299,"▁covenant":8300,"▁WP":8301,"▁Companies":8302,"▁agencies;":8303,"▁Street,":8304,"▁inconvenience":8305,"▁ELSE":8306,"▁JUDG":8307,"SI":8308,"▁favor":8309,"▁JURY":8310,"▁patents":8311,"▁CORRECTED":8312,"▁non-profit":8313,"▁compromise":8314,"/she":8315,"BA":8316,"view":8317,"▁Live":8318,"▁Historical":8319,"▁specification":8320,"▁collecting":8321,"▁APPLIES":8322,"▁GUARANTEE,":8323,"6,":8324,"▁Pur":8325,"▁Una":8326,"▁Apps":8327,"▁Party’s":8328,"▁evaluate":8329,"▁flood,":8330,"▁corrupted":8331,"▁explanation":8332,"Not":8333,"▁mall":8334,"▁ne":8335,"▁compile":8336,"▁AVAILABILITY,":8337,"ellig":8338,"▁administration":8339,"-case":8340,"▁misappropriate":8341,"Up":8342,"▁gath":8343,"▁Export":8344,"▁AMOUNTS":8345,"▁skill":8346,"-8":8347,"▁bott":8348,"▁statist":8349,"▁ALLEG":8350,"▁County":8351,"▁DISPUTES":8352,"▁OMISSIONS,":8353,"Porn":8354,"▁EXERC":8355,"▁shareholders":8356,"▁deactivate":8357,"▁necessarily,":8358,"▁User-Generated":8359,"▁ACCESS,":8360,"▁undertakes":8361,"▁nonexclusive,":8362,"NING":8363,"yb":8364,"▁pros":8365,"▁describe":8366,"▁Ide":8367,"▁audio-visual":8368,"fic":8369,"▁elimin":8370,"▁Academ":8371,"▁exemplary,":8372,"▁Items":8373,"nivers":8374,"▁ten":8375,"▁law).":8376,"▁region":8377,"▁cookies,":8378,"▁meta":8379,"▁uniform":8380,"▁time;":8381,"eved":8382,"ing)":8383,"▁disrupt,":8384,"▁finds":8385,"▁managers,":8386,"▁ATTORNE":8387,"-g":8388,"▁herein;":8389,"▁restricts":8390,"AAA":8391,"▁cease.":8392,"▁color":8393,"▁INF":8394,"mbol":8395,"▁Retail":8396,"▁articles":8397,"▁FEATURED":8398,"cis":8399,"gor":8400,"▁POST":8401,"▁TOS.":8402,"▁expose":8403,"efore":8404,"▁2-3":8405,"▁he/she":8406,"▁ENJ":8407,"RU":8408,"▁contributed":8409,"oost":8410,"▁visibility":8411,"AGES":8412,"▁upgrade":8413,"▁Di":8414,"▁reliable":8415,"▁type,":8416,"▁Rules.":8417,"▁div":8418,"▁PURSU":8419,"▁interest,":8420,"▁price,":8421,"▁delayed":8422,"▁ACTIV":8423,"▁Waiver":8424,"▁PURSUANT":8425,"▁move":8426,"▁pursue":8427,"▁blogs":8428,"▁redistribute":8429,"▁z":8430,"▁CAL":8431,"▁Val":8432,"▁know,":8433,"▁superseded":8434,"▁Twitch":8435,"rec":8436,"rim":8437,"▁Det":8438,"▁complaint.":8439,"▁symbol":8440,"▁appointed":8441,"▁stalk,":8442,"▁appropriat":8443,"▁late":8444,"claim":8445,"▁equal":8446,"▁vendors":8447,"▁DISSATISFIED":8448,"▁unconditional":8449,"iture":8450,"▁Stock":8451,"▁Accredited":8452,"▁WEBSITES,":8453,"▁complained":8454,"▁Password":8455,"▁EXERCISE":8456,"▁fix":8457,"▁case-by":8458,"▁Particip":8459,"▁Afric":8460,"▁case-by-case":8461,"here":8462,"▁oral,":8463,"▁mand":8464,"set":8465,"OND":8466,"▁entry":8467,"▁technologies":8468,"▁Consult":8469,"▁disputed":8470,"▁is”.":8471,"▁RIGHTS,":8472,"▁unavailability":8473,"▁unfair":8474,"▁increase":8475,"▁beneficiary":8476,"▁FOLLOW":8477,"(S)":8478,"▁rights)":8479,"▁UNLESS":8480,"IFIED":8481,"▁Refunds":8482,"hood":8483,"ari":8484,"▁(P":8485,"▁High":8486,"▁“F":8487,"▁config":8488,"▁contact,":8489,"▁remov":8490,"▁Sell,":8491,"▁delivering":8492,"▁incomplete":8493,"▁timeliness":8494,"CRIPTION":8495,"rovit":8496,"IE":8497,"▁Bell":8498,"duced":8499,"▁accessibility":8500,"elve":8501,"▁CONF":8502,"▁licensed,":8503,"▁locator":8504,"sup":8505,"▁College":8506,"▁functioning":8507,"▁terrorism,":8508,"TC":8509,"charge":8510,"▁delete,":8511,"▁HEREUND":8512,"▁NEGLIGENCE)":8513,"▁authorities.":8514,"ming,":8515,"▁storage,":8516,"▁consists":8517,"▁FORESEEABLE":8518,"▁”":8519,"▁you’":8520,"sect":8521,"▁LE":8522,"▁REC":8523,"▁defin":8524,"▁STOP":8525,"▁lev":8526,"▁Tele":8527,"▁delivery,":8528,"▁bann":8529,"▁AC":8530,"▁dealing":8531,"▁approval:":8532,"▁suits,":8533,"▁improvements":8534,"▁EULA":8535,"▁Computer":8536,"▁Mis":8537,"▁infringed.":8538,"▁computer.":8539,"▁quer":8540,"▁retail":8541,"ytics":8542,"’,":8543,"▁licensees,":8544,"▁downloads,":8545,"▁fees),":8546,"▁thereby":8547,"▁credentials":8548,"▁wide":8549,"▁(OR":8550,"▁ELE":8551,"▁certified":8552,"▁INVEST":8553,"/S":8554,"▁since":8555,"▁mass":8556,"seen":8557,"▁adjust":8558,"wise":8559,"▁permission;":8560,"s);":8561,"▁schedul":8562,"▁environment":8563,"-A":8564,"MC":8565,"My":8566,"XT":8567,"▁industrial":8568,"▁bottom":8569,"atter":8570,"▁business;":8571,"▁Resolution":8572,"▁Laws":8573,"▁dress,":8574,"ilit":8575,"▁VIS":8576,"▁Arbitr":8577,"▁PROCEEDING":8578,"▁areas,":8579,"▁Mess":8580,"▁warn":8581,"▁demonst":8582,"-C":8583,"▁afore":8584,"▁keeping":8585,"commerce":8586,"▁confidential,":8587,"▁encouraged":8588,"▁engines;":8589,"▁shall,":8590,"▁accounting,":8591,"▁consents,":8592,"ECESS":8593,"▁initiate":8594,"▁structure":8595,"▁malls,":8596,"isation":8597,"▁reduce":8598,"ntellectual":8599,"▁alloc":8600,"▁Regulations":8601,"▁100%":8602,"fere":8603,"▁organizations;":8604,"▁extended":8605,"▁Limited,":8606,"▁50":8607,"gorith":8608,"Tube":8609,"group":8610,"▁Box":8611,"▁USE.":8612,"olitical":8613,"▁T&C":8614,"▁associations.":8615,"▁corrected,":8616,"▁Partner":8617,"▁48":8618,"▁dollars":8619,"▁know-how,":8620,"lamm":8621,"▁(\"Content":8622,"▁majeure":8623,"▁subcontractors":8624,"▁CONSULT":8625,"▁frequ":8626,"▁Also,":8627,"7)":8628,"new":8629,"▁“you":8630,"▁safe":8631,"▁implemented":8632,"VIR":8633,"▁Before":8634,"▁commun":8635,"▁promote,":8636,"▁print,":8637,"AME":8638,"▁benefits":8639,"▁\"Service":8640,"▁unfavor":8641,"ly-known":8642,"▁COP":8643,"ipal":8644,"▁retrans":8645,"▁photos":8646,"▁arbitrator,":8647,"▁LICENSE":8648,"▁CAREFULLY":8649,"▁DONE":8650,"▁\"Terms":8651,"▁incite":8652,"▁SHARE":8653,"▁organizations:":8654,"▁username,":8655,"▁plans":8656,"▁bringing":8657,"Linked":8658,"▁ADDITIONAL":8659,"fect":8660,"▁(S":8661,"▁are,":8662,"▁unpaid":8663,"▁3rd":8664,"▁asks":8665,"▁PROGRAMS,":8666,"▁adequate":8667,"▁forb":8668,"▁refund,":8669,"▁detail,":8670,"▁defamation,":8671,"▁executed":8672,"▁wireless":8673,"RUP":8674,"▁unknown":8675,"▁Vox":8676,"▁obligated,":8677,"▁addressed":8678,"▁OBTAIN":8679,"ometimes":8680,"▁tour":8681,"reland":8682,"▁fax":8683,"▁LIABIL":8684,"▁publication,":8685,"▁serve":8686,"▁NBCU":8687,"▁ACCORDINGLY,":8688,"To":8689,"host":8690,"▁win":8691,"like":8692,"▁Ang":8693,"▁certify":8694,"▁notification,":8695,"tv":8696,"▁ANYTHING":8697,"▁HARD":8698,"▁discredit":8699,"▁conduct,":8700,"▁asserted":8701,"▁principles.":8702,"▁Centre":8703,"▁FUNCTION":8704,"▁dollar":8705,"▁Earth":8706,"pages":8707,"▁reve":8708,"assign":8709,"▁refrain":8710,"▁COMPLETE,":8711,"▁Guid":8712,"▁DEALING":8713,"▁algorith":8714,"ryption":8715,"▁conduct.":8716,"ology":8717,".co.uk":8718,"▁discussion":8719,"▁distributors;":8720,"▁CODE":8721,"▁courier":8722,"▁aud":8723,"▁\"mirror":8724,"▁Vent":8725,"▁DISPLAY":8726,"▁inflamm":8727,"▁twelve":8728,"a’s":8729,"▁aim":8730,"▁have,":8731,"▁BEFORE":8732,"▁space":8733,"▁thereof),":8734,"▁publicity)":8735,"▁reimbursement":8736,"ARKET":8737,"▁DELIVER":8738,"▁bod":8739,"▁willful":8740,"▁published,":8741,"▁retained":8742,"▁ACTS":8743,"▁Center":8744,"▁Cancellation":8745,"iance":8746,"▁Mot":8747,"▁(“User":8748,"▁titles":8749,"▁embedded":8750,"point":8751,"s/":8752,"▁Ads":8753,"▁Blackboard’s":8754,"▁featured":8755,"▁Auto":8756,"add":8757,"▁penalties":8758,"▁TERMINATION":8759,"▁anti-":8760,"▁interfaces,":8761,"▁vehic":8762,"▁Singap":8763,"All":8764,"▁is’":8765,"▁product.":8766,"▁ON,":8767,"▁Request":8768,"▁opportunities":8769,"poen":8770,"▁unfavorably":8771,"▁accrued":8772,"▁disast":8773,"▁Content”":8774,"▁Vend":8775,"▁named":8776,"▁validity,":8777,"▁KNOWN":8778,"▁income":8779,"▁information)":8780,"▁share,":8781,"▁investigation,":8782,"▁UPD":8783,"▁Redistribute":8784,"▁Francis":8785,"▁However":8786,"▁non-sublic":8787,"▁vulnerability":8788,"▁Met":8789,"▁website:":8790,"▁PROPRI":8791,"▁monetary":8792,"▁existence":8793,"▁attributable":8794,"▁legitimate":8795,"▁non-proprietary":8796,"▁Management":8797,"21":8798,"▁unfore":8799,"▁public,":8800,"▁DAMAGES),":8801,"▁purposes;":8802,"▁receives":8803,"▁CLAIM,":8804,"▁attack,":8805,"▁ALLEGED":8806,"▁CBS":8807,"▁FIL":8808,"▁stay":8809,"pliance":8810,"▁causes,":8811,"▁Disc":8812,"▁OTHERWISE)":8813,"▁sublicensable":8814,"▁colors":8815,"mislead":8816,"atal":8817,"▁exploit,":8818,"▁administrator":8819,"▁Revised":8820,"▁Article":8821,"▁anonym":8822,"sell":8823,"▁THEY":8824,"ATIONS.":8825,"▁non-public":8826,"▁parties’":8827,"▁Child":8828,"▁exploitation":8829,".blogspot.com":8830,"▁Phot":8831,"▁TECHNICAL":8832,"▁Lond":8833,"▁infringer":8834,"▁referral":8835,"▁limitation)":8836,"▁PROVIDES":8837,"▁correctness,":8838,"▁Respon":8839,"performance":8840,"NC":8841,"▁EXPRESSED":8842,"▁defective":8843,"88":8844,"▁court.":8845,"▁guaranteed":8846,"▁defect,":8847,"▁Track":8848,"▁announce":8849,"▁Promote":8850,"▁pending":8851,"▁sol":8852,"▁gamb":8853,"ALTH":8854,"▁Invest":8855,"▁claims.":8856,"▁Real":8857,"▁NEW":8858,"▁file,":8859,"rug":8860,"▁change.":8861,"▁hosting,":8862,"rowd":8863,"▁time-to-time.":8864,"▁\"mirror\"":8865,"ialog":8866,"▁access.":8867,"▁operates":8868,"▁CORRECTNESS,":8869,"▁Reference":8870,"▁defence":8871,"▁processor":8872,"▁JUDGMENT":8873,"ares":8874,"▁target":8875,"▁Cash":8876,"▁Content”).":8877,"▁non-mislead":8878,"▁devices,":8879,"▁encryption":8880,"co.":8881,"▁section,":8882,"▁NEED":8883,"▁HYPERLINKED":8884,"Un":8885,"sim":8886,"▁Trial":8887,"▁exit":8888,"▁prohibiting":8889,"▁withdrawal":8890,"▁Est":8891,"▁commenced":8892,"pec":8893,"▁Mar":8894,"▁whichever":8895,"▁acts,":8896,"▁thereof;":8897,"▁features.":8898,"▁releases":8899,"▁Group,":8900,"▁CHAR":8901,"▁Trade":8902,"▁Angel":8903,"IET":8904,"Tech":8905,"held":8906,"itle":8907,"▁derived":8908,"▁unsubscribe":8909,"▁Order.":8910,"▁death,":8911,"▁Advertising":8912,"▁ENJOY":8913,"▁put":8914,"▁hat":8915,"▁THEFT":8916,"▁securities":8917,"▁Note":8918,"▁developed,":8919,"▁options":8920,"TML":8921,"▁merely":8922,"▁friend":8923,"▁(“P":8924,"▁ERRORS.":8925,"▁CAUTION":8926,"tech":8927,"es.com":8928,"▁SEE":8929,"▁Cap":8930,"▁West":8931,"▁premium":8932,"▁signific":8933,"▁facts":8934,"charge,":8935,"▁adopted":8936,"▁PROPRIETARY":8937,"▁contam":8938,"cluded":8939,"▁regulation.":8940,"▁address:":8941,"▁relationships,":8942,"▁facility":8943,"▁endeavours":8944,"▁decline":8945,"UC":8946,"y.com":8947,"’)":8948,"▁ti":8949,"olly":8950,"▁Back":8951,"▁Anal":8952,"▁www.m":8953,"esh":8954,"▁unac":8955,"▁personnel":8956,"▁occurred":8957,"▁intention":8958,"▁GOODS,":8959,"▁unintentionally":8960,"▁discredits":8961,"IENT":8962,"site":8963,"ition,":8964,"▁holid":8965,"▁exact":8966,"▁“Your":8967,"▁rating":8968,"ifications":8969,"▁public.":8970,"▁owner’s":8971,"▁PARTIES.":8972,"▁non-refundable":8973,"eu":8974,"▁DATE":8975,"ource":8976,"ifying":8977,"ANGE":8978,"▁logg":8979,"▁25":8980,"▁hyperlink.":8981,"▁redistribution,":8982,"▁installation":8983,"ength":8984,"▁Francisco":8985,"▁hatred":8986,"rint":8987,"▁templ":8988,"▁forge":8989,"▁secured":8990,"▁parental":8991,"▁providers.":8992,"▁users;":8993,"▁THROUGH,":8994,"▁details,":8995,"▁misappropriation":8996,"▁licensing":8997,"▁sends":8998,"▁Represent":8999,"▁circumstances.":9000,"▁commonly-known":9001,"▁HARDWARE":9002,"i.":9003,"▁though":9004,"at,":9005,"▁reform":9006,"roid":9007,"▁SIX":9008,"ayer":9009,"▁NECESS":9010,"▁organization.":9011,"▁charge.":9012,"▁90":9013,"▁ACTIONS":9014,"▁FAILURE,":9015,"▁riot,":9016,"uil":9017,"▁pow":9018,"▁dates":9019,"▁primary":9020,"▁reached":9021,"▁Financial":9022,"▁MOBILE":9023,"27":9024,"kit":9025,"aching":9026,"▁understands":9027,"▁inside":9028,"OLVED":9029,"▁answ":9030,"▁MESS":9031,"▁(“A":9032,"▁complied":9033,"▁Unauthorized":9034,"iries":9035,"▁Ed":9036,"▁break":9037,"COMM":9038,"▁keystro":9039,"oof":9040,"post":9041,"®,":9042,"▁Lib":9043,"▁Customer's":9044,"▁solicitations":9045,"▁wrongful":9046,"▁adversely":9047,"▁machine":9048,"▁MONITORING":9049,"domain":9050,"▁TW":9051,"aware":9052,"▁thereof).":9053,"▁Adv":9054,"▁$10":9055,"▁SmartB":9056,"▁ADVERTISING,":9057,"▁clauses":9058,"HIP":9059,"▁c)":9060,"▁Download":9061,"▁\"I":9062,"▁relieve":9063,"▁cards":9064,"▁necessary.":9065,"▁altered":9066,"▁threaten,":9067,"▁extra":9068,"▁submissions.":9069,"▁usefulness,":9070,"▁non-refundable.":9071,"▁purported":9072,"HOLD":9073,"LOW":9074,"master":9075,"yle":9076,"▁flow":9077,"▁length":9078,"▁produce":9079,"▁(AND":9080,"▁BANNER":9081,"▁material)":9082,"ubmissions":9083,"▁specifications":9084,"▁SITES.":9085,"▁512(c":9086,"-R":9087,"AV":9088,"▁cure":9089,"▁Saf":9090,"▁WOULD":9091,"▁BIN":9092,"▁delays,":9093,"▁hateful":9094,"ENDED":9095,"▁Upload,":9096,"▁terrorist":9097,"▁layout,":9098,"▁keystroke":9099,"GES":9100,"▁SENT":9101,"▁stipul":9102,"▁HER":9103,"▁photographs":9104,"▁icons":9105,"▁ENVIR":9106,"▁ENVIRON":9107,"otter":9108,"▁convey":9109,"▁rightful":9110,"▁COMPL":9111,"▁restricted.":9112,"▁lists":9113,"▁ENTITY":9114,"▁prohibited,":9115,"▁America.":9116,"▁“Terms”),":9117,"▁HOWEVER":9118,"▁responses":9119,"▁priority":9120,"▁lawsuit":9121,"▁libell":9122,".L":9123,"▁Civil":9124,"▁seven":9125,"look":9126,"▁quick":9127,"▁theme":9128,"ello":9129,"▁platforms":9130,"▁EXPENS":9131,"▁depicts":9132,"▁gathered":9133,"uru":9134,"ution,":9135,"andid":9136,"▁Kong":9137,"▁cancellation,":9138,"▁is\".":9139,"▁THEREOF.":9140,"▁republication":9141,"30":9142,"▁HTML":9143,"▁support,":9144,"▁Province":9145,"▁RELIEF":9146,"▁CREDIT":9147,"▁character":9148,"IFF":9149,"▁FUND":9150,"▁Fashion":9151,"▁encl":9152,"▁violence,":9153,"▁price.":9154,"▁intentions":9155,"▁MEMBERS":9156,"▁Month":9157,"Card":9158,"aging,":9159,"▁Easy":9160,"ibab":9161,"▁accesses":9162,"▁operations":9163,"▁circumstance":9164,"▁(even":9165,"▁diffic":9166,"▁SAF":9167,"▁conventions.":9168,"▁dissatisfied":9169,"tml":9170,".”":9171,"store":9172,"▁district":9173,"▁contracts,":9174,"▁below).":9175,"▁opt-out":9176,"▁arrangement,":9177,"▁Disclaimer":9178,"crib":9179,"day":9180,"uch":9181,"▁miss":9182,"▁WOR":9183,"▁(re":9184,"▁Due":9185,"▁DEC":9186,"▁EP":9187,"▁locations.":9188,"▁effects":9189,"▁marked":9190,"▁credited":9191,"▁uninterrupted.":9192,"niversal":9193,"▁cycle":9194,"▁Application,":9195,"▁finally":9196,"▁Crypt":9197,"▁BRO":9198,"▁forums":9199,"grade":9200,"▁estoppel,":9201,"▁Texas":9202,"BD":9203,"river":9204,"▁Will":9205,"eback":9206,"▁Us,":9207,"▁co-":9208,"▁Clients":9209,"atives":9210,"▁agency,":9211,"'),":9212,"▁tribun":9213,"▁(COLLECTIVE":9214,"▁explos":9215,"▁negatively":9216,"3,":9217,"▁fee.":9218,"▁\"we":9219,"▁allowing":9220,"▁directly.":9221,"▁cancellation.":9222,"▁Ltd,":9223,"▁documentation,":9224,"▁redistribute,":9225,"▁calling":9226,"80":9227,"Tra":9228,"cy":9229,"ued":9230,"▁bi":9231,"▁ourselves":9232,"ety,":9233,"▁Hay":9234,"ULTS":9235,"▁ways":9236,"contractual":9237,"▁aforementioned":9238,"▁adher":9239,"▁tell":9240,"▁recon":9241,"▁choos":9242,"▁parents":9243,"▁carried":9244,"▁forbidden":9245,"-M":9246,"ELL":9247,"▁corrected;":9248,"▁Guidelin":9249,"▁Action":9250,"▁App,":9251,"▁prohibits":9252,"▁VIOLATION":9253,"MI":9254,"▁HIS":9255,"▁Head":9256,"▁FOLLOWING":9257,"ilitary":9258,"DPR":9259,"▁THEM":9260,"▁Mo":9261,"▁Earn":9262,"▁Parts":9263,"▁Courts":9264,"Claim":9265,"-time":9266,"pyramid":9267,"▁breaching":9268,"▁HARMLESS":9269,"▁Foundation":9270,"xy":9271,"edom":9272,"leb":9273,"riv":9274,"▁La":9275,"▁Materials.":9276,"▁join":9277,"▁HEREUNDER":9278,"201":9279,"▁sought":9280,"anct":9281,"anced":9282,"▁subpoen":9283,"▁grant,":9284,"▁transferring":9285,"▁hereinafter":9286,"▁program,":9287,"▁functionality,":9288,"▁substantive":9289,"▁analy":9290,"▁advisers)":9291,"Lab":9292,"gy":9293,"▁nud":9294,"▁reco":9295,"▁disclosure,":9296,"▁developed.":9297,"▁satisfied":9298,"ACE":9299,"DF":9300,"eness,":9301,"ranch":9302,"▁all;":9303,"venient":9304,"▁“Pro":9305,"▁FAULTS":9306,"▁Road,":9307,"rateg":9308,"reens":9309,"▁bot":9310,"▁SAL":9311,"▁Sex":9312,"▁all,":9313,"▁listing":9314,"▁FURTHER,":9315,"-D":9316,"Vis":9317,"orth":9318,"etter":9319,"▁it;":9320,"▁EXCH":9321,"▁licensees":9322,"▁designees":9323,"▁membership,":9324,"▁Coin":9325,"▁etc.)":9326,"▁guarantees,":9327,"▁preserve":9328,"ups":9329,"▁Rog":9330,"▁modifying":9331,"▁free-of-":9332,"▁OFFENSIVE":9333,"Guide":9334,"▁BOUND":9335,"ATIVE":9336,"▁Mal":9337,"▁it)":9338,"▁Hu":9339,"ist,":9340,"ndic":9341,"▁instance":9342,"▁DATA;":9343,"▁measure":9344,"▁packaging":9345,"▁thereto.":9346,"▁MEDIUM":9347,"▁showing":9348,"▁Electronic":9349,"▁surveys,":9350,"▁five":9351,"▁dba":9352,"▁(\"P":9353,"▁reflected":9354,"ior":9355,"oin":9356,"▁PE":9357,"ERAL":9358,"▁art":9359,"▁BEH":9360,"▁mail.":9361,"▁authorization;":9362,"▁arbitrator’s":9363,"▁awards,":9364,"▁Profile":9365,"▁Expert":9366,"▁Cle":9367,"▁resale":9368,"▁Dav":9369,"▁Love":9370,"▁sequ":9371,"▁insist":9372,"▁clarity,":9373,"▁situation":9374,"▁happen":9375,"▁Detail":9376,"▁with:":9377,"▁Def":9378,"▁Video":9379,"▁infringed,":9380,"▁monies":9381,"▁consequence":9382,"▁systematic":9383,"▁AFFILIATED":9384,"▁invoiced":9385,"eth":9386,"ifest":9387,"▁MANNER":9388,"▁charge,":9389,"S.COM":9390,"▁savings":9391,"▁SEEK":9392,"NIA":9393,"▁FRA":9394,"ards":9395,"▁non-assign":9396,"▁inhibits":9397,"▁slogans":9398,"▁political":9399,"▁RESTR":9400,"▁holders":9401,"▁prices,":9402,"▁reports":9403,"▁constitutes,":9404,"▁Administration":9405,"▁probe,":9406,"Free":9407,"isc":9408,"▁WORK":9409,"ureau":9410,"▁readers":9411,"▁invoices":9412,"ovies":9413,"▁Canada,":9414,"▁continuously":9415,"▁\"M":9416,"▁WELL":9417,"▁CONTRARY":9418,"urrency":9419,"▁co-brand":9420,"▁NBCUniversal":9421,"3)":9422,"▁Fil":9423,"▁posts,":9424,"pected":9425,"▁FROM:":9426,"▁posting.":9427,"▁marketing,":9428,"▁databases,":9429,"▁retrieval":9430,"▁BARG":9431,"▁delegate":9432,"▁any)":9433,"▁SATISF":9434,"▁Deal":9435,"▁indicated,":9436,"▁unrestricted":9437,"C,":9438,"▁cent":9439,"▁(7)":9440,"▁\"our":9441,"▁hypertext":9442,"▁initiated":9443,"▁theft,":9444,"▁Related":9445,"▁riots,":9446,"Media":9447,"allen":9448,"ICK":9449,"▁copyright.":9450,"▁reasons.":9451,"▁CONTIN":9452,"▁specified,":9453,"▁www.b":9454,"▁Common":9455,"▁occurrence":9456,"▁SHAREHOLD":9457,"ician":9458,"▁WM":9459,"▁Brit":9460,"▁gam":9461,"▁warrant,":9462,"▁served":9463,"▁nature.":9464,"▁solicitation,":9465,"▁PROGRAM":9466,"▁ENVIRONMENT,":9467,".\"":9468,"▁big":9469,"▁dot.com":9470,"▁See":9471,"rawn":9472,"▁impression":9473,"▁Virgin":9474,"▁introduce":9475,"PAIR":9476,"▁COPY":9477,"-on":9478,"media":9479,"▁Soci":9480,"▁Contain":9481,"ake,":9482,"▁accounts.":9483,"▁third-party’s":9484,"▁acknowledgment":9485,"e.com":9486,"erse":9487,"thern":9488,"▁Bre":9489,"▁BRING":9490,"▁Main":9491,"▁Music":9492,"▁Confirm":9493,"▁“R":9494,"▁entertainment":9495,"▁Termin":9496,"▁activities.":9497,"▁QUIET":9498,"WEL":9499,"▁tracking":9500,"ger":9501,"▁will,":9502,"oss":9503,"▁disruptive":9504,"engine":9505,"▁1998":9506,"▁hearing":9507,"▁Study":9508,"▁Singapore":9509,"rat":9510,"▁lower":9511,"▁Dig":9512,"▁Local":9513,"▁Ma":9514,"istry":9515,"▁PROMIS":9516,"▁collected,":9517,"▁DOCU":9518,"▁subscription.":9519,"▁potentially":9520,"▁SAV":9521,"▁artwork,":9522,"▁(i.e.,":9523,"Hub":9524,"TIC":9525,"▁mot":9526,"omin":9527,"▁content”":9528,"▁account)":9529,"▁earli":9530,"▁enclose":9531,"▁free-of-charge,":9532,"4,":9533,"n:":9534,"▁INFRINGEMENT":9535,"▁USED":9536,"▁world-w":9537,"▁torts":9538,"▁non-misleading.":9539,"▁sanct":9540,"▁Ireland":9541,"▁dead":9542,"▁Inform":9543,"▁construct":9544,"▁CONTENT;":9545,"▁Check":9546,"▁better":9547,"bar":9548,"▁INFRING":9549,"▁damaging":9550,"ified.":9551,"▁lists,":9552,"▁statement,":9553,"▁Network,":9554,"▁enables":9555,"IFICATION":9556,"▁CALI":9557,"▁BARGAIN":9558,"▁fall":9559,"robot":9560,"▁contents.":9561,"geD":9562,"ipp":9563,"▁“c":9564,"▁goods.":9565,"▁permitted.":9566,"▁postings,":9567,"▁subsequently":9568,"▁spiders,":9569,"▁“Agreement":9570,".blogspot.co.id/":9571,"job":9572,"▁Service”,":9573,"▁plus":9574,"”);":9575,"▁rand":9576,"▁element":9577,"e,”":9578,"▁granting,":9579,"▁collects":9580,"▁Ext":9581,"▁associate":9582,"▁(viii)":9583,"▁Alibab":9584,"▁sponsor":9585,"▁India,":9586,"▁POLICY":9587,"II":9588,"▁she":9589,"▁CONTENTS":9590,"▁Creative":9591,"▁bugs,":9592,"urisdic":9593,"▁Us.":9594,"▁Just":9595,"▁card.":9596,"▁unenforceability":9597,"▁PURPOS":9598,"▁blogs,":9599,"▁labels":9600,"▁estoppel":9601,"▁anywhere":9602,"▁four":9603,"adr":9604,"▁Prohibited":9605,"▁visible":9606,"▁DEATH":9607,"▁dispute.":9608,"▁development":9609,"aith":9610,"lu":9611,"na":9612,"▁Save":9613,"ATES":9614,"▁non-contractual":9615,"▁privately":9616,"▁misrepresentation,":9617,"▁recommendations":9618,"▁TA":9619,"▁Pan":9620,"▁Fund":9621,"▁parties)":9622,"FORNIA":9623,"▁submits":9624,"MENTAL":9625,"iaries":9626,"▁competition":9627,"▁blog,":9628,"▁territories":9629,"▁CALIFORNIA":9630,"break":9631,"▁enterpr":9632,"▁APPLICATION":9633,"▁Engage":9634,"▁Institute":9635,"MOTION":9636,"▁Ill":9637,"amily":9638,"▁account(s)":9639,"▁EXIST":9640,"▁MAINT":9641,"▁scan":9642,"▁RIGHTS.":9643,"▁Attn:":9644,"▁closely":9645,"▁Administr":9646,"▁SmartBear":9647,"▁BINDING":9648,"▁random":9649,"met":9650,"▁designations":9651,"▁servers.":9652,"▁treaties":9653,".ca":9654,"▁Jurisdic":9655,"▁Goog":9656,"▁misrepresentations":9657,"▁frame,":9658,"▁implementing":9659,"▁calculated":9660,"▁remedies,":9661,"▁THEN":9662,"▁MM":9663,"sibility":9664,"▁disturb":9665,"▁External":9666,"UNCTION":9667,"▁impairment":9668,"▁Gaming":9669,"▁estimated":9670,"▁(p":9671,"▁Commission":9672,"▁guest":9673,"▁Party,":9674,"▁terminated,":9675,"▁factors":9676,"▁session":9677,"▁Shipping":9678,"rep":9679,"▁pir":9680,"▁games":9681,"▁ELECT":9682,"-day":9683,"\".":9684,"SM":9685,"al.":9686,"▁did":9687,"▁available'":9688,"▁e-commerce":9689,"▁freely":9690,"▁3,":9691,"▁Contin":9692,"▁California.":9693,"▁screen,":9694,"▁Specially":9695,"▁infrastructure;":9696,"▁ach":9697,"▁inher":9698,"▁Daily":9699,"▁refus":9700,"▁second":9701,"▁ERROR,":9702,"▁indicating":9703,"▁Policies":9704,"▁selecting":9705,"ncil":9706,"▁duty,":9707,"▁facilitating":9708,"▁reveal":9709,"ole":9710,"▁Pack":9711,"▁gateway":9712,"▁NY":9713,"ocol":9714,"▁indicates":9715,"▁Taxes":9716,"▁enhancement":9717,"DR":9718,"▁coll":9719,"▁subjected":9720,"▁full.":9721,"▁networks,":9722,"▁COMPLETE":9723,"▁calls":9724,"Registration":9725,"▁US,":9726,"▁Div":9727,"▁requests,":9728,"▁(“Third":9729,"▁concerned":9730,"RUPTION":9731,"simile":9732,"▁NECESSARY":9733,"▁(“M":9734,"▁threatening":9735,"▁insur":9736,"▁database,":9737,"▁Visitors":9738,"▁PUBLISH":9739,"▁SUITABILITY,":9740,"TE":9741,"onth":9742,"▁Title":9743,"▁Dr":9744,"▁disob":9745,"▁downloadable":9746,"▁equity,":9747,"▁checkout":9748,"▁GOVER":9749,"▁FEAT":9750,"▁MEDICAL":9751,"appy":9752,"hidden":9753,"anta":9754,"▁non-h":9755,"▁Zeal":9756,"▁storing":9757,"▁Program,":9758,"▁compilations,":9759,"▁introducing":9760,"▁LOCAL":9761,"▁TAKEN":9762,"atalog":9763,"RON":9764,"Video":9765,"▁Crowd":9766,"▁dece":9767,"anda":9768,"▁certific":9769,"▁REQUIREMENTS;":9770,"▁malfunction":9771,"▁mandatory":9772,"nov":9773,"it,":9774,"ITABLE":9775,"ulty":9776,"▁intact":9777,"▁security-related":9778,"▁authorization,":9779,"▁disclose,":9780,"▁substantial":9781,"▁Zealand":9782,"CER":9783,"▁(at":9784,"▁Bab":9785,"ubscription":9786,"▁commission":9787,"▁Supplement":9788,"▁manufacturer":9789,"▁recipients":9790,".7":9791,"▁dialog":9792,"advert":9793,"▁Site's":9794,"▁REPAIR":9795,"▁desk":9796,"▁root":9797,"▁customers.":9798,"▁HEALTH":9799,"Book":9800,"emand":9801,"▁(G":9802,"fort":9803,"ASH":9804,"▁also,":9805,"▁regulations;":9806,"▁falsehood":9807,"▁IMPRO":9808,"ancy":9809,"MOV":9810,"la":9811,"in,":9812,"▁this.":9813,"▁und":9814,"agn":9815,"quid":9816,"▁responsibilities":9817,"▁creates":9818,"▁negligence;":9819,"▁terminated.":9820,"▁sub-licensable":9821,"▁Interfere":9822,"▁Google,":9823,"-7":9824,"▁sometimes":9825,"▁(R":9826,"ING.":9827,"▁business.":9828,"▁necessary,":9829,"over,":9830,"▁INTERACT":9831,"▁Columbia":9832,"▁usually":9833,"▁Nether":9834,"▁Effective":9835,"▁degrad":9836,"▁warning":9837,"▁Star":9838,"▁orders,":9839,"▁determining":9840,"▁selling":9841,"▁month,":9842,"struction":9843,"▁Employ":9844,"▁syndic":9845,"▁(each,":9846,"▁WordPress":9847,"pecially":9848,"-us":9849,"..":9850,"40":9851,"xi":9852,"s.org":9853,"▁Germ":9854,"▁RESOUR":9855,"going":9856,"▁ADVICE,":9857,"▁redistributed":9858,"▁subscribers":9859,"▁Recipient":9860,"▁opportunity,":9861,"▁ACTUALLY":9862,"▁Netherland":9863,"name":9864,"▁terms;":9865,"▁REVI":9866,"PLO":9867,"▁VAL":9868,"▁displaying,":9869,"▁Platforms":9870,"▁(through":9871,"▁behavior":9872,"▁pornography,":9873,"▁unknown,":9874,"▁difficult":9875,"65":9876,"rent":9877,"itiz":9878,"▁cle":9879,"▁TV":9880,"ITCH":9881,"etition":9882,"▁EAR":9883,"▁percent":9884,"▁acknowledgement":9885,"▁third-party's":9886,"▁codes,":9887,"▁RISK,":9888,"▁SUBSCRIPTION":9889,"▁Corp":9890,"▁LIKE,":9891,"▁waives":9892,"-up,":9893,"▁compatibility":9894,"▁Labs":9895,"ohn":9896,"d,":9897,"▁Don":9898,"actual":9899,"▁\"D":9900,"▁infringers":9901,"▁safety,":9902,"▁Badge":9903,"▁convers":9904,"▁used.":9905,"▁arbitrated":9906,"▁DISCLAIMERS,":9907,"▁statutory,":9908,"▁player":9909,"/m":9910,"18":9911,"CS":9912,"fax":9913,"▁usage,":9914,"oday":9915,"▁damages;":9916,"▁involves":9917,"▁Delaware":9918,"payment":9919,"auty":9920,"▁Biz":9921,"▁Mass":9922,"ountain":9923,"▁appeal":9924,"▁effect,":9925,"applic":9926,"▁INTENDED":9927,"▁destroy,":9928,"▁Regulation":9929,"▁plugins":9930,"▁specifications,":9931,"▁stores":9932,"▁Jud":9933,"▁delay,":9934,"▁barred.":9935,"▁Develop":9936,"ios":9937,"itial":9938,"edown":9939,"▁noted,":9940,"▁acted":9941,"▁offense":9942,"▁contacted":9943,"▁verified":9944,"▁dilig":9945,"ileg":9946,"ERIC":9947,"ifically,":9948,"▁WHILE":9949,"▁performance.":9950,"▁explains":9951,"wide":9952,"reme":9953,"▁must,":9954,"▁communication,":9955,"▁checks":9956,"▁CONTRACTORS,":9957,"▁(htt":9958,"▁EQUITABLE":9959,"▁imitated":9960,"▁CORRECTED;":9961,"▁disobey":9962,"Site":9963,"eap":9964,"▁£":9965,"▁residing":9966,"▁Hold":9967,"▁“E":9968,"▁if:":9969,"▁model":9970,"▁damages),":9971,"▁(“Content":9972,"▁ENTER":9973,"▁THEREOF,":9974,"▁SHAREHOLDERS,":9975,"zy":9976,"inst":9977,"▁(F":9978,"irt":9979,"▁area,":9980,"urrect":9981,"▁defects,":9982,"▁collectively,":9983,"▁scraper":9984,"▁PLATFORM,":9985,"▁Booking":9986,"▁“Content”":9987,"erce,":9988,"▁men":9989,"▁mind":9990,"▁Copy":9991,"▁Rent":9992,"oga":9993,"▁TIMES":9994,"▁Agency":9995,"shop":9996,"▁\"Site":9997,"ispute":9998,"▁Jurisdiction":9999,"▁Time":10000,"umul":10001,"▁write":10002,"▁behalf,":10003,"cons":10004,"▁convenience.":10005,"▁intentional":10006,"▁DELETION,":10007,"ics,":10008,"iction":10009,"▁Bar":10010,"▁Mind":10011,"▁account;":10012,"▁harmful.":10013,"▁Supply":10014,"▁treatment":10015,"missible":10016,"▁Content”)":10017,"loper":10018,"▁processes,":10019,"▁screens":10020,"▁MERCHAND":10021,"▁COMPANIES":10022,"▁insurrect":10023,"▁places":10024,"▁Assign":10025,"▁browsers":10026,"▁instituted":10027,"World":10028,"fers":10029,"▁TWEL":10030,"▁EM":10031,"ardless":10032,"▁emerg":10033,"▁users’":10034,"▁transactions,":10035,"▁INDIRECTLY":10036,"Shop":10037,"US,":10038,"oon":10039,"▁ease":10040,"▁on-line":10041,"▁Both":10042,"▁Board":10043,"TANCE":10044,"▁attack.":10045,"▁CAPAC":10046,"▁TWELVE":10047,".g":10048,"▁box":10049,"▁vouch":10050,"▁detri":10051,"▁insol":10052,"▁records,":10053,"▁facsimile":10054,"▁MISUSE":10055,"▁unconditionally":10056,"▁queries":10057,"▁adhere":10058,"ILY":10059,"▁discard":10060,"▁location,":10061,"▁decided":10062,"▁CLAIM.":10063,"▁Record":10064,"▁SUBSIDIARIES":10065,"▁recognize":10066,"▁Nationals":10067,"▁Foreign":10068,"▁Fairfax":10069,"eem":10070,"▁Pract":10071,"priet":10072,"▁add,":10073,"▁derive":10074,"▁exercising":10075,"▁sweepstakes,":10076,"▁logger,":10077,"ing”":10078,"▁net":10079,"▁Fitness":10080,"▁Website’s":10081,"▁Gift":10082,"▁fee,":10083,"▁injuri":10084,"▁TIME.":10085,"▁expert":10086,"▁entities.":10087,"▁newsgroup":10088,"▁limit;":10089,"duction":10090,"▁Rad":10091,"▁Usage":10092,"▁observ":10093,"▁BEY":10094,"▁sees":10095,"▁statutes":10096,"▁judge":10097,"▁Device":10098,"▁rank":10099,"NG":10100,"PM":10101,"a)":10102,"▁(any":10103,"▁But":10104,"▁MIGHT":10105,"▁employment,":10106,"▁approv":10107,"engage":10108,"▁SETT":10109,"▁Channel":10110,"▁transportation":10111,"▁world-wide,":10112,"▁Task":10113,"▁Medical":10114,"imited":10115,"ICES":10116,"ifiable":10117,"▁confidentiality,":10118,"▁ACCESSIBLE":10119,"▁threats":10120,"▁participant":10121,"▁export,":10122,"▁opinions.":10123,"▁mistake":10124,"▁beneficiaries":10125,"▁contamin":10126,"vid":10127,"onic":10128,"reh":10129,"▁using,":10130,"ILAR":10131,"▁Rob":10132,"▁copyrighted,":10133,"▁Studio":10134,"▁arbitrators":10135,"▁describes":10136,".COM,":10137,"▁Consum":10138,"azine":10139,"▁Association,":10140,"▁guardian.":10141,"▁consolidated":10142,"ndemnified":10143,"▁Equip":10144,"▁SIMILAR":10145,"▁admissible":10146,"▁CONCER":10147,"▁commiss":10148,"▁non-d":10149,"▁formal":10150,"▁virtual":10151,"▁2,":10152,"▁tortious":10153,"▁notification.":10154,"▁declared":10155,"▁Illino":10156,".id":10157,"NA":10158,"▁Brow":10159,"▁alleging":10160,"▁allegation":10161,"▁issuing":10162,"▁submissions,":10163,"▁legend":10164,"▁Remove":10165,"▁Daybreak":10166,"Care":10167,"OO":10168,"▁solution":10169,"vell":10170,"THE":10171,"▁rests":10172,"▁Order,":10173,"▁interruption)":10174,"▁AMERIC":10175,"▁relief,":10176,"▁higher":10177,"▁especially":10178,".V":10179,"▁apps":10180,"▁CASE":10181,"▁America,":10182,"▁Transmit":10183,"▁Posting":10184,"▁Quest":10185,"▁objections":10186,"/debit":10187,"disclosure":10188,"▁withheld":10189,"emption":10190,"▁WE,":10191,"▁infringement.":10192,"▁fines,":10193,"▁governmental,":10194,"▁6,":10195,"▁medium,":10196,"▁prosecut":10197,"-engine":10198,"mar":10199,"▁#":10200,"ering":10201,"▁Trovit":10202,"▁Sn":10203,"▁Cause":10204,"ERY":10205,"▁Fire":10206,"ubai":10207,"▁\"Website":10208,"▁unlawfully":10209,"▁messages.":10210,"▁IT,":10211,"▁Trend":10212,"▁easier":10213,"▁violent,":10214,"▁correction":10215,"▁excluded.":10216,"▁Block":10217,"▁browse":10218,"▁impersonates":10219,"▁webpage":10220,"▁Bitly":10221,"▁REVENUES,":10222,"▁categories":10223,"RY":10224,"▁military":10225,"▁Hand":10226,"ruit":10227,"▁defending":10228,"▁Deliver":10229,"▁getting":10230,"▁enforc":10231,"▁Loss":10232,"▁authorship":10233,"▁extension":10234,"▁earlier":10235,"▁inactiv":10236,"▁FIR":10237,"▁output":10238,"▁JO":10239,"▁incorporating":10240,"▁compensate":10241,"ACTORY":10242,"▁Planet":10243,"▁Specifically,":10244,"▁opportunities,":10245,"edicated":10246,"▁significant":10247,"-link":10248,"Sign":10249,"nxx":10250,"▁Make":10251,"osh":10252,"▁submitt":10253,"ilege":10254,"▁reviewing":10255,"▁processing,":10256,"▁interpretation,":10257,"▁invoice.":10258,"▁detriment":10259,"wealth":10260,"▁Dec":10261,"▁rather":10262,"▁causing":10263,"▁proceeding,":10264,"▁Treas":10265,"▁(nor":10266,"▁SUFFER":10267,"▁pers":10268,"▁you:":10269,"▁EFF":10270,"▁(“DMCA":10271,"▁5,":10272,"▁reverse-engine":10273,"▁appropriateness":10274,"▁co-oper":10275,"▁bigot":10276,"(b":10277,"500":10278,"▁ur":10279,"itz":10280,"esk":10281,"▁Send":10282,"ownt":10283,"▁changing":10284,"▁spider":10285,"▁Subscriptions":10286,"▁associates":10287,"▁listings":10288,"▁revoked":10289,"limin":10290,"ins":10291,"▁often":10292,"▁AUTHOR":10293,"▁(H":10294,"▁exhib":10295,"▁Bio":10296,"▁gift":10297,"ISION":10298,"venue":10299,"▁Act.":10300,"▁STATES,":10301,"▁OMISSION,":10302,"▁($100":10303,"▁neut":10304,"▁Text":10305,"ara":10306,"▁PO":10307,"ences,":10308,"▁irrepar":10309,"▁modifications.":10310,"▁banner":10311,"▁HugeD":10312,"▁HugeDomain":10313,".6":10314,"down":10315,"▁CD":10316,"▁Submitted":10317,"▁despite":10318,"▁responsibility.":10319,"▁received,":10320,"▁sponsors,":10321,"▁Cookie":10322,"▁Twit":10323,"▁starting":10324,"▁512(c)(":10325,"▁libellous,":10326,"ris":10327,"ison,":10328,"▁File":10329,"▁liquid":10330,"▁Hong":10331,"▁etc":10332,"▁components;":10333,"▁commencement":10334,"▁telephone,":10335,"rus":10336,"▁Campaign":10337,"▁Bang":10338,"▁East":10339,"▁stand":10340,"▁prelimin":10341,"▁technological":10342,"▁statutes,":10343,"▁several":10344,"ottery":10345,"▁cens":10346,"▁(actual":10347,"ront":10348,"▁28":10349,"▁matter,":10350,"▁items,":10351,"\");":10352,"▁(where":10353,"▁transmitting,":10354,"▁discontinuing":10355,"▁residents":10356,"▁navigational":10357,"▁prospective":10358,"SL":10359,"▁submission,":10360,"▁recorded":10361,"▁paragraphs":10362,"▁TAKE":10363,"▁OverBlog":10364,"key":10365,"list":10366,"ling,":10367,"▁city,":10368,"▁this,":10369,"▁Info":10370,"▁defense,":10371,"▁\"L":10372,"FORCE":10373,"▁themes":10374,"▁instead":10375,"▁Sites;":10376,"▁goods;":10377,"▁privileg":10378,"▁sources,":10379,"▁tortu":10380,"▁Space":10381,"▁framed":10382,"▁CORRECTION":10383,"▁Traffic":10384,"▁Visa":10385,"▁2018":10386,"▁recognized":10387,"▁charged.":10388,"ina":10389,"▁DR":10390,"INATION":10391,"rademark":10392,"▁spok":10393,"▁indicated.":10394,"▁REPRESENTATIVES,":10395,"▁re-exported":10396,"▁power,":10397,"▁rootkit":10398,"-T":10399,"▁SD":10400,"▁PASS":10401,"▁LAB":10402,"vailable":10403,"iph":10404,"▁Start":10405,"▁updates,":10406,"▁generate":10407,"▁PERMAN":10408,"ency,":10409,"▁recordings,":10410,"▁successor":10411,"▁Promotion":10412,"▁Special":10413,"▁MANAG":10414,"▁Number":10415,"sy":10416,"▁uneth":10417,"▁comes":10418,"▁NI":10419,"ENTLY":10420,"▁caused,":10421,"▁events,":10422,"▁virt":10423,"▁recent":10424,"▁owner's":10425,"▁Limited.":10426,"▁portray":10427,"▁packages":10428,"▁execute":10429,"▁dissemination":10430,"▁Arbitrator":10431,"▁BEYOND":10432,"ues":10433,"▁Sty":10434,"▁IR":10435,"▁contra":10436,"▁Hot":10437,"▁overload":10438,"▁selling,":10439,"▁telecommunication":10440,"▁conferring":10441,"▁Login":10442,"▁Renewal":10443,"▁PROBLEMS":10444,"▁achi":10445,"TIONS":10446,"wid":10447,"▁Hyper":10448,"▁\"junk":10449,"▁users'":10450,"▁AVAILABLE,":10451,"▁occur.":10452,"▁'comments":10453,"▁Trading":10454,"▁homep":10455,"▁Quick":10456,"▁countries,":10457,"▁bugs":10458,"▁+":10459,"▁We,":10460,"▁global":10461,"ensive":10462,"▁requiring":10463,"▁Licensor":10464,"▁Moreover,":10465,"▁'comments'),":10466,"ja":10467,"▁VIP":10468,"▁Submission.":10469,"▁awarded":10470,"▁vendor":10471,"▁Simply":10472,"▁(COLLECTIVELY,":10473,"▁EFFECT":10474,"O.":10475,"iant":10476,"pric":10477,"abor":10478,"ett":10479,"▁“in":10480,"▁Expl":10481,"▁Term.":10482,"▁MATERIAL.":10483,"▁www.s":10484,"▁OPERATE":10485,"▁Wikia":10486,"▁negotiations":10487,"▁Address":10488,"▁drawings,":10489,"▁scraping,":10490,"▁Rogers":10491,"66":10492,"ITED":10493,"irl":10494,"iaison,":10495,"▁obscure":10496,"▁placement":10497,"▁informal":10498,"▁Xnxx":10499,"▁fundam":10500,"▁penalties,":10501,"-prot":10502,"If":10503,"ycl":10504,"▁drug":10505,"room":10506,"imedia":10507,"▁disability,":10508,"ible,":10509,"▁brok":10510,"▁continues":10511,"▁companies.":10512,"▁future.":10513,"▁154":10514,"▁“Content”)":10515,"Communic":10516,"▁Transactions":10517,"▁criteria":10518,"uel":10519,"▁OCC":10520,"▁Gmb":10521,"iously":10522,"▁listings,":10523,"▁Notification":10524,"▁arrange":10525,"▁older.":10526,"▁Children":10527,"▁GmbH":10528,"PUT":10529,"Qu":10530,"▁Cred":10531,"▁THAT,":10532,"▁process;":10533,"▁periodic":10534,"▁treaties.":10535,"▁TOU,":10536,"▁deceptive,":10537,"▁Warranty":10538,"▁OVER":10539,"ferred":10540,"▁“Third":10541,"▁BELOW":10542,"▁PARTIES,":10543,"▁www.t":10544,"▁Chamb":10545,"▁(\"Terms":10546,"▁wishes":10547,"▁Goods,":10548,"▁PROGRAMS":10549,"▁channels":10550,"▁Commonwealth":10551,"▁PURPOSES":10552,"nect":10553,"▁x":10554,"▁far":10555,"▁Tor":10556,"ots":10557,"▁other,":10558,"▁apply,":10559,"vernight":10560,"▁failing":10561,"▁WEBSITE;":10562,"▁Information”":10563,"▁customer,":10564,"▁authorization.":10565,"land,":10566,"▁debt":10567,"▁IS,”":10568,"▁DEVICE":10569,"▁Writ":10570,"▁PROPERTIES":10571,"▁proposed":10572,"▁interfering":10573,"▁joined":10574,"▁pornography":10575,"▁matches":10576,"-B":10577,"WH":10578,"▁CANCE":10579,"▁Pol":10580,"▁PAR":10581,"ases.":10582,"▁disk":10583,"▁PROT":10584,"▁Activ":10585,"-free":10586,"▁month.":10587,"▁TOU.":10588,"▁Jobs":10589,".com/privacy-policy":10590,"▁Academy":10591,"▁turn":10592,"itra":10593,"▁relying":10594,"▁AF":10595,"ERCIAL":10596,"olen":10597,"▁Balance":10598,"▁customs":10599,"▁Research":10600,"▁13,":10601,"▁profile,":10602,"▁Wikid":10603,"ENCED":10604,"▁GOVERN":10605,"EQU":10606,"flo":10607,"za":10608,"▁sent,":10609,"▁Sum":10610,"▁wholly":10611,"▁ACCEP":10612,"▁USD":10613,"▁Notice,":10614,"▁123":10615,"▁handle":10616,"▁REFUND":10617,"▁categor":10618,"▁supervision":10619,"▁British":10620,".h":10621,"▁inclusive":10622,"▁convert":10623,"▁Fresh":10624,"▁non-performance":10625,"▁credit/debit":10626,"▁member,":10627,"▁Teach":10628,"▁feature,":10629,"▁buying":10630,"▁\"Services":10631,"▁WAIV":10632,"▁holder.":10633,"▁Industry":10634,"▁Francisco,":10635,"ball":10636,"▁aug":10637,"▁S.":10638,"▁“w":10639,"▁instances,":10640,"▁libel,":10641,"▁extracts":10642,"▁Guarant":10643,"▁Central":10644,"▁embargoed":10645,"▁neutral":10646,".xxx":10647,"13":10648,"rist":10649,"▁acknowledge,":10650,"▁publisher":10651,"▁into,":10652,"aving":10653,"▁asking":10654,"▁unrelated":10655,"▁Seller’s":10656,"▁accommod":10657,"▁eliminated":10658,"▁MESSAGES":10659,"MOTIONAL":10660,"dy":10661,"▁catalog":10662,"▁Sm":10663,"▁ep":10664,"ceiv":10665,"▁BLO":10666,"▁Mult":10667,"ALF":10668,"ersonal":10669,"rics":10670,"▁public;":10671,"▁misuse,":10672,"▁checking":10673,"▁webpage,":10674,"▁fulfil":10675,"▁EULA,":10676,"▁DISTRIBUTED":10677,"▁preliminary":10678,"▁d)":10679,"ivotal":10680,"▁term.":10681,"izes":10682,"▁location;":10683,"▁themselves":10684,"▁network.":10685,"IPATED":10686,"▁issues,":10687,"▁occurring":10688,"▁13.":10689,"▁thirteen":10690,"▁inappropriate;":10691,"▁handled":10692,"▁beginning":10693,"▁embarrass,":10694,"advertising":10695,"▁fundamental":10696,"ms,":10697,"▁BROUGH":10698,"▁posted.":10699,"▁accountable":10700,"▁costs.":10701,"▁viewing,":10702,"▁cancelbot":10703,"▁unsatisf":10704,"▁Provider.":10705,"▁corporation,":10706,"▁Areas":10707,"▁Connect":10708,"▁inflammatory,":10709,"▁BROUGHT":10710,"Box":10711,"▁ES":10712,"▁Test":10713,"▁near":10714,"▁Liaison,":10715,"acing":10716,"▁production":10717,"▁fit,":10718,"▁behalf;":10719,"▁Imm":10720,"▁TERMS.":10721,".1,":10722,"▁CONSUM":10723,"▁Department's":10724,"▁counter-notice":10725,"▁$10,000":10726,"/own":10727,"▁Point":10728,"▁(M":10729,"▁Data”":10730,"▁arbitrator.":10731,"▁seeks":10732,"▁Parties”)":10733,"▁PREVI":10734,"▁ADDITION,":10735,"▁happy":10736,"▁therefrom.":10737,"▁ENJOYMENT,":10738,"▁tribunal":10739,"mob":10740,"▁sums":10741,"▁FAC":10742,"▁May":10743,"ize,":10744,"▁passive":10745,"▁purchaser":10746,"▁originating":10747,"▁authorizes":10748,"▁practices.":10749,"▁non-commercial,":10750,"▁Canada.":10751,"Cloud":10752,"▁vehicle":10753,"-RE":10754,"9.":10755,"Our":10756,"aur":10757,"▁won":10758,"▁Tube":10759,"▁viruses.":10760,"▁TRAD":10761,"ADA,":10762,"▁harassing":10763,"▁portal":10764,"▁utility":10765,"▁chargeback":10766,"▁PUBLIC":10767,"▁earthquake,":10768,"▁scheduled":10769,"▁virtue":10770,"▁;":10771,"onus":10772,"▁Mond":10773,"▁challen":10774,"▁interv":10775,"▁prepar":10776,"▁John":10777,"▁Exam":10778,"▁visits":10779,"▁Persons":10780,"armful":10781,"▁bankrupt":10782,"▁attributions,":10783,"▁corporation":10784,"▁\"Content\"),":10785,"▁OBLIGATIONS":10786,"far":10787,"law":10788,"iner":10789,"▁Tap":10790,"▁Pix":10791,"▁ANTIC":10792,"istics":10793,"▁violate,":10794,"ia.com":10795,"▁backups":10796,"▁ERROR-FREE;":10797,"▁Ownership":10798,"▁label":10799,"▁MEMBERS,":10800,"▁undertaken":10801,"▁comprising":10802,"Google":10803,"**":10804,"/b":10805,"n’t":10806,"ers’":10807,"▁Lead":10808,"▁MARKET":10809,"INED":10810,"▁“Us":10811,"▁spoof":10812,"IDENTIAL":10813,"▁Stream":10814,"▁visitors,":10815,"▁method,":10816,"▁CORRUPTION":10817,"▁usernames":10818,"▁absolutely":10819,"▁intends":10820,"▁CONCERNING":10821,"▁coordin":10822,"rames":10823,"ights":10824,"▁Products;":10825,"▁support.":10826,"▁initiating":10827,"▁Guide":10828,"▁Automat":10829,"▁self":10830,"▁lose":10831,"▁EXEC":10832,"▁\"chain":10833,"ities;":10834,"▁responsibility,":10835,"▁Asse":10836,"▁free.":10837,"▁REGUL":10838,"▁Rules,":10839,"▁Securities":10840,"▁up-to-date.":10841,"▁Dollars":10842,"▁PREVIOUS":10843,"')":10844,"▁'s":10845,"ere,":10846,"▁anxi":10847,"▁cess":10848,"order":10849,"ar,":10850,"search":10851,"▁yours":10852,"▁above;":10853,"▁controlled,":10854,"▁advertisements.":10855,"▁launch":10856,"▁BEHALF":10857,"▁ANTICIPATED":10858,"er”":10859,"▁foot":10860,"▁Tour":10861,"▁Pat":10862,"▁we’":10863,"▁MATERIAL,":10864,"▁misleads":10865,"▁mental":10866,"▁maintenance,":10867,"▁analysis":10868,"▁ACTIVITIES":10869,"cle":10870,"▁tangible":10871,"▁use;":10872,"▁NZ":10873,"▁emailed,":10874,"▁parties'":10875,"astic":10876,"▁holds":10877,"▁authorities,":10878,"▁installed":10879,"▁department":10880,"▁Offerings":10881,"▁annoyance,":10882,"-5":10883,"eel":10884,"▁Trip":10885,"▁\"E":10886,"▁guide":10887,"▁required.":10888,"▁discloses":10889,"▁(10)":10890,"▁sex,":10891,"▁depart":10892,"VPN":10893,"▁MY":10894,"ATION.":10895,"▁INFORMED":10896,"▁WARRANTIES.":10897,"iverse":10898,"▁customer.":10899,"▁TELE":10900,"▁INVOLVED":10901,"▁Authority":10902,"▁REVIEW":10903,"ham":10904,"▁Nut":10905,"ICIT":10906,"arehouse":10907,"▁postage":10908,"▁application.":10909,"▁Vol":10910,"▁solicits":10911,"▁contributions":10912,"▁facilities,":10913,"▁experi":10914,"▁affiliate/":10915,"support":10916,"▁Continued":10917,"aa":10918,"x)":10919,"▁communication.":10920,"▁Report":10921,"▁training":10922,"▁ASSIGN":10923,"▁sublicens":10924,"urchase":10925,"▁i.e.":10926,"▁execution":10927,"▁DESTRUCTION":10928,"▁discovery":10929,"▁SAVINGS,":10930,"▁desktop":10931,"WARD":10932,"o’s":10933,"solicited":10934,"van":10935,"▁People":10936,"▁otherwise;":10937,"▁\"T":10938,"▁refundable":10939,".00)":10940,"▁rule,":10941,"▁GRAPHICS,":10942,"▁irreparable":10943,"0.":10944,"List":10945,"SIM":10946,"▁pop":10947,"▁graph":10948,"amer":10949,"▁welcome":10950,"▁\"c":10951,"▁revis":10952,"▁1-8":10953,"ia.":10954,"▁SOL":10955,"▁transaction,":10956,"▁interest;":10957,"▁practic":10958,"▁qualified":10959,"▁NEV":10960,"▁managed":10961,"▁Delh":10962,"▁principal":10963,"eatures":10964,"▁TRANSMISSION,":10965,"▁don't":10966,"▁affirm,":10967,"▁unethical":10968,"BT":10969,"ius":10970,"▁SW":10971,"▁do,":10972,"▁chequ":10973,"ing,”":10974,"esell":10975,"▁offensive.":10976,"▁accompan":10977,"▁foreseeable,":10978,"utorial":10979,"points":10980,"▁deadline":10981,"3.":10982,"Sided":10983,"ler":10984,"eration":10985,"▁Full":10986,"▁responsible,":10987,"▁chang":10988,"▁particularly":10989,"▁“we”":10990,"▁adequacy,":10991,"____":10992,"▁FanSided":10993,"▁NEVADA,":10994,"/C":10995,"68":10996,"Or":10997,"WW":10998,"de":10999,"ij":11000,"esperson":11001,"▁AA":11002,"ids":11003,"olf":11004,"irth":11005,"▁FL":11006,"▁NOTHING":11007,"▁“G":11008,"▁Jot":11009,"▁(ix)":11010,"▁CLIENT":11011,"▁messages;":11012,"▁Image":11013,"▁harvesting,":11014,"▁Organiz":11015,"▁EQUIPMENT,":11016,"▁MALF":11017,"cribed":11018,"▁Tel":11019,"cean":11020,"INS":11021,"▁“junk":11022,"▁warranty.":11023,"▁printing":11024,"▁Application.":11025,"▁COMMERCIAL":11026,"▁SELL":11027,"▁Print":11028,"ournal":11029,"▁shareholders/own":11030,"▁reconstruction":11031,"Tool":11032,"▁Page":11033,"ers.com":11034,"▁assent":11035,"ence.":11036,"OD,":11037,"▁agencies,":11038,"▁APPEAR":11039,"▁integrity,":11040,"▁Phil":11041,"▁inventions,":11042,"HE":11043,"▁food":11044,"▁Spons":11045,"▁AV":11046,"▁COUNT":11047,"▁disburse":11048,"▁Rew":11049,"▁Grant":11050,"old,":11051,"▁Conditions;":11052,"▁Rep":11053,"▁Arab":11054,"▁misrepresentation;":11055,"▁derogation":11056,"▁forfeiture":11057,"▁contaminating":11058,"▁affiliate/advertising":11059,"▁shareholders/owners;":11060,"▁table":11061,"▁CIV":11062,"▁Mil":11063,"▁RO":11064,"eliver":11065,"istory":11066,"▁“You":11067,"▁going":11068,"▁infringements":11069,"▁inaccuracy":11070,"▁Solution":11071,"▁(E)":11072,"▁Connection":11073,"▁Details":11074,"Out":11075,"P,":11076,"ing);":11077,"▁downt":11078,"▁BACK":11079,"▁times,":11080,"▁subjects":11081,"▁overdue":11082,"▁Commerce,":11083,"▁privilege":11084,"▁CHANGE":11085,"▁Disput":11086,"▁revisions.":11087,"▁MasterCard":11088,"▁Documentation":11089,"▁overnight":11090,"inqu":11091,"▁produc":11092,"▁Cengage":11093,"▁WIK":11094,".org.":11095,"▁Course":11096,"▁conventional":11097,"▁IMPROVE":11098,"▁anxiety":11099,"AINT":11100,"iles,":11101,"▁PC":11102,"chool":11103,"▁Follow":11104,"respective":11105,"▁Infring":11106,"ENSION":11107,"▁thereon,":11108,"▁pre-paid":11109,"▁identity,":11110,"▁text.":11111,"▁PARTY.":11112,"▁compliance,":11113,"▁Instant":11114,"▁Wiki":11115,"▁Wait":11116,"▁EXPECTATIONS":11117,"▁moment.":11118,"▁FACIL":11119,"be":11120,"brand":11121,"▁Squ":11122,"▁Win":11123,"▁“chain":11124,"▁SUP":11125,"▁Jerse":11126,"▁downloads":11127,"▁whenever":11128,"▁manner;":11129,"▁disclosure.":11130,"▁sublicenseable":11131,"▁enabling":11132,"▁settings.":11133,"▁Society":11134,"By":11135,"IENCE":11136,"N.":11137,"Rev":11138,"rated":11139,"idget":11140,"oles":11141,"▁Family":11142,"▁why":11143,"▁setup":11144,"”):":11145,"▁activities;":11146,"▁Contract,":11147,"▁capital":11148,"▁operators.":11149,"▁(“Feedback":11150,"yber":11151,"▁co-operate":11152,"OOL":11153,"RIGHT":11154,"Sk":11155,"▁)":11156,"▁Bul":11157,"▁act,":11158,"▁reservation":11159,"▁\"F":11160,"▁consenting":11161,"▁ALLOC":11162,"▁authorise":11163,"▁Individual":11164,"▁tax,":11165,"Them":11166,"▁Disclos":11167,"▁coupon":11168,"lin":11169,"▁Pear":11170,"▁Buzz":11171,"▁class,":11172,"▁otherwise),":11173,"▁Kn":11174,"▁online.":11175,"▁gambling":11176,"Am":11177,"Cent":11178,"oph":11179,"pose":11180,"▁SL":11181,"▁Pac":11182,"EDERAL":11183,"ump":11184,"▁license.":11185,"▁effected":11186,"▁minor,":11187,"▁EXCLUSIONS,":11188,"▁rental":11189,"▁perpetu":11190,"▁10,":11191,"personal":11192,"▁PAYMENT":11193,"▁Washington,":11194,"▁removed,":11195,"X,":11196,"gn":11197,"ike":11198,"ford":11199,"▁View":11200,"▁applying":11201,"▁Sites”).":11202,"▁filter,":11203,"▁Chat":11204,"▁(\"M":11205,"s.com/":11206,"▁deliveries":11207,"▁STATUTE,":11208,"▁Bitcoin":11209,"▁\"Agreement":11210,"▁tickets":11211,"▁sixty":11212,"▁Learn":11213,"IFT":11214,"rill":11215,"itution":11216,"set,":11217,"▁Pivotal":11218,"▁Site)":11219,"▁access;":11220,"▁Initial":11221,"▁Holder":11222,"achus":11223,"▁states,":11224,"▁membership.":11225,"▁platform,":11226,"▁INTERACTION":11227,"▁Procedure":11228,"▁DISSATISFACTION":11229,"▁FEATURES":11230,"5,":11231,"οn":11232,"▁Damag":11233,"▁Distribut":11234,"▁website);":11235,"▁pursu":11236,"▁Glob":11237,"ATIONAL":11238,"istic":11239,"▁distributors,":11240,"▁www.h":11241,"▁needless":11242,"▁physician":11243,"▁Science":11244,"▁Outdo":11245,"▁non-proprietary.":11246,"▁EXECUT":11247,"▁JotFor":11248,"▁CIVIL":11249,"-4":11250,"AMENTAL":11251,"▁Sus":11252,"art.com":11253,"▁undue":11254,"▁Nev":11255,"▁applications.":11256,"▁EXPL":11257,"▁Ste":11258,"▁phone,":11259,"▁www.f":11260,"▁Arch":11261,"▁informing":11262,"▁webpage.":11263,"▁Purchaser":11264,"▁holiday":11265,"▁FUNDAMENTAL":11266,"▁Massachus":11267,"▁spokesperson":11268,"DES":11269,"iet":11270,"▁not.":11271,"▁(m":11272,"▁LONG":11273,"ules":11274,"ICS":11275,"▁Content)":11276,"ista":11277,"▁rising":11278,"eech":11279,"▁understandings,":11280,"▁(by":11281,"▁electronically,":11282,"▁EVENT,":11283,"▁method.":11284,"▁due,":11285,"▁Transfer":11286,"▁Marketplace":11287,"▁currency,":11288,"▁OPINION,":11289,"▁machine-":11290,"▁AWARE":11291,"▁('":11292,"gress":11293,"aint":11294,"cover":11295,"▁packet":11296,"▁DEFECT,":11297,"▁Standards":11298,"▁Updated":11299,"▁ATTORNEYS":11300,"▁Vendor":11301,"▁Haymarket":11302,"▁IMPROVEMENTS":11303,"▁Collective":11304,"▁(T":11305,"ISTED":11306,"▁Know":11307,"▁formation":11308,"▁(“T":11309,"▁obligations.":11310,"▁tools.":11311,"iece":11312,"▁sources;":11313,"▁undertaking":11314,"▁inconsist":11315,"▁RECORD":11316,"▁EXCHANG":11317,"▁SATISFACTORY":11318,"▁Alibaba.com":11319,"9,":11320,"BM":11321,"▁Pop":11322,"ables":11323,"▁Jew":11324,"▁customer’s":11325,"▁disabled,":11326,"▁webpages,":11327,"▁preferences":11328,"▁“you”":11329,"▁targeted":11330,"▁mag":11331,"▁UPLO":11332,"▁stud":11333,"▁1,":11334,"▁(“C":11335,"▁plan,":11336,"▁DEFECTS,":11337,"▁CIRCUMSTANCES,":11338,"▁CAR":11339,"▁CARD":11340,"imize":11341,"▁manually":11342,"erry":11343,"content":11344,"▁financial,":11345,"▁Color":11346,"▁Warranties":11347,"▁Malays":11348,"-is":11349,"DA":11350,"PLE":11351,"“)":11352,"▁Build":11353,"▁Natural":11354,"ALT":11355,"lient":11356,"▁location.":11357,"▁qualify":11358,"▁suitability,":11359,"▁equipment.":11360,"▁restrictions,":11361,"▁PARENTS,":11362,"▁banned":11363,"▁tortuous,":11364,"sych":11365,"width":11366,"▁discharge":11367,"▁light":11368,"inkl":11369,"▁discrep":11370,"▁exposure":11371,"gov":11372,"▁redistributing":11373,"▁FIRST":11374,"72":11375,"urt":11376,"▁propriet":11377,"▁Watch":11378,"▁RET":11379,"▁EXC":11380,"▁Beauty":11381,"▁NONINFRINGEMENT.":11382,"▁CONTINU":11383,"SC":11384,"mary":11385,"’),":11386,"▁—":11387,"▁(‘":11388,"▁Ne":11389,"▁Well":11390,"▁“Confidential":11391,"▁VARY":11392,"▁Term,":11393,"▁compensates":11394,"▁databases":11395,"▁therewith.":11396,"▁attached":11397,"▁discovered":11398,"▁quickly":11399,"▁Light":11400,"agram":11401,"andwidth":11402,"▁result,":11403,"▁charities;":11404,"▁passed":11405,"▁Exchan":11406,"▁PERFORM":11407,"▁foregoing.":11408,"▁Share":11409,"atabase":11410,"▁compiled":11411,"▁Provider,":11412,"pic":11413,"ora":11414,"▁Cert":11415,"▁EMOTIONAL":11416,"▁Resell":11417,"▁HD":11418,"▁He":11419,"▁remember":11420,"▁personalized":11421,"▁emailed":11422,"▁amen":11423,"▁LIMITATIONS.":11424,"▁make,":11425,"▁PRODUCT,":11426,"▁alterations":11427,"▁DIRECTORS":11428,"▁mediation":11429,"▁thereafter.":11430,"▁retransmit":11431,"▁Nevad":11432,"▁bad":11433,"▁Sound":11434,"▁COLLECTIVE":11435,"▁Mast":11436,"▁property;":11437,"▁displays,":11438,"▁SPONS":11439,"▁browser.":11440,"▁exceeds":11441,"▁liter":11442,"▁Warner":11443,"▁TWITCH":11444,"▁EXPENSES":11445,"▁non-assignable,":11446,"▁tri":11447,"▁CAS":11448,"ayment":11449,"une":11450,"▁Ut":11451,"▁vo":11452,"▁enroll":11453,"ANY":11454,"▁employed":11455,"▁Jack":11456,"▁days’":11457,"▁message,":11458,"▁PARTY;":11459,"▁Provide":11460,"▁issuer":11461,"▁TEXT":11462,"▁firms;":11463,"▁USEFULNESS":11464,"▁Monthly":11465,"▁recovery":11466,"▁Assets":11467,"fol":11468,"▁fill":11469,"arden":11470,"encing":11471,"▁methods,":11472,"▁utilized":11473,"▁language,":11474,"▁Administrator":11475,"▁non-harmful":11476,"▁achieve":11477,"▁non-harmful.":11478,"IAN":11479,"dn":11480,"ues,":11481,"▁you'":11482,"▁Cin":11483,"▁Land":11484,"▁shut":11485,"▁Medi":11486,"ags":11487,"▁deep":11488,"▁Innov":11489,"▁attorneys,":11490,"ences.":11491,"▁embod":11492,"▁advance.":11493,"▁Wallet":11494,"▁replacing":11495,"▁malfunct":11496,"▁SUCCESSORS,":11497,"P.":11498,"SA":11499,"pal":11500,"▁Since":11501,"▁(9":11502,"▁TO:":11503,"ruck":11504,"▁liability;":11505,"▁Stri":11506,"▁Section,":11507,"▁methods;":11508,"▁Feedback,":11509,"▁Code,":11510,"▁anonymous":11511,"▁unacceptable":11512,"▁MERCHANDISE":11513,"▁augment":11514,"61":11515,"▁cart":11516,"▁conce":11517,"▁is:":11518,"▁Ve":11519,"▁regarded":11520,"▁agents)":11521,"undred":11522,"▁monit":11523,"▁accurate;":11524,"▁registration.":11525,"▁encount":11526,"▁cancellations":11527,"▁like,":11528,"▁(x)":11529,"▁enabled":11530,"▁derogatory,":11531,"▁BARRED":11532,"▁modern":11533,"▁pirated":11534,"75":11535,"va":11536,"onial":11537,"▁piece":11538,"▁Soft":11539,"▁Cas":11540,"imb":11541,"▁(L":11542,"unz":11543,"▁FEDERAL":11544,"iber":11545,"▁GDPR":11546,"▁“sp":11547,"▁emot":11548,".com)":11549,"indow":11550,"▁restore":11551,"▁county":11552,"▁arbitrator's":11553,"▁Marks.":11554,"▁injunction":11555,"▁Trademarks,":11556,"▁interference":11557,"▁ELECTRON":11558,"HD":11559,"lock":11560,"ing\"":11561,"▁COULD":11562,"uts":11563,"rag":11564,"raining":11565,"▁Allow":11566,"▁meanings":11567,"orne":11568,"▁reading":11569,"IGNS":11570,"▁returning":11571,"▁family":11572,"▁Fees.":11573,"Wh":11574,"lad":11575,"▁across":11576,"asi":11577,"▁Dubai":11578,"▁RH":11579,"prov":11580,"▁reasons,":11581,"▁preclude":11582,"▁warranties.":11583,"▁general,":11584,"▁discrimination":11585,"▁replaced":11586,"▁EarthLink":11587,"▁Treasury":11588,"▁witness":11589,"▁Paper":11590,"▁accru":11591,"▁Service(s)":11592,"▁Gold":11593,"▁alarm":11594,"▁authorisation":11595,"▁contents;":11596,"▁solicitation.":11597,"▁spamming":11598,"▁visiting.":11599,"▁USA.":11600,"▁groups,":11601,"▁Subscribers":11602,"▁Florida":11603,"▁enterprise":11604,"▁approval,":11605,"rehensive":11606,"inent":11607,"ar.com":11608,"ans,":11609,"▁Med":11610,"alled":11611,"ANS":11612,"▁irrespective":11613,"▁disclosures,":11614,"-site":11615,"▁running":11616,"▁FRAUD":11617,"▁emotional":11618,"Ap":11619,"SG":11620,"ively":11621,"▁Even":11622,"SEL":11623,"▁speak":11624,"▁texts,":11625,"▁“AS-IS":11626,"▁advocate,":11627,"▁INDIRECTLY,":11628,"▁DESTRUCTIVE":11629,"▁Learning":11630,"▁racism,":11631,"▁Angeles":11632,"7,":11633,"TA":11634,"rition":11635,"ule":11636,"▁Less":11637,"▁Mad":11638,"igration":11639,"▁Stor":11640,"▁Vict":11641,"▁discretion)":11642,"▁Ann":11643,"▁upon,":11644,"▁SOLD":11645,"▁filing,":11646,"▁originated.":11647,"▁Platform;":11648,"▁subsist":11649,"rench":11650,"▁coordination,":11651,"▁MALFUNCTION":11652,"▁EXCESS":11653,"fly":11654,"world":11655,"inct":11656,"▁POT":11657,"asing":11658,"▁Mob":11659,"▁Emb":11660,"VEL":11661,"▁offered.":11662,"▁believed":11663,"abilities":11664,"▁Reserv":11665,"▁quantity":11666,"▁2016":11667,"▁expense.":11668,"▁COMMUNICATION":11669,"virus":11670,"ground":11671,"lines":11672,"och":11673,"s),":11674,"orrow":11675,"▁Cop":11676,"▁intellig":11677,"▁RELE":11678,"▁conditions:":11679,"▁Webpages":11680,"▁individually":11681,"▁fals":11682,"▁supported":11683,"▁properties.":11684,"▁Affiliates,":11685,"▁chat,":11686,"▁manufacturer,":11687,"▁Council":11688,"▁stipulated":11689,"▁Automattic":11690,"Health":11691,"UF":11692,"ees,":11693,"▁Yelp":11694,"▁subsect":11695,"URES,":11696,"▁exped":11697,"axton":11698,"▁condition.":11699,"▁STAND":11700,"▁owner;":11701,"elled":11702,"▁App.":11703,"▁fully-paid":11704,"▁insert":11705,"▁DAMAGE.":11706,"▁Subscription.":11707,"▁Entity":11708,"▁reputation,":11709,"▁PRIVATE":11710,"▁Processing":11711,"▁CONSTIT":11712,"▁inquiries":11713,"▁Telephone":11714,"▁INTERACTIVE":11715,"▁monitored":11716,"lab":11717,"▁efficient":11718,"▁Parent":11719,"▁breach.":11720,"▁mispric":11721,"▁members.":11722,"▁INDEP":11723,"▁remedy,":11724,"▁Client.":11725,"▁everything":11726,"▁difference":11727,"▁explicit,":11728,"Hosting":11729,"▁PARA":11730,"▁INDEPEND":11731,"▁TM":11732,"▁merg":11733,"▁(US":11734,"▁MIN":11735,"▁transfers":11736,"▁respecting":11737,"inding":11738,"▁LIABILITY.":11739,"▁EVERY":11740,"▁programm":11741,"▁approval.":11742,"▁(60)":11743,"▁occasionally":11744,"▁Organization":11745,"▁CONFIDENTIAL":11746,"co.uk":11747,"▁BROWS":11748,"▁PARAGRAPH":11749,"Group":11750,"e’s":11751,"itiously":11752,"▁mirror":11753,"▁ML":11754,"▁lawy":11755,"▁Roy":11756,"▁payments,":11757,"▁means;":11758,"▁immediate,":11759,"▁restrict,":11760,"▁Party.":11761,"AYS":11762,"▁solicitation;":11763,"▁Goods.":11764,"▁mechanical,":11765,"▁DELAYS":11766,"▁Educational":11767,"▁diagn":11768,"gers":11769,"▁Tal":11770,"an.com":11771,"▁Fish":11772,"▁Lottery":11773,"▁mode":11774,"▁pred":11775,"▁surround":11776,"▁compliant":11777,"▁activity;":11778,"▁faulty":11779,"▁shortages":11780,"▁inconvenient":11781,"▁reverse-engineer,":11782,"▁PERMANENTLY":11783,"BC":11784,"rief":11785,"▁hotel":11786,"▁vest":11787,"▁trade,":11788,"▁alert":11789,"▁one-time":11790,"redible":11791,"▁takedown":11792,"▁anyone’s":11793,"▁else.":11794,"▁format,":11795,"▁territory":11796,"▁article":11797,"▁“Content”),":11798,"▁index,":11799,"▁TRADE.":11800,"▁communities,":11801,"▁rankings":11802,"data":11803,"vil":11804,"▁Times":11805,"idd":11806,"▁compar":11807,"▁trademarks.":11808,"▁Asian":11809,"▁Material,":11810,"▁heir":11811,"▁issues.":11812,"▁restriction.":11813,"▁Android":11814,"▁discounts":11815,"▁actively":11816,"▁honor":11817,"/t":11818,"▁insp":11819,"▁boost":11820,"▁bandwidth":11821,"▁yet":11822,"illa":11823,"compliance":11824,"▁Vert":11825,"▁effects.":11826,"▁limitation:":11827,"▁LLC’s":11828,"▁reports,":11829,"▁recommended":11830,"▁Model":11831,"▁variations":11832,"▁consolidate":11833,"▁TERMINATE":11834,"▁OBLIGATION":11835,"▁Informa":11836,"mon":11837,"ings.":11838,"▁hidden":11839,"▁upset,":11840,"▁UNITED":11841,"▁required,":11842,"▁cancels":11843,"▁describing":11844,"▁resolving":11845,"▁else,":11846,"▁representative,":11847,"▁9,":11848,"▁Otherwise":11849,"▁Membership,":11850,"▁manufacturing":11851,"▁unfetter":11852,"▁“User”":11853,"▁security..":11854,"▁unfettered":11855,"FL":11856,"▁notes,":11857,"unnel":11858,"▁claiming":11859,"▁refuse,":11860,"words":11861,"ontact":11862,"▁indemnifying":11863,"▁infection":11864,"▁strive":11865,"▁SEO":11866,"▁Schedule":11867,"▁Harvest":11868,"▁Non-":11869,"▁Pursuant":11870,"44":11871,"worth":11872,"▁much":11873,"ained":11874,"est,":11875,"▁GIVE":11876,"IMB":11877,"▁wherever":11878,"▁sellers":11879,"▁forthwith":11880,"ather,":11881,"▁world,":11882,"▁hosts":11883,"internet":11884,"▁License.":11885,"▁PROPERTY,":11886,"▁sub-licensable,":11887,"▁Broad":11888,"▁PARTICIPATE":11889,"ader,":11890,"▁thus":11891,"atically":11892,"▁Seat":11893,"▁Now":11894,"▁Content\").":11895,"▁GAM":11896,"ECK":11897,"▁(“D":11898,"▁advertises":11899,"▁item,":11900,"▁prevented":11901,"▁omissions.":11902,"▁parcel":11903,"▁reside)":11904,"▁animal":11905,"▁Misuse":11906,"▁Consumers":11907,"▁unsatisfactory":11908,"them":11909,"ance.":11910,"▁Content:":11911,"▁\"sp":11912,"▁operation,":11913,"▁(\"DMCA":11914,"▁partners.":11915,"▁renewed":11916,"▁duties,":11917,"▁Post,":11918,"▁declar":11919,"▁hacking":11920,"▁(this":11921,"▁NONINFRINGEMENT,":11922,"▁inquir":11923,"▁Discount":11924,"applicable":11925,"Now":11926,"cription":11927,"▁things,":11928,"▁of)":11929,"▁Caxton":11930,"▁PMC":11931,"▁BT":11932,"▁Ju":11933,"▁titles,":11934,"▁altered,":11935,"▁released":11936,"▁dealings,":11937,"▁domain,":11938,"▁Visa,":11939,"▁Scot":11940,"▁words,":11941,"▁MODIFIC":11942,"▁ORDER":11943,"frame":11944,"▁Equipment":11945,"▁mer":11946,"▁low":11947,"star":11948,"▁Features":11949,"▁Mor":11950,"▁compos":11951,"▁VER":11952,"▁position":11953,"▁one),":11954,"-faith":11955,"▁Ziff":11956,"▁successful":11957,"▁nationality,":11958,"▁platform.":11959,"▁paragraph.":11960,"▁called":11961,"▁exchanges":11962,"▁Floor,":11963,"▁valuable":11964,"▁frequently":11965,"▁sequences":11966,"-a":11967,"Track":11968,"▁trip":11969,"▁crack":11970,"aries":11971,"▁CUM":11972,"▁DEN":11973,"▁SERVICING,":11974,"▁assur":11975,"▁VIV":11976,"▁ACCORD":11977,"▁Jan":11978,"▁assigns.":11979,"▁PRODUCTS;":11980,"▁FAILED":11981,"▁XN":11982,"uction":11983,"▁bigotry,":11984,"▁pick":11985,"▁Sat":11986,"▁Circ":11987,"arter":11988,"▁LISTED":11989,"▁Ener":11990,"▁Website:":11991,"▁operational":11992,"▁(“App":11993,"▁obscenity,":11994,"▁duplicated,":11995,"▁banking":11996,"▁GENERALITY":11997,"▁DEALING,":11998,"▁\"us\"":11999,"▁WORMS,":12000,"▁COPYRIGHT":12001,"A.,":12002,"gen":12003,"wall":12004,"ona":12005,"▁wast":12006,"▁font":12007,"▁IC":12008,"stream":12009,"ulg":12010,"▁Muse":12011,"▁Insp":12012,"MAND":12013,"▁make)":12014,"▁RELATIONS":12015,"▁number.":12016,"▁jurisdictions.":12017,"▁REMEDIES":12018,"▁phishing)":12019,"▁ACCORDANCE":12020,"ma":12021,"erd":12022,"▁mission":12023,"▁produced":12024,"▁CP":12025,"▁Clear":12026,"stalk":12027,"▁unst":12028,"▁LIT":12029,"▁website)":12030,"▁discretion;":12031,"▁royalt":12032,"▁sublicensable,":12033,"▁Subscriber’s":12034,"▁disseminate,":12035,"TM,":12036,"▁Specific":12037,"▁PROCESS":12038,"▁OPPORT":12039,"▁Tools":12040,"▁LIABILITIES":12041,":00":12042,"hack":12043,"▁Talk":12044,"aning":12045,"▁Cra":12046,"plan":12047,"▁Fram":12048,"▁off,":12049,"▁SITE'S":12050,"▁VEND":12051,"▁Kore":12052,"▁repet":12053,"▁stated.":12054,"▁VIRUS,":12055,"▁recommends":12056,"▁“Intellectual":12057,"▁rooms,":12058,"200":12059,"Y.":12060,"▁CE":12061,"▁Pal":12062,"▁Pres":12063,"unities":12064,"▁FC":12065,"▁Great":12066,"▁instances":12067,"space":12068,"This":12069,"▁$50":12070,"-delivery":12071,"▁Agent:":12072,"▁voluntary":12073,"▁extensions":12074,"▁Earnings":12075,"▁output,":12076,"▁cessation":12077,"FA":12078,"Path":12079,"gment":12080,"pire":12081,"▁base":12082,"ermedi":12083,"▁universe":12084,"▁RSS":12085,"▁provide.":12086,"▁expire":12087,"▁apply:":12088,"▁messaging":12089,"▁OWNER":12090,"▁CHO":12091,"▁Association.":12092,"▁inconsistently":12093,"▁DESCRIB":12094,"▁diligence":12095,"FORCEABLE":12096,"▁Massachuset":12097,"▁conceal":12098,"rical":12099,"’s,":12100,"▁candid":12101,"orrent":12102,"enty":12103,"▁Tri":12104,"▁Sun":12105,"▁Dream":12106,"▁LO":12107,"▁product(s)":12108,"▁creating,":12109,"▁distinct":12110,"▁protocol":12111,"▁enforceable.":12112,"▁waiving":12113,"▁monitor's":12114,"▁DEFEND":12115,"▁Atl":12116,"▁COSTS,":12117,"▁DocuSign":12118,"▁Facebook,":12119,"▁Enterprises":12120,"▁compile,":12121,"▁unforeseen":12122,"▁FILES":12123,"▁London":12124,"Communication":12125,"▁nearly":12126,"hub":12127,"▁PRACT":12128,"▁Fit":12129,"▁Thus,":12130,"agiar":12131,"▁ENS":12132,"▁passwords,":12133,"▁INFORMATION.":12134,"▁(“Google":12135,"▁Provider’s":12136,"▁problems,":12137,"/privacy-policy":12138,"▁sanctions":12139,"▁spoofing);":12140,"▁er":12141,"▁Table":12142,"▁Website)":12143,"▁Hom":12144,"▁former":12145,"▁WHEN":12146,"▁advertiser":12147,"ookies":12148,"▁Member.":12149,"▁negligence.":12150,"▁else’s":12151,"▁techniques,":12152,"▁nevertheless":12153,"▁HELD":12154,"▁non-sublicensable":12155,"DB":12156,"▁bond":12157,"road":12158,"▁Ur":12159,"▁Bud":12160,"▁available’":12161,"▁profiles":12162,"▁paid.":12163,"▁COMPANIES,":12164,"▁extracting":12165,".org,":12166,"▁settlements,":12167,"▁Indemnification":12168,"▁TIMELINESS":12169,"▁accident,":12170,"▁assembly":12171,"▁INFECT":12172,"▁Analytics":12173,"▁randomly-":12174,"generated":12175,"s\"":12176,"▁pages.":12177,"▁Tips":12178,"▁(either":12179,"▁Bureau":12180,"▁Er":12181,"▁Harm":12182,"▁permitting":12183,"▁approx":12184,"▁register,":12185,"▁conducting":12186,"▁cancel,":12187,"▁encouraging":12188,"▁OWNERS,":12189,"▁Contract.":12190,"▁Travell":12191,"▁SUBMISSION":12192,"▁Feedback.":12193,"▁Co.":12194,"▁children,":12195,"▁RESERVE":12196,"▁auto-":12197,"▁length.":12198,"▁POTENTIAL":12199,"▁randomly-generated":12200,"].":12201,"hot":12202,"▁or/":12203,"ica":12204,"▁website’s":12205,"ROSE":12206,"▁“co":12207,"▁commot":12208,"▁limited.":12209,"▁Software”):":12210,"▁credit,":12211,"▁Entertainment":12212,"▁resources).":12213,"▁structure,":12214,"Direct":12215,"▁crypt":12216,"▁TCP":12217,"rivers":12218,"▁province":12219,"ancel":12220,"▁enqu":12221,"UTIONS":12222,"▁form)":12223,"▁COMPENS":12224,"▁ASSIGNS":12225,"▁recommendation,":12226,"▁PLAINT":12227,"▁Advertisers":12228,"▁EXPECTATIONS.":12229,"▁navigate":12230,".L.":12231,"▁Davis":12232,"ipher,":12233,"▁repetitive":12234,"▁PLAINTIFF":12235,"(a)":12236,"/a":12237,"I,":12238,"R.":12239,"RATION":12240,"▁Oh":12241,"▁concluded":12242,"▁CC":12243,"▁Call":12244,"▁weather":12245,"▁holding":12246,"ography":12247,"▁U.S.A.":12248,"▁confirming":12249,"ffiliate":12250,"▁re-use":12251,"▁pictures":12252,"▁PERIODICALLY":12253,"▁prosecution":12254,"▁Collection":12255,"▁nudity":12256,"umulative":12257,"▁privileges":12258,"DUC":12259,"ban":12260,"▁AUP":12261,"ime,":12262,"▁Nit":12263,"▁ANY:":12264,"▁distributor":12265,"▁functions,":12266,"▁DISCLAIMED":12267,"▁functionalities":12268,"TERM":12269,"▁ERROR-FREE.":12270,"▁experience.":12271,"▁greatest":12272,"▁furnished":12273,"▁Capital":12274,"▁Guidelines":12275,"▁embodied":12276,"▁INDEPENDENT":12277,"-cl":12278,"NCE":12279,"”;":12280,"rior":12281,"urs":12282,"▁(www.":12283,"▁Nep":12284,"▁remark":12285,"▁EXPER":12286,"▁\"you":12287,"▁requested,":12288,"▁operators,":12289,"▁maintains":12290,"▁checkpoints":12291,"▁IDENT":12292,"ovie":12293,"▁“Account":12294,"▁legislation,":12295,"▁retrieve,":12296,"▁Theme":12297,"▁Monday":12298,"▁randomly-generated,":12299,"▁cru":12300,"allet":12301,"▁(though":12302,"▁Bel":12303,"▁unlike":12304,"▁Services:":12305,"▁links.":12306,"▁US.":12307,"▁left":12308,"▁entitle":12309,"▁Training":12310,"▁disputes.":12311,"Club":12312,"▁topic,":12313,"▁trojans,":12314,"▁EXPECTATIONS,":12315,"▁explosion,":12316,"▁newsgroups,":12317,"▁categorized":12318,".html":12319,"23":12320,"BU":12321,"HS":12322,"M,":12323,"Mail":12324,"iser":12325,"▁Sign":12326,"REEN":12327,"ORG":12328,"▁expires":12329,"▁followed":12330,"▁conduct)":12331,"▁repaired":12332,"▁equity.":12333,"▁(\"User":12334,"▁PARTICULAR,":12335,"▁exists.":12336,"▁Technical":12337,"▁Guest":12338,"▁PAYMENTS":12339,"▁inherently":12340,"▁falsehoods":12341,"EY":12342,"ised,":12343,"▁CB":12344,"ers),":12345,"▁ours":12346,"osp":12347,"▁GST":12348,"▁EXCLUDE":12349,"▁Member,":12350,"iki":12351,"▁Despite":12352,"▁acquis":12353,"▁COMPONENTS,":12354,"▁labour":12355,"▁Advertisement":12356,"▁Island":12357,"▁“Customer":12358,"▁embargoes,":12359,"▁LTD.":12360,"▁Studios":12361,"▁certificate":12362,"▁unstated.":12363,"',":12364,"15":12365,"s”),":12366,"z.com":12367,"▁same,":12368,"using":12369,"▁Song":12370,"▁ven":12371,"▁Match":12372,"ailor":12373,"pert":12374,"sofar":12375,"▁Videos":12376,"sufficient":12377,"▁U.S.A.,":12378,"▁recording":12379,"▁Always":12380,"▁expectations":12381,"▁Flow":12382,"▁covering":12383,"▁Governing":12384,"▁racist,":12385,"haust":12386,"▁anti-virus":12387,"▁non-delivery":12388,"hop":12389,"xt":12390,"▁birth":12391,"▁SF":12392,"▁EF":12393,"▁ECON":12394,"ALU":12395,"▁nondisclosure":12396,"▁again.":12397,"▁FROM,":12398,"▁referring":12399,"▁registering,":12400,"▁www.j":12401,"▁Members,":12402,"▁OFFICERS":12403,"▁Rights.":12404,"▁schedule":12405,"▁Law.":12406,"▁involvement":12407,"▁subscribed":12408,"▁DISTRESS,":12409,"▁GREATEST":12410,"▁owing":12411,"▁Magazine":12412,"▁CONSTITUTE":12413,"▁templates":12414,"▁Victor":12415,"▁VIVA":12416,"▁ECONOM":12417,"▁daily":12418,"▁conting":12419,"▁resold,":12420,"▁image,":12421,"▁officer":12422,"▁instant":12423,"▁www.c":12424,"▁yourself.":12425,"▁singular":12426,"▁residence.":12427,"▁INDEMNIFY":12428,"Script":12429,"▁unrestricted,":12430,"▁NEEDS":12431,"F.":12432,"wr":12433,"▁sust":12434,"▁AROSE":12435,"▁e.g":12436,"▁Mich":12437,"eline":12438,"▁implies":12439,"▁arri":12440,"aps":12441,"▁expenses)":12442,"▁participants":12443,"▁efforts,":12444,"▁DISPLAYED":12445,"▁(referred":12446,"ief":12447,"▁COL":12448,"▁ongoing":12449,"▁Frid":12450,"▁Consequent":12451,"▁impaired":12452,"▁threatens":12453,"▁4,":12454,"▁Northern":12455,"▁insurrection,":12456,"Bl":12457,"N,":12458,"ae":12459,"educ":12460,"▁Om":12461,"▁Ever":12462,"▁additions":12463,"▁Unit":12464,"erald":12465,"▁PROVIDING":12466,"▁author,":12467,"▁SPECIFIED":12468,"REGARD":12469,"▁WAIVER":12470,"▁consumers":12471,"▁TYPE":12472,"▁instrument":12473,"flood":12474,"▁Summit":12475,"LATED":12476,"sk":12477,"ym":12478,"on.com":12479,"ench":12480,"▁history":12481,"plus":12482,"▁Services)":12483,"▁received.":12484,"▁www.d":12485,"▁authorizing":12486,"▁actions.":12487,"▁developing,":12488,"▁redeem":12489,"▁debited":12490,"▁Counter":12491,"▁calls,":12492,"▁mail,\"":12493,"theless,":12494,"▁unreasonably":12495,"▁Coupon":12496,"▁SUSPENSION":12497,"▁WIKIA":12498,"/IP":12499,"hol":12500,"▁widget":12501,"▁Sever":12502,"imo":12503,"about":12504,"▁Fant":12505,"▁Fast":12506,"osed,":12507,"▁HEAR":12508,"▁“We":12509,"pected,":12510,"▁invad":12511,"▁item.":12512,"▁anyone.":12513,"▁unsus":12514,"▁THEREFORE":12515,"▁Member’s":12516,"▁compilations":12517,"▁resource.":12518,"▁Form,":12519,"▁impacts":12520,"▁thinking":12521,"▁Idea":12522,"▁ACCEPTANCE":12523,"-per":12524,"Away":12525,"an.":12526,"▁Currency":12527,"▁FRE":12528,"▁Economic":12529,"IONS,":12530,"▁adjud":12531,".com;":12532,"▁receive,":12533,"▁ACCRU":12534,"▁foreseen":12535,"▁EVALU":12536,"▁DEMAND":12537,"▁DETERM":12538,"▁Show":12539,"▁Blackboard.":12540,"▁8,":12541,"▁PAID,":12542,"▁unavailable.":12543,"▁combine":12544,"▁Listing":12545,"▁Brands":12546,"▁Pacific":12547,"▁assurances":12548,"rata":12549,"rary":12550,"▁Aff":12551,"ries,":12552,"▁COU":12553,"▁unsu":12554,"ISTER":12555,"▁“sc":12556,"▁desire":12557,"▁2000":12558,"▁filter":12559,"evel":12560,"selv":12561,"▁properties,":12562,"▁ATTEM":12563,"Market":12564,"▁SUCCESSORS":12565,"▁statistical":12566,"-L":12567,"FER":12568,"O,":12569,"isite":12570,"▁reader":12571,"▁Teen":12572,"▁Cost":12573,"▁Wall":12574,"▁it's":12575,"▁offline,":12576,"▁SOCIAL":12577,"▁instance,":12578,"▁choosing":12579,"▁Engine":12580,"▁Qual":12581,"▁children.":12582,"▁DELAYS,":12583,"▁combin":12584,"▁learned":12585,"▁Works":12586,"▁emergency":12587,"▁EXPLICIT":12588,"gain":12589,"▁00":12590,"▁franch":12591,"▁mus":12592,"ubject":12593,"▁Give":12594,"▁receiver":12595,"▁unlimited":12596,"▁profiles,":12597,"▁views,":12598,"IVERS":12599,"▁Client,":12600,"▁Accept":12601,"▁subscribing":12602,"▁freedom":12603,"▁covenants":12604,"▁deducted":12605,"-month":12606,"▁RESERVES":12607,"▁hatred,":12608,"▁overloading,":12609,"▁ELECTRONIC":12610,"▁or/and":12611,"7.":12612,"NER":12613,"effective":12614,"itation":12615,"▁Base":12616,"ROSS":12617,"▁(“AAA":12618,"fford":12619,"▁URL(s)":12620,"▁normally":12621,"Plus":12622,"▁fixed":12623,"▁(\"Content\")":12624,"▁UPLOAD":12625,".tv":12626,"▁bal":12627,"ros":12628,"▁Cycle":12629,"open":12630,"▁networked":12631,"▁excluded,":12632,"▁incorporates":12633,"▁Controll":12634,"where,":12635,"▁COMPANY’S":12636,"▁administer":12637,"▁SUBSCRIB":12638,"▁classified":12639,"▁CHECK":12640,"▁Feature":12641,"▁Participant":12642,"▁EPILE":12643,"▁SETTLE":12644,"45":12645,"BR":12646,"▁nomin":12647,"▁Pin":12648,"arts":12649,"▁Dog":12650,"aces":12651,"▁strateg":12652,"▁defeat":12653,"▁pre-p":12654,"▁individuals,":12655,"▁deleting":12656,"▁scan,":12657,"▁taxes.":12658,"▁ACTION.":12659,"▁coverage":12660,"▁highest":12661,"▁NOTICE.":12662,"▁deceive":12663,"▁Nitro":12664,"PC":12665,"Pass":12666,"mises":12667,"ters.":12668,"atin":12669,"▁reuse":12670,"▁prove":12671,"▁easy":12672,"▁(N":12673,"▁Days":12674,"▁stolen":12675,"▁invite":12676,"▁expired":12677,"▁payments.":12678,"▁misident":12679,"▁23":12680,"▁gener":12681,"▁placed.":12682,"▁misrepresents":12683,"▁30-day":12684,"▁updates.":12685,"▁assertions":12686,".2,":12687,"▁Form.":12688,"▁upgraded":12689,"▁Australia.":12690,"▁Pvt":12691,"▁Film":12692,"▁footer":12693,"▁NZME":12694,"▁inconsistency":12695,"A.COM":12696,"IANCE":12697,"NOS":12698,"Use":12699,"XP":12700,"yd":12701,"▁pan":12702,"▁INTERRUPTIONS,":12703,"▁Quot":12704,"▁REQUIRED":12705,"▁Modification":12706,"/services":12707,"▁\"Content\"":12708,"▁\"Content\")":12709,"▁behaviour":12710,"▁Ontario,":12711,".Com":12712,"ZE":12713,"▁be.":12714,"▁(8)":12715,"▁Mer":12716,"oney,":12717,"▁acknowledged":12718,"▁dispose":12719,"▁systems.":12720,"▁controversy,":12721,"One":12722,"▁Create":12723,"▁negotiations,":12724,"▁consumer,":12725,"▁THEFT,":12726,"▁(“DMCA”)":12727,"▁fully-paid,":12728,"▁unlikely":12729,"/JUR":12730,"26":12731,"GA":12732,"Post":12733,"gent":12734,"▁crim":12735,"▁anyone,":12736,"▁flight":12737,"▁LESS":12738,"▁Level":12739,"▁dependent":12740,"s.net":12741,"▁(\"Mark":12742,"▁visitor’s":12743,"▁Modify":12744,"Ads":12745,"WHERE":12746,"▁TCP/IP":12747,"OTHER":12748,"UK":12749,"▁SK":12750,"▁Ca":12751,"▁Yoga":12752,"▁French":12753,"▁LAST":12754,"▁Nig":12755,"▁God":12756,"▁Competition":12757,"▁Ken":12758,"▁(“Your":12759,"▁No.":12760,"▁\"AS-IS":12761,"▁worms":12762,"▁satisfaction":12763,"▁FREE,":12764,"▁fires,":12765,"▁GUARANTEES":12766,"▁PHYS":12767,"▁co-branders":12768,"▁Royal":12769,"rog":12770,"▁Penn":12771,"▁LINE":12772,"qual":12773,"▁Room":12774,"ERVICE":12775,"▁RECOMM":12776,"▁OTHERS":12777,"▁limitations,":12778,"▁DET":12779,"▁advertisers.":12780,"▁RISKS":12781,"▁Licence":12782,"▁FEES,":12783,".2.":12784,"▁ARBITRATOR":12785,"▁opening":12786,"▁manufacturers":12787,"▁occasions":12788,"▁firms":12789,"▁sweepstakes":12790,"▁οr":12791,"/h":12792,"GS":12793,"card":12794,"gest":12795,"ico":12796,"▁dedicated":12797,"▁SOUR":12798,"▁Self":12799,"▁pro-":12800,"▁undiscl":12801,"▁Happy":12802,"▁Gl":12803,"▁GRANT":12804,"▁REPL":12805,"▁plagiar":12806,"▁Key":12807,"▁contact@":12808,"▁allowed.":12809,"▁audiovisual":12810,"▁Emir":12811,"▁re-export,":12812,"▁ExpressVPN":12813,"▁E-MAIL":12814,"Commerce":12815,"▁depicting":12816,"▁scrape,":12817,"▁ATTORNEY":12818,"▁bots,":12819,"▁fourteen":12820,"▁EXCHANGED,":12821,"X.":12822,"▁Push":12823,"▁Conc":12824,"AL,":12825,"▁Gro":12826,"▁infringer.":12827,"▁COMPAT":12828,"▁amount.":12829,"▁protective":12830,"▁meeting":12831,"▁7,":12832,"▁cooperation":12833,"Class":12834,"▁Events":12835,"▁upgrades":12836,"▁RECEIVE":12837,"▁crawlers,":12838,"▁channels.":12839,"▁embarrass":12840,"▁you’re":12841,"▁DELIVERY":12842,"▁dialogue":12843,"▁Colorad":12844,"▁Consequently,":12845,"info":12846,"▁to.":12847,"▁mar":12848,"ander":12849,"ota":12850,"imp":12851,"▁U.":12852,"udi":12853,"ifty":12854,"▁“b":12855,"▁signifies":12856,"▁untrue":12857,"▁Seller.":12858,"▁twenty":12859,"▁ACCOUNT,":12860,"▁misappropriates":12861,"▁censor":12862,"▁unsuspected,":12863,"aring,":12864,"illary":12865,"ARP":12866,"▁TOOL":12867,"▁represented":12868,"▁\"your":12869,"▁understand,":12870,"▁document,":12871,"▁Cheap":12872,"▁Christ":12873,"▁preside":12874,"▁decre":12875,"COMP":12876,"▁XXX":12877,"▁supplying":12878,"▁prepared":12879,"▁boards":12880,"▁old.":12881,"▁illustr":12882,"Forum":12883,"▁executing":12884,"▁penalties.":12885,"▁mutual":12886,"▁Fees,":12887,"▁credential":12888,"▁\"spam,\"":12889,"▁FUNCTIONALITY":12890,"▁biographical":12891,"▁PREVIOUSLY":12892,"▁ASSIGNS,":12893,"/JURISD":12894,"loc":12895,"▁pure":12896,"▁(al":12897,"ola":12898,"▁Far":12899,"▁Mc":12900,"▁wea":12901,"▁availing":12902,"▁name.":12903,"▁accepted,":12904,"▁IT.":12905,"way,":12906,"▁brands":12907,"-home":12908,"Product":12909,"▁configur":12910,"▁submitted,":12911,"-protected":12912,"▁OCCUR":12913,"▁challenge":12914,"29":12915,"iti":12916,"atar":12917,"▁field":12918,"▁Take":12919,"▁Press":12920,"▁Fed":12921,"▁Friend":12922,"▁“Company":12923,"▁Agreement:":12924,"▁privacy;":12925,"▁DATA.":12926,"▁items.":12927,"▁upgrading":12928,"▁Opport":12929,"▁“your”":12930,"▁HIPAA.":12931,"▁(together,":12932,"(b)":12933,"▁DESCRIBED":12934,"▁“covered":12935,"SH":12936,"inic":12937,"atri":12938,"▁insufficient":12939,"employ":12940,"▁Ell":12941,"▁RELY":12942,"▁regarding,":12943,"▁work-":12944,"▁password;":12945,"▁MATERIALS.":12946,"▁inaccess":12947,"▁heard":12948,"-SP":12949,"▁incorrectly":12950,"▁strives":12951,"▁preservation":12952,"bound":12953,"orm":12954,"▁SUR":12955,"▁Demand":12956,"▁will:":12957,"end,":12958,"▁entity”":12959,"▁originates":12960,"▁opinion.":12961,"▁cancelled,":12962,"▁Ltd.,":12963,"▁Zone":12964,"▁instructions,":12965,"▁aggregated":12966,"▁acquire,":12967,"▁dispatched":12968,"▁Numbers":12969,"▁Dollar":12970,"▁allocated":12971,"▁MANAGERS,":12972,"▁CUMUL":12973,"▁cumulative":12974,"orpor":12975,"▁mo":12976,"iffer":12977,"ulate":12978,"OUGH":12979,"▁applicability":12980,"▁violent":12981,"ENCES":12982,"▁genu":12983,"▁APPLICATIONS":12984,"▁authority.":12985,"▁aggress":12986,"▁guardians":12987,"▁Merchants":12988,"▁faults,":12989,"▁Artist":12990,"▁UPDATE":12991,"CV":12992,"nes":12993,"▁re-p":12994,"▁Pos":12995,"ER.":12996,"▁Ec":12997,"▁“Claim":12998,"▁must:":12999,"▁INCOM":13000,"▁checked":13001,"▁entitled,":13002,"▁amend,":13003,"▁therein;":13004,"▁PARTIES;":13005,"▁‘comments":13006,"▁protection,":13007,"▁assistance,":13008,"▁Coach":13009,"▁ADVERTISING":13010,"▁slander":13011,"▁House,":13012,"▁Africa":13013,"▁London,":13014,"lebr":13015,"▁cancelbots,":13016,"▁Jewel":13017,"▁EFFOR":13018,"-off":13019,"T.":13020,"▁id":13021,"▁PAIN":13022,"arter,":13023,"▁HOST":13024,"▁consequential)":13025,"▁modifying,":13026,"▁EXTEND":13027,"▁below:":13028,"▁alteration,":13029,"▁Provision":13030,"▁(Web":13031,"ylvan":13032,"Notice":13033,"▁VISIT":13034,"▁demonstrate":13035,".V.":13036,"▁downtime":13037,"▁Following":13038,"▁wasted":13039,"/JURISDICTIONS":13040,"cillary":13041,"ABLY":13042,"▁\"Your":13043,"▁Uniform":13044,"▁Unsolicited":13045,"▁cause.":13046,"oke":13047,"▁detect":13048,"▁charities,":13049,"▁websites;":13050,"▁logged":13051,"▁canceling":13052,"ocking":13053,"▁pattern":13054,"▁extreme":13055,"▁prohibition":13056,"▁PRESENT":13057,"▁ordinance,":13058,"▁volition":13059,"▁Properties,":13060,"NEW":13061,"/pro":13062,"33":13063,"4.":13064,"▁task":13065,"▁dimin":13066,"▁post.":13067,"▁PERMIT":13068,"▁www.internet":13069,"▁company’s":13070,"▁months.":13071,"▁solicit,":13072,"▁improving":13073,"▁evaluate,":13074,"▁Incredible":13075,"▁learning":13076,"▁situations":13077,"▁Outside":13078,"▁(https://":13079,"▁SUFFERING,":13080,"▁Twitter":13081,"▁graphical":13082,"▁ECONOMIC":13083,"▁‘comments’),":13084,"FROM":13085,"“).":13086,"▁OS":13087,"▁Find":13088,"▁RUL":13089,"▁Hotel":13090,"▁expression":13091,"'s)":13092,"▁COMMIT":13093,"▁addressing":13094,"▁Plus":13095,"▁promotion,":13096,"▁furthering":13097,"retri":13098,"ample":13099,"▁AFFECTED":13100,"▁Regardless":13101,"▁revenues,":13102,"▁Twinkl":13103,"▁discriminatory,":13104,"▁authenticate":13105,"▁17,":13106,".3,":13107,"▁Judgment":13108,"▁enforcing":13109,"GE,":13110,"Job":13111,"UNT":13112,"oor":13113,"pre":13114,"inity":13115,"at-home":13116,"▁SSL":13117,"▁Cos":13118,"▁Pic":13119,"▁is,”":13120,"▁Dut":13121,"odes":13122,"comes":13123,"▁remote":13124,"▁speech":13125,"▁WARRANTS":13126,"▁basic":13127,"ECTIONS":13128,"▁assignable,":13129,"▁Ask":13130,"▁source,":13131,"up.com":13132,"▁judgments":13133,"▁Rights,":13134,"▁browser,":13135,"▁bookings":13136,"▁“Privacy":13137,".00.":13138,"▁undertakings":13139,"▁REVENUE":13140,"▁Publications":13141,"▁range":13142,"▁predecess":13143,"▁AARP":13144,"ager":13145,"▁“W":13146,"▁creator":13147,"orship":13148,"▁\"pyramid":13149,"▁advising":13150,"▁INTEG":13151,"▁delay.":13152,"▁PERSONS":13153,"▁Seller,":13154,"▁forum,":13155,"▁Card,":13156,"▁CONSENT":13157,"▁STATES/JURISDICTIONS":13158,"▁“Our":13159,"▁disbursements":13160,"▁Energy":13161,"apor":13162,"sylvan":13163,"▁TL":13164,"▁WAS":13165,"▁Edit":13166,"ORTED":13167,"▁outwe":13168,"▁\"B":13169,"▁1.":13170,"▁Policy)":13171,"▁another;":13172,"▁Requ":13173,"account":13174,"▁REPRESENTATION,":13175,"afe":13176,"▁THEREON":13177,"▁transactions.":13178,"▁instruction":13179,"▁mention":13180,"▁litigate":13181,"▁“Site”)":13182,"▁dissatisfaction":13183,"▁breakdown":13184,"▁Breach":13185,"▁commissions":13186,"UFACT":13187,"▁Pennsylvan":13188,"▁work-at-home":13189,"-SPAM":13190,"▁outweigh":13191,"Ind":13192,"▁(an":13193,"▁proving":13194,"▁Mountain":13195,"▁ET":13196,"▁copyrightable":13197,"▁REMA":13198,"lix":13199,"▁contracting":13200,"▁kind;":13201,"UNITY":13202,"▁correctness":13203,"▁destin":13204,"▁Partn":13205,"▁requirements;":13206,"▁interfere,":13207,"▁variation":13208,"▁itself,":13209,"▁GIVEN":13210,"▁MANUFACT":13211,"▁launder":13212,"-RELATED":13213,"▁outweighs":13214,"/ind":13215,"28":13216,"▁•":13217,"▁lines,":13218,"▁other.":13219,"▁Edu":13220,"oses":13221,"▁link);":13222,"▁own;":13223,"▁Exp":13224,"▁Sites\").":13225,"▁determine,":13226,"▁sign-up":13227,"▁components,":13228,"▁Flash":13229,"▁THEREIN;":13230,"▁interfaces":13231,"-generated":13232,"▁unforesee":13233,"▁adhering":13234,"▁Style":13235,"▁“You”":13236,"▁Vertical":13237,"▁www.internetbrand":13238,"/.":13239,"med":13240,"ene":13241,"▁are:":13242,"▁partially":13243,"ama":13244,"▁NS":13245,"▁content)":13246,"▁exposing":13247,"ously":13248,"urniture":13249,"▁competition,":13250,"spec":13251,"▁media;":13252,"▁STATUTE":13253,"▁contribution":13254,"▁SUBMIT":13255,"▁contests":13256,"▁Upgrad":13257,"▁capacity,":13258,"▁ATTACK":13259,"offline":13260,"▁exchange,":13261,"▁RELEASE,":13262,"▁withholding":13263,"▁Baby":13264,"▁adjudic":13265,"▁RECOMMEND":13266,"FC":13267,"Sal":13268,"direct":13269,"mer":13270,"wear":13271,"▁size":13272,"▁So":13273,"▁hot":13274,"▁(THE":13275,"▁Loc":13276,"▁Help":13277,"▁FOR,":13278,"▁NOTE":13279,"▁RESOL":13280,"▁promises":13281,"▁good-faith":13282,"▁TIME,":13283,"Comments":13284,"▁fact,":13285,"▁mechanism,":13286,"▁mistakes":13287,"▁Contribution":13288,"▁Processor":13289,"▁earthquakes,":13290,"▁LITIG":13291,"▁CUMULATIVE":13292,"2.":13293,"UIT":13294,"tube":13295,"▁Tak":13296,"▁Prom":13297,"▁hundred":13298,"▁Ran":13299,"▁Content\"":13300,"▁Content\")":13301,"▁Content”),":13302,"ocus":13303,"▁requisite":13304,"▁manifest":13305,"▁another.":13306,"▁purchased.":13307,"▁(\"T":13308,"▁domains":13309,"▁profile.":13310,"Scope":13311,"▁students":13312,"▁MALICI":13313,"▁acknowledged.":13314,"▁earned":13315,"▁Java":13316,"▁insolvent":13317,"▁CANCEL":13318,"▁Wikidot":13319,"EX":13320,"each":13321,"iam":13322,"▁Iran":13323,"idem":13324,"▁UBM":13325,"▁unex":13326,"▁Lux":13327,"▁voice":13328,"▁HUB":13329,"▁connections":13330,"▁third-party.":13331,"▁designate":13332,"▁cancelling":13333,"▁day.":13334,"▁tool,":13335,"▁94":13336,"▁blocked":13337,"▁inappropriate.":13338,"▁Associates":13339,"▁Opin":13340,"▁FAV":13341,"▁zip":13342,"▁ELEMENTS":13343,"Finder":13344,"certain":13345,"oes":13346,"erts":13347,"inja":13348,"▁money,":13349,"▁covers":13350,"ubmission":13351,"▁stating":13352,"▁Compare":13353,"▁licensor":13354,"▁end-us":13355,"▁due.":13356,"▁networking":13357,"▁then,":13358,"▁includes:":13359,"▁day,":13360,"▁45":13361,"Street":13362,"▁points":13363,"▁newsletters":13364,"▁archive":13365,"▁Restrictions":13366,"▁WHOLE":13367,"▁LIABILITIES,":13368,"▁Guarantee":13369,"▁epidem":13370,"▁Vehic":13371,"▁MALICIOUS":13372,"bal":13373,"eight":13374,"ty,":13375,"videos":13376,"ald":13377,"olve":13378,"▁Ham":13379,"▁harms":13380,"▁Keep":13381,"io,":13382,"▁purchases,":13383,"▁valid.":13384,"▁PURPORTED":13385,"IFY,":13386,"▁record,":13387,"▁(Indemn":13388,"▁physical,":13389,"▁completeness.":13390,"▁Provided":13391,"▁“us”,":13392,"▁Supplementary":13393,"▁CONSTITUTES":13394,"T,":13395,"ppens":13396,"ya":13397,"imonial":13398,"▁Risk":13399,"▁happens":13400,"▁linking,":13401,"▁Grad":13402,"▁GOD,":13403,"ative,":13404,"▁marks.":13405,"▁(“Linked":13406,"▁advertiser.":13407,"▁existence,":13408,"▁enhancements,":13409,"▁sublicensees":13410,"eddable":13411,"▁revenue;":13412,
[...]
